{
  "version": "1.0",
  "truncation": null,
  "padding": null,
  "added_tokens": [
    {
      "id": 0,
      "content": "<pad>",
      "single_word": false,
      "lstrip": false,
      "rstrip": false,
      "normalized": true,
      "special": true
    },
    {
      "id": 1,
      "content": "<|endoftext|>",
      "single_word": false,
      "lstrip": false,
      "rstrip": false,
      "normalized": true,
      "special": true
    },
    {
      "id": 2,
      "content": "<s>",
      "single_word": false,
      "lstrip": false,
      "rstrip": false,
      "normalized": true,
      "special": true
    },
    {
      "id": 3,
      "content": "</s>",
      "single_word": false,
      "lstrip": false,
      "rstrip": false,
      "normalized": true,
      "special": true
    },
    {
      "id": 5,
      "content": "<mask>",
      "single_word": false,
      "lstrip": false,
      "rstrip": false,
      "normalized": false,
      "special": true
    }
  ],
  "normalizer": null,
  "pre_tokenizer": {
    "type": "ByteLevel",
    "add_prefix_space": false,
    "trim_offsets": true,
    "use_regex": true
  },
  "post_processor": {
    "type": "ByteLevel",
    "add_prefix_space": true,
    "trim_offsets": false,
    "use_regex": true
  },
  "decoder": {
    "type": "ByteLevel",
    "add_prefix_space": true,
    "trim_offsets": true,
    "use_regex": true
  },
  "model": {
    "type": "BPE",
    "dropout": null,
    "unk_token": null,
    "continuing_subword_prefix": "",
    "end_of_word_suffix": "",
    "fuse_unk": false,
    "byte_fallback": false,
    "ignore_merges": false,
    "vocab": {
      "<pad>": 0,
      "<|endoftext|>": 1,
      "<s>": 2,
      "</s>": 3,
      "<unk>": 4,
      "<mask>": 5,
      "!": 6,
      "\"": 7,
      "#": 8,
      "$": 9,
      "%": 10,
      "&": 11,
      "'": 12,
      "(": 13,
      ")": 14,
      "*": 15,
      "+": 16,
      ",": 17,
      "-": 18,
      ".": 19,
      "/": 20,
      "0": 21,
      "1": 22,
      "2": 23,
      "3": 24,
      "4": 25,
      "5": 26,
      "6": 27,
      "7": 28,
      "8": 29,
      "9": 30,
      ":": 31,
      ";": 32,
      "<": 33,
      "=": 34,
      ">": 35,
      "?": 36,
      "@": 37,
      "A": 38,
      "B": 39,
      "C": 40,
      "D": 41,
      "E": 42,
      "F": 43,
      "G": 44,
      "H": 45,
      "I": 46,
      "J": 47,
      "K": 48,
      "L": 49,
      "M": 50,
      "N": 51,
      "O": 52,
      "P": 53,
      "Q": 54,
      "R": 55,
      "S": 56,
      "T": 57,
      "U": 58,
      "V": 59,
      "W": 60,
      "X": 61,
      "Y": 62,
      "Z": 63,
      "[": 64,
      "\\": 65,
      "]": 66,
      "^": 67,
      "_": 68,
      "`": 69,
      "a": 70,
      "b": 71,
      "c": 72,
      "d": 73,
      "e": 74,
      "f": 75,
      "g": 76,
      "h": 77,
      "i": 78,
      "j": 79,
      "k": 80,
      "l": 81,
      "m": 82,
      "n": 83,
      "o": 84,
      "p": 85,
      "q": 86,
      "r": 87,
      "s": 88,
      "t": 89,
      "u": 90,
      "v": 91,
      "w": 92,
      "x": 93,
      "y": 94,
      "z": 95,
      "{": 96,
      "|": 97,
      "}": 98,
      "~": 99,
      "¡": 100,
      "¢": 101,
      "£": 102,
      "¤": 103,
      "¥": 104,
      "¦": 105,
      "§": 106,
      "¨": 107,
      "©": 108,
      "ª": 109,
      "«": 110,
      "¬": 111,
      "®": 112,
      "¯": 113,
      "°": 114,
      "±": 115,
      "²": 116,
      "³": 117,
      "´": 118,
      "µ": 119,
      "¶": 120,
      "·": 121,
      "¸": 122,
      "¹": 123,
      "º": 124,
      "»": 125,
      "¼": 126,
      "½": 127,
      "¾": 128,
      "¿": 129,
      "À": 130,
      "Á": 131,
      "Â": 132,
      "Ã": 133,
      "Ä": 134,
      "Å": 135,
      "Æ": 136,
      "Ç": 137,
      "È": 138,
      "É": 139,
      "Ê": 140,
      "Ë": 141,
      "Ì": 142,
      "Í": 143,
      "Î": 144,
      "Ï": 145,
      "Ð": 146,
      "Ñ": 147,
      "Ò": 148,
      "Ó": 149,
      "Ô": 150,
      "Õ": 151,
      "Ö": 152,
      "×": 153,
      "Ø": 154,
      "Ù": 155,
      "Ú": 156,
      "Û": 157,
      "Ü": 158,
      "Ý": 159,
      "Þ": 160,
      "ß": 161,
      "à": 162,
      "á": 163,
      "â": 164,
      "ã": 165,
      "ä": 166,
      "å": 167,
      "æ": 168,
      "ç": 169,
      "è": 170,
      "é": 171,
      "ê": 172,
      "ë": 173,
      "ì": 174,
      "í": 175,
      "î": 176,
      "ï": 177,
      "ð": 178,
      "ñ": 179,
      "ò": 180,
      "ó": 181,
      "ô": 182,
      "õ": 183,
      "ö": 184,
      "÷": 185,
      "ø": 186,
      "ù": 187,
      "ú": 188,
      "û": 189,
      "ü": 190,
      "ý": 191,
      "þ": 192,
      "ÿ": 193,
      "Ā": 194,
      "ā": 195,
      "Ă": 196,
      "ă": 197,
      "Ą": 198,
      "ą": 199,
      "Ć": 200,
      "ć": 201,
      "Ĉ": 202,
      "ĉ": 203,
      "Ċ": 204,
      "ċ": 205,
      "Č": 206,
      "č": 207,
      "Ď": 208,
      "ď": 209,
      "Đ": 210,
      "đ": 211,
      "Ē": 212,
      "ē": 213,
      "Ĕ": 214,
      "ĕ": 215,
      "Ė": 216,
      "ė": 217,
      "Ę": 218,
      "ę": 219,
      "Ě": 220,
      "ě": 221,
      "Ĝ": 222,
      "ĝ": 223,
      "Ğ": 224,
      "ğ": 225,
      "Ġ": 226,
      "ġ": 227,
      "Ģ": 228,
      "ģ": 229,
      "Ĥ": 230,
      "ĥ": 231,
      "Ħ": 232,
      "ħ": 233,
      "Ĩ": 234,
      "ĩ": 235,
      "Ī": 236,
      "ī": 237,
      "Ĭ": 238,
      "ĭ": 239,
      "Į": 240,
      "į": 241,
      "İ": 242,
      "ı": 243,
      "Ĳ": 244,
      "ĳ": 245,
      "Ĵ": 246,
      "ĵ": 247,
      "Ķ": 248,
      "ķ": 249,
      "ĸ": 250,
      "Ĺ": 251,
      "ĺ": 252,
      "Ļ": 253,
      "ļ": 254,
      "Ľ": 255,
      "ľ": 256,
      "Ŀ": 257,
      "ŀ": 258,
      "Ł": 259,
      "ł": 260,
      "Ń": 261,
      "ĠÐ": 262,
      "Ð¾": 263,
      "Ðµ": 264,
      "Ð°": 265,
      "ÑĤ": 266,
      "Ð¸": 267,
      "Ñģ": 268,
      "Ð½": 269,
      "Ð¾Ð": 270,
      "ÑĢ": 271,
      "Ð»": 272,
      "Ñĥ": 273,
      "Ðº": 274,
      "Ñı": 275,
      "Ñĭ": 276,
      "Ð²": 277,
      "Ð¼": 278,
      "ÑĮ": 279,
      "ĠÐ¿": 280,
      "Ð´": 281,
      "ĠÑģ": 282,
      "ĠÐ²": 283,
      "Ñĩ": 284,
      "ĠÐ½": 285,
      "ÑģÑĤ": 286,
      "ÐµÐ½": 287,
      "ĠÐ¸": 288,
      "ÑĢÐ°": 289,
      "Ð·": 290,
      "ĠÐ¾": 291,
      "Ð¾Ð²": 292,
      "Ñħ": 293,
      "ĠÐº": 294,
      "Ð¿": 295,
      "Ð¹": 296,
      "Ð±": 297,
      "Ð³": 298,
      "ÑĢÐµ": 299,
      "ÑĤÐ¾": 300,
      "ĠÐ´": 301,
      "ÑĪ": 302,
      "ÐµÑĤ": 303,
      "Ð¾Ð»": 304,
      "Ð°Ð»": 305,
      "Ñİ": 306,
      "Ð¾Ð¼": 307,
      "ĠÐ¼": 308,
      "Ð½Ð¸": 309,
      "ĠÐ½Ð°": 310,
      "Ð½Ð¾": 311,
      "ĠÑĤ": 312,
      "Ð¾Ð´": 313,
      "ÐµÐ»": 314,
      "ÑĢÐ¸": 315,
      "Ð¶": 316,
      "Ð¾Ð³": 317,
      "Ð½Ñĭ": 318,
      "ĠÐ±": 319,
      "ÑĤÑĮ": 320,
      "ÑĨ": 321,
      "ĠÐ½Ðµ": 322,
      "Ð¾Ð¹": 323,
      "ÐµÑĢ": 324,
      "Ð½Ð°": 325,
      "ĠÐ·": 326,
      "Ð»Ð¸": 327,
      "ÑģÐº": 328,
      "ĠÑĩ": 329,
      "ĠÑĥ": 330,
      "Ð°Ðº": 331,
      "ÑĢÐ¾": 332,
      "ÑģÑı": 333,
      "Ð»Ð°": 334,
      "Ñī": 335,
      "ĠÐ¿Ð¾": 336,
      "ÐµÐ½Ð¸": 337,
      "ÐµÐ¼": 338,
      "ĠÑ": 339,
      "Ð¸ÑĤ": 340,
      "ĠÐ³": 341,
      "Ð²Ð°": 342,
      "âĢ": 343,
      "ÐºÐ°": 344,
      "ÑĢÑĥ": 345,
      "ÑĤÐ¸": 346,
      "Ð¾Ð³Ð¾": 347,
      "Ð´Ð°": 348,
      "Ð¾Ð±": 349,
      "Ġt": 350,
      "ĠĊ": 351,
      "ĠÐ·Ð°": 352,
      "ĠÑĢÐ°": 353,
      "Ð¾ÑĢ": 354,
      "Ð¾ÑĤ": 355,
      "Ð¼Ð¸": 356,
      "ĠÐ»": 357,
      "ĠÑį": 358,
      "ĠÐµ": 359,
      "ÐµÐ¹": 360,
      "Ð¾Ð½": 361,
      "Ð¾Ð¶": 362,
      "Ð°Ð½": 363,
      "ĠÐ¾ÑĤ": 364,
      "ĠÐ°": 365,
      "ÑģÑĤÐ²": 366,
      "ÑģÑĮ": 367,
      "Ġa": 368,
      "he": 369,
      "Ð¾Ðº": 370,
      "ĠÐĴ": 371,
      "ÑĨÐ¸": 372,
      "ÑĤÐ°": 373,
      "ÐºÐ¸": 374,
      "Ð»Ñı": 375,
      "in": 376,
      "en": 377,
      "ĠÐ¿ÑĢÐ¸": 378,
      "Ð³Ð¾": 379,
      "Ð¾Ð»ÑĮ": 380,
      "Ð¸Ð»": 381,
      "ĠÐ¾Ð±": 382,
      "ĠÑĩÑĤÐ¾": 383,
      "te": 384,
      "ĠÐŁ": 385,
      "ĠÐ±Ñĭ": 386,
      "ÐµÐ´": 387,
      "Ð¸Ð½": 388,
      "ÑĩÐµ": 389,
      "ÐµÐ»ÑĮ": 390,
      "ĠÐ²Ñĭ": 391,
      "ĠÐ¡": 392,
      "ĠÐ¶": 393,
      "Âł": 394,
      "of": 395,
      "Ð¾Ð·": 396,
      "ÑĦ": 397,
      "Ð°Ð¼": 398,
      "ĠÐ¿ÑĢÐ¾": 399,
      "ÑĢÑĭ": 400,
      "Ð¾Ð²Ð°": 401,
      "ÑģÑĤÐ¸": 402,
      "Ð¾Ñģ": 403,
      "ÑĢÐµÐ´": 404,
      "Ð½Ðµ": 405,
      "ĠÐĿ": 406,
      "Ð¸Ð¼": 407,
      "âĢĶ": 408,
      "..": 409,
      "Ð½Ñĥ": 410,
      "on": 411,
      "ÐºÐ¾": 412,
      "ÑģÐµ": 413,
      "Ð¸Ñħ": 414,
      "Ð¾Ð¿": 415,
      "ÑĩÐ°": 416,
      "ĠÑģÑĤ": 417,
      "ÑģÑĤÑĮ": 418,
      "ĠÐ¸Ð·": 419,
      "ĠÐļ": 420,
      "re": 421,
      "Ġthe": 422,
      "Ð½Ð¾Ð¹": 423,
      "Ġ-": 424,
      "ÑģÑĤÐ°": 425,
      "Ġ\"": 426,
      "ĠÑı": 427,
      "ÐµÐ½Ð¸Ñı": 428,
      "Ð²Ð¾": 429,
      "Ð°Ð»Ð¸": 430,
      "ÑĤÐµ": 431,
      "Ð²Ð¸": 432,
      "Ð½ÑĭÑħ": 433,
      "Ð¼Ð°": 434,
      "ĠÐºÐ°Ðº": 435,
      "Ð°Ð»ÑĮ": 436,
      "ÐµÐº": 437,
      "Ð½Ð¾Ð³Ð¾": 438,
      "ĠÐ¿Ð¾Ð´": 439,
      "Ð·Ð°": 440,
      "ĠÐŀ": 441,
      "ÑģÐ¿": 442,
      "Ð½ÑĭÐµ": 443,
      "ĠÐľ": 444,
      "ĠÑħ": 445,
      "ĠÐ¿ÑĢ": 446,
      "Ġs": 447,
      "Ġ1": 448,
      "ÑĩÐ¸": 449,
      "Ð½ÑĭÐ¹": 450,
      "ÑģÐ¸": 451,
      "ĠÑĢÐµ": 452,
      "ÑĥÐ´": 453,
      "ĠÑĤÐ°Ðº": 454,
      "ĠÐºÐ¾": 455,
      "ĠÑĢÐ°Ð·": 456,
      "ÑİÑĤ": 457,
      "Ð°ÑĢ": 458,
      "er": 459,
      "ÐµÑĢÐµ": 460,
      "ÑģÐ»": 461,
      "ÑīÐµ": 462,
      "end": 463,
      "Ð¸Ðµ": 464,
      "ĠÑĦ": 465,
      "Ġ(": 466,
      "ÐºÑĥ": 467,
      "Ð¶Ðµ": 468,
      "âĢĵ": 469,
      "Ġw": 470,
      "ĠÐĲ": 471,
      "ÑģÑĤÐ¾": 472,
      "Ð»Ð¾": 473,
      "xt": 474,
      "ÐµÐ½Ð¸Ðµ": 475,
      "or": 476,
      "Ñĳ": 477,
      "ĠÐĺ": 478,
      "ÑĪÐµ": 479,
      "text": 480,
      "|>": 481,
      "<|": 482,
      "endof": 483,
      "endoftext": 484,
      "ĠÐ²ÑģÐµ": 485,
      "ĠÐĶ": 486,
      "ÐµÑĤÑģÑı": 487,
      "Ð½Ñı": 488,
      "Ð°Ð»Ð°": 489,
      "ĠÐ¿Ð¾Ð»": 490,
      "Ð´Ðµ": 491,
      "an": 492,
      "ĠÐ¢": 493,
      "ĠÑįÑĤÐ¾": 494,
      "Ð¸Ð¹": 495,
      "Ð³Ð°": 496,
      "ĠÑģÐ»": 497,
      "is": 498,
      "ĠÑģÐ¾": 499,
      "ÑĥÑĤ": 500,
      "Ġc": 501,
      "ĠÐł": 502,
      "ÑĢÐ¾Ð²": 503,
      "Ð¼Ðµ": 504,
      "ĠÐºÐ¾ÑĤÐ¾": 505,
      "ÑħÐ¾Ð´": 506,
      "Ġ2": 507,
      "ÑĢÐ°Ð²": 508,
      "ÑĩÐµÑģÐº": 509,
      "Ð¼ÐµÐ½": 510,
      "ÐµÐ·": 511,
      "ĠÑĤÐ¾": 512,
      "Ð°ÑĤÑĮ": 513,
      "at": 514,
      "ÑĤÐ¾Ð¼": 515,
      "it": 516,
      "ĠÑģÐ¿": 517,
      "Ð´Ð¸": 518,
      "ÐµÐ½ÑĮ": 519,
      "Ð¸Ð·": 520,
      "al": 521,
      "Ġf": 522,
      "ou": 523,
      "Ġb": 524,
      "ar": 525,
      "Ð°Ñģ": 526,
      "ÑıÑĤ": 527,
      "ĠÐ´Ð»Ñı": 528,
      "es": 529,
      "Ð¡": 530,
      "Ġp": 531,
      "ing": 532,
      "ĠÐ»Ð¸": 533,
      "ÐµÐ²": 534,
      "Ð°Ñı": 535,
      "ÑĥÑİ": 536,
      "Ð¸ÑĤÑĮ": 537,
      "ĠÐ´Ð¾": 538,
      "Ðŀ": 539,
      "ĠÐĳ": 540,
      "Ð½Ð¾Ðµ": 541,
      "Ð°ÑĤ": 542,
      "Ġan": 543,
      "Ð½Ð¸Ñı": 544,
      "ĠÐ½Ð¾": 545,
      "ÑĥÐ¶": 546,
      "Ð¾Ð»ÑĮÐºÐ¾": 547,
      "ÐºÐ¾Ð²": 548,
      "Ð»ÑĮ": 549,
      "ĠÑĤÐµ": 550,
      "Ð½Ð°Ñı": 551,
      "ÐĲ": 552,
      "Ġof": 553,
      "ĠÐ¿ÑĢÐµÐ´": 554,
      "ĠÐ¾Ð½": 555,
      "ÐŁ": 556,
      "ĠÑģÐ²Ð¾": 557,
      "ÐĿ": 558,
      "ÐĴ": 559,
      "Ġin": 560,
      "ÑĪÐ¸": 561,
      "Ð½ÑĭÐ¼": 562,
      "ĠÐºÐ°": 563,
      "ĠÐµÐ³Ð¾": 564,
      "10": 565,
      "ÑĨÐ¸Ð¸": 566,
      "ed": 567,
      "ÑĢÑı": 568,
      "ĠÐ½Ð¸": 569,
      "Ð½Ð¾Ð¼": 570,
      "Ġm": 571,
      "Ð²Ðµ": 572,
      "Ð¾Ð´Ð°": 573,
      "Ð¿Ð°": 574,
      "Ġto": 575,
      "ĠÐ¸Ð½": 576,
      "ĠâĢĶ": 577,
      "ÑĤÑĥ": 578,
      "Ð´ÐµÐ»": 579,
      "Ðļ": 580,
      "ÑģÐ°": 581,
      "Ð½Ð¸Ðµ": 582,
      "ĠÐ¼Ðµ": 583,
      "ĠÐ¼Ð¾Ð¶": 584,
      "Ð´Ñĥ": 585,
      "Ð»Ðµ": 586,
      "Ð¾Ð³Ð´Ð°": 587,
      "ĠÐĵ": 588,
      "ic": 589,
      "ÑģÐ»Ð¸": 590,
      "as": 591,
      "ĠÐ¾Ð´": 592,
      "ÑģÑĤÐ²ÐµÐ½": 593,
      "Ð²Ñĭ": 594,
      "ÑĤÑĭ": 595,
      "...": 596,
      "Ġh": 597,
      "ĠÐºÐ¾Ð¼": 598,
      "Ð²ÐµÑĤ": 599,
      "ÑĤÑĮÑģÑı": 600,
      "ĠÐ»Ñİ": 601,
      "ĠÐºÐ¾Ð½": 602,
      "Ð²ÐµÑĢ": 603,
      "ĠÑĨ": 604,
      "Ð±Ð¾ÑĤ": 605,
      "00": 606,
      "Ġd": 607,
      "ĠÐ±ÑĥÐ´": 608,
      "ĠÑģÐ°Ð¼": 609,
      "ÐºÐµ": 610,
      "Ð³Ð¸": 611,
      "ÑģÑĤÐ°Ð²": 612,
      "Ġand": 613,
      "Ð¸ÑĤÐµÐ»ÑĮ": 614,
      "le": 615,
      "ÑĢÐ°Ð·": 616,
      "ÑĥÑĩ": 617,
      "ĠÑĪ": 618,
      "ÐµÐ»Ð¸": 619,
      "ÑĥÐ¿": 620,
      "ÐµÑģ": 621,
      "ĠâĢĵ": 622,
      "ĠÐ´Ð°": 623,
      "ĠÑĢÑĥ": 624,
      "Ð¾Ðµ": 625,
      "ĠÐ¾Ð¿": 626,
      "Ð·Ñĭ": 627,
      "ĠÐ¶Ðµ": 628,
      "ĠÑģÐµ": 629,
      "ion": 630,
      "Ð½Ð¾ÑģÑĤÑĮ": 631,
      "ÑĢÑĥÐ³": 632,
      "om": 633,
      "&#": 634,
      "Ð¾Ð²Ñĭ": 635,
      "Ð»Ñİ": 636,
      "Ð½Ð¾ÑģÑĤÐ¸": 637,
      "ĠÐ²Ð¾": 638,
      "Â«": 639,
      "Â»": 640,
      "ĠÐ¿ÐµÑĢÐµ": 641,
      "ĠÐºÐ¾ÑĤÐ¾ÑĢÑĭ": 642,
      "ĠÐ¸Ð»Ð¸": 643,
      "Ð¾Ñĩ": 644,
      "ÑģÑĤÐ²Ð°": 645,
      "ĠÐ²Ð¾Ð·": 646,
      "Ð°Ð¹": 647,
      "Ðĺ": 648,
      "Ñį": 649,
      "ĠÐ¿ÑĢÐµ": 650,
      "ĠÐķ": 651,
      "ÑĢÐ°Ð½": 652,
      "Ð¼Ñĥ": 653,
      "Ð°Ð»Ð¾": 654,
      "ÑĤÐµÐ»ÑĮ": 655,
      "ÑĢÐµÐ¼": 656,
      "Ð¸Ñģ": 657,
      "ÑĢÐ¾Ð¼": 658,
      "Ð¾Ð±Ñĭ": 659,
      "ĠÐ¾Ñģ": 660,
      "ĠÐĽ": 661,
      "ĠÂ«": 662,
      "ÐºÐ¾Ð¼": 663,
      "ĠÐ£": 664,
      "Ġth": 665,
      "ĠÐĹ": 666,
      "Ð¢": 667,
      "Ð±Ðµ": 668,
      "ÑĪÑĮ": 669,
      "Ð´Ñĭ": 670,
      "ĠÐ·Ð½Ð°": 671,
      "Ð»ÐµÐ½": 672,
      "ĠÐ²Ð¸": 673,
      "ÑģÑĤÐ²Ð¾": 674,
      "ÐµÐ½ÑĤ": 675,
      "ĠÐ¼Ñĭ": 676,
      "ÑĥÐ±": 677,
      "Ðľ": 678,
      "ÑİÑī": 679,
      "ÑĢÐ¾Ñģ": 680,
      "ÑĤÐ¸Ð²": 681,
      "ĠÐ¼ÐµÐ½": 682,
      "ĠÐ¿Ð¾Ðº": 683,
      "ĠÐŃ": 684,
      "ÑĢÐ¾Ð´": 685,
      "ĠÐĿÐ°": 686,
      ";&#": 687,
      "ÑĨÐ°": 688,
      "Ð½ÑĥÑİ": 689,
      "Ð¾Ð²Ð¾": 690,
      "ĠÐ¼Ð°": 691,
      "Ð´Ð¾": 692,
      "ÐµÑĢÐ°": 693,
      "ĠÐ±Ð¾Ð»ÑĮ": 694,
      "il": 695,
      "ÐĶ": 696,
      "Ð½Ð¾Ð²": 697,
      "ĠÐ±ÑĭÐ»Ð¾": 698,
      "ÑĥÑĢ": 699,
      "Ð¸Ð»ÑĮ": 700,
      "Ðł": 701,
      "ĠÐ´ÐµÐ»": 702,
      "ent": 703,
      "ĠÑģÑĤÐ°": 704,
      "ĠÑĤÐ¾Ð»ÑĮÐºÐ¾": 705,
      "Ð°Ð·": 706,
      "ĠÑĢÐ°Ð±Ð¾ÑĤ": 707,
      "ĠÐ¯": 708,
      "ÑĬ": 709,
      "ÑĩÐ½Ð¾": 710,
      "ĠÑģÐ²": 711,
      "ÐµÐ¼Ñĥ": 712,
      "Ð¶Ð¸": 713,
      "ĠÐ¿Ð¾Ð¼": 714,
      "ĠÐ§": 715,
      "ĠÐ´Ð¾Ð»": 716,
      "ÑģÐºÐ¾Ð¹": 717,
      "ĠÑĢÐ°Ñģ": 718,
      ".<|": 719,
      "Ð¾Ð»Ðµ": 720,
      "Ð¼ÐµÑĢ": 721,
      "ĠS": 722,
      "Ð½Ð¸Ð¼Ð°": 723,
      "ĠÐ¼Ð¸": 724,
      "ÐµÑĤÐµ": 725,
      "ro": 726,
      "ĠÐ¼ÐµÐ½Ñı": 727,
      "ĠÑģÑĤÐ¾": 728,
      "ĠÐ²ÑĢÐµÐ¼": 729,
      "ĠÐ¼Ð¾": 730,
      "ĠÑģÐ¾Ð²": 731,
      "ĠÐ·Ð°Ðº": 732,
      "Ġn": 733,
      "ĠÐ¿Ð¾ÑģÐ»": 734,
      "ÑĥÑĪ": 735,
      "ÐµÐ»Ð¾Ð²": 736,
      "Ð¸Ñı": 737,
      "ĠÐ¸Ñħ": 738,
      "Ġl": 739,
      "ve": 740,
      "ÐºÐ°Ð·": 741,
      "Ðķ": 742,
      "ĠÑģÐ¾Ð±": 743,
      "Ġre": 744,
      "ĠÑĤÑĭ": 745,
      "ĠÐ²Ñģ": 746,
      "Ð±Ñı": 747,
      "st": 748,
      "ĠÐ´ÑĢÑĥÐ³": 749,
      "ĠÑĥÐ¶Ðµ": 750,
      "ĠÐ¿ÐµÑĢ": 751,
      "ÑīÐ¸": 752,
      "ĠT": 753,
      "ĠÐ²Ðµ": 754,
      "ĠÐ½Ð°Ð¿": 755,
      "Ð²Ð°ÑĤÑĮ": 756,
      "))": 757,
      "Ġe": 758,
      "Ð¾Ð´Ñĥ": 759,
      "ĠÐ»ÑİÐ±": 760,
      "ĠÐ¾Ð½Ð°": 761,
      "ÑĤÐ¾Ð±Ñĭ": 762,
      "01": 763,
      "Ð¼Ñĭ": 764,
      "ĠI": 765,
      "ÑĢÐ¾Ð²Ð°": 766,
      "Ð¼Ð¾ÑĤ": 767,
      "Ð¾ÑĢÐ¾": 768,
      "ÑĩÐ¸ÑĤ": 769,
      "ĠÐ±ÐµÐ·": 770,
      "ĠÐ²Ð°": 771,
      "ÑģÐºÐ¾Ð³Ð¾": 772,
      "Ð¶Ð°": 773,
      "ÑİÑĤÑģÑı": 774,
      "ac": 775,
      "ĠÐ±ÑĭÐ»": 776,
      "ĠÑįÑĤ": 777,
      "Ð¸Ð²": 778,
      "Ð¸Ð»Ð¸": 779,
      "Ð½Ð¸Ðº": 780,
      "ÑĨÐ¸Ñı": 781,
      "ĠÐ´Ðµ": 782,
      "ĠÐ³Ð¾ÑĢ": 783,
      "ĠA": 784,
      "id": 785,
      "ly": 786,
      "Ð½ÑĭÐ¼Ð¸": 787,
      "Ð½Ð¸Ð¸": 788,
      "Ġ19": 789,
      "ĠÑĩÐµÐ»Ð¾Ð²": 790,
      "Ð¸ÑĤÐµ": 791,
      "ÑĭÑħ": 792,
      "ÑĤÐ¾ÑĢ": 793,
      "ĠC": 794,
      "ot": 795,
      "Ð·Ð¸": 796,
      "Ġ3": 797,
      "Ð±Ð¾": 798,
      "ÐºÐ¾Ð¹": 799,
      "ĠÐµÑģÐ»Ð¸": 800,
      "Ð»ÐµÐº": 801,
      "et": 802,
      "ĠÐ¾Ð½Ð¸": 803,
      "am": 804,
      "Ð»Ð°ÑģÑĮ": 805,
      "ĠÐ¸ÑģÐ¿": 806,
      "ĠÐ¤": 807,
      "ĠÐ¿Ðµ": 808,
      "ÑĦÐ¸": 809,
      "ÐµÐ½Ð¸Ð¸": 810,
      "Ġg": 811,
      "ter": 812,
      "ĠÑĩÑĤÐ¾Ð±Ñĭ": 813,
      "ĠÐĿÐ¾": 814,
      "ĠÐ²Ð·": 815,
      "Ð°Ð½Ð¾Ð²": 816,
      "ĠÑģÑĥ": 817,
      "Ð¾Ð³Ð¸": 818,
      "ol": 819,
      "ÑģÐºÐ°": 820,
      "ĠÑĩÐ°": 821,
      "ÑĥÑĩÐ°": 822,
      "ĠÐ³Ð»Ð°": 823,
      "ÑĩÐµÐ½ÑĮ": 824,
      "ÑģÑĤÐ¾Ñı": 825,
      "ĠÐ¼Ð½Ðµ": 826,
      "ĠÑģÐ¸": 827,
      "ĠÐ¼Ð¾Ð³": 828,
      "ÑĢÐµÑģ": 829,
      "ĠÐ±ÑĥÐ´ÐµÑĤ": 830,
      "ĠÑģÑĤÑĢÐ°": 831,
      "ÑģÐºÐ¸Ð¹": 832,
      "ĠÐµÐµ": 833,
      "ĠÐ¸Ð¼": 834,
      "Ð²Ð¾Ð´": 835,
      "ĠÐµÑīÐµ": 836,
      "ĠÐºÐ¾Ð³Ð´Ð°": 837,
      "ĠÐ¼Ð¾Ð¶Ð½Ð¾": 838,
      "ad": 839,
      "Ð¾Ð»ÑĮÐ·": 840,
      "Ð¸ÑĤÑģÑı": 841,
      "âĢ¦": 842,
      "im": 843,
      "ÑĪÐ°": 844,
      "Ð°Ð»ÑģÑı": 845,
      "Ð¼Ð¾Ð¶": 846,
      "ĠĠ": 847,
      "ow": 848,
      "\".": 849,
      "ÑĭÐµ": 850,
      "ĠÐ²ÑĢÐµÐ¼Ñı": 851,
      "ÐµÐ½Ð°": 852,
      "ĠÐ½Ð°Ñģ": 853,
      "ĠÐ¥": 854,
      "ÐµÐ»Ñı": 855,
      "ĠÐµÑģÑĤÑĮ": 856,
      "ÑĨÐµ": 857,
      "Ð»ÑģÑı": 858,
      "ĠÐ¿Ð»Ð°": 859,
      "Ġbe": 860,
      "ÑĤÐ¾Ð²": 861,
      "ÑĥÐ»ÑĮ": 862,
      "Ð¸Ð¼Ð¾": 863,
      "ĠÐ³Ð¾Ð´Ð°": 864,
      "ĠÐ¾Ðº": 865,
      "ĠÐ¿Ð°": 866,
      "Ð¾Ð»Ð¸": 867,
      "ĠÑįÑĤÐ¾Ð¼": 868,
      "ĠM": 869,
      "Ð¾Ð¼Ñĥ": 870,
      "Ð³Ð¾Ð´": 871,
      "ĠÐ¿ÑĢÐ°Ð²": 872,
      ").": 873,
      "ĠÐ¿Ð¾Ð·": 874,
      "Ð±Ñĭ": 875,
      "Ð¿Ð¸": 876,
      "Ġon": 877,
      "ĠÐ»Ðµ": 878,
      "ÑĥÑħ": 879,
      "ÐµÐ»Ð°": 880,
      "ÑĤÐµÑĢ": 881,
      "ig": 882,
      "ÑĥÐ´Ð°": 883,
      "ÑīÐ°": 884,
      "us": 885,
      "ÑĨÐ¸Ð¾Ð½": 886,
      "Ð½ÐµÐ¹": 887,
      "Ð½Ð¸ÐºÐ°": 888,
      "ay": 889,
      "Ð²Ð»Ñı": 890,
      "\",": 891,
      "ĠÐ³Ð¾Ð»": 892,
      "ĠÐºÑĢÐ°": 893,
      "ĠÐ¿Ð¾Ð²": 894,
      "ĠÑģÐº": 895,
      "Ġis": 896,
      "ĠÐ¼Ð¾Ð¶ÐµÑĤ": 897,
      "ĠÐ¶Ð¸Ð·": 898,
      "ÑĢÐ°Ð¶": 899,
      "el": 900,
      "ÑģÑĤÐµ": 901,
      "ĠÑĩÐµÐ¼": 902,
      "ĠÐ´Ð¸": 903,
      "ÑĭÐ¹": 904,
      "ÑĦÐ¾ÑĢ": 905,
      "Ð²ÑĪ": 906,
      "ĠÐ¾ÑĩÐµÐ½ÑĮ": 907,
      "Ðĳ": 908,
      "Ð¾ÑģÑģÐ¸": 909,
      "ÐºÑĢÐ°": 910,
      "ĠÑĤÐµÐ¼": 911,
      "ĠÐ¿Ð¾Ð¿": 912,
      "ĠÐ¿ÑĢÐ¾Ð²": 913,
      "ĠÐ´Ð¾Ð¼": 914,
      "Ġfor": 915,
      "108": 916,
      "Ð½Ð¸Ð¹": 917,
      "Ð±Ð°": 918,
      "Ð£": 919,
      "ÑĥÑģ": 920,
      "ÐµÐ½Ð¸Ð¹": 921,
      "ĠÐ²ÐµÑĢ": 922,
      "Ð¾Ð¶Ðµ": 923,
      "Ðĵ": 924,
      "Ð»ÐµÐ½Ð¸Ñı": 925,
      "ĠÐĿÐµ": 926,
      "ĠÑįÑĤÐ¸": 927,
      "Ð·Ð½Ð°": 928,
      "ÐµÑĤÐ°": 929,
      "ĠÐ¿Ð¾Ñģ": 930,
      "Ð²Ð°ÐµÑĤ": 931,
      "ÑģÑĤÑĥÐ¿": 932,
      "ĠÐ°Ð²": 933,
      "ate": 934,
      "ÑĨÑĭ": 935,
      "ver": 936,
      "Ð¾Ð½Ð°": 937,
      "ĠÐ½Ð°Ñĩ": 938,
      "Ġthat": 939,
      "ĠÐ¿Ñĥ": 940,
      "Ð±Ð¸": 941,
      "Ð¾Ð»ÐµÐµ": 942,
      "Ð³ÑĢÐ°": 943,
      "un": 944,
      "ÐĽ": 945,
      "ĠÐ´Ð¾Ð»Ð¶": 946,
      "ct": 947,
      "ÑĢÐ¾Ð¹": 948,
      "ĠÑĢ": 949,
      "ĠÐłÐ¾ÑģÑģÐ¸": 950,
      "ÑĢÐ°Ðº": 951,
      "ÐµÐ½Ð½Ð¾": 952,
      "Ð¿Ð¾Ð»": 953,
      "Ð´ÐµÑĢ": 954,
      "ĠÐ±ÑĭÑĤÑĮ": 955,
      "ĠÑįÐº": 956,
      "ĠÐ¾ÑģÑĤ": 957,
      "Ð¾Ð²Ð¾ÑĢÐ¸": 958,
      "ĠÐ»ÐµÑĤ": 959,
      "ĠÐŁÐ¾": 960,
      "ÑĢÑĥÐ´": 961,
      "Ð¿Ñĥ": 962,
      "ĠB": 963,
      "Ð´ÐµÑĤ": 964,
      "ur": 965,
      "Ð¿ÐµÑĢ": 966,
      "Ð¸Ð»Ð¾": 967,
      "ation": 968,
      "ÑĥÐ¼": 969,
      "ÑģÑĤÑĢÐ°": 970,
      "ĠP": 971,
      "Ð¸Ð»ÑģÑı": 972,
      "Ð³Ñĥ": 973,
      "Ð»Ð¸ÑģÑĮ": 974,
      "ĠÐ¿Ð¾Ñĩ": 975,
      "Ð¿ÑĢÐ¸": 976,
      "ĠÐ¾ÑĢ": 977,
      "ĠÐŃÑĤÐ¾": 978,
      "ĠÐ´Ð°Ð¶Ðµ": 979,
      "ÑģÑĤÐ²Ñĥ": 980,
      "Ð¶Ð´": 981,
      "ĠÐ½ÑĥÐ¶": 982,
      "ĠÐ½Ð°ÑĪ": 983,
      "ĠÐºÐ¾ÑĤÐ¾ÑĢÑĭÐµ": 984,
      "Ð¾Ð³ÑĢÐ°": 985,
      "ÐµÐ½Ñĭ": 986,
      "ÑģÑĤÑĢÐ¾": 987,
      "Ð°Ð¼Ð¸": 988,
      "Ġ201": 989,
      "Ð½ÐµÐµ": 990,
      "Ð¼ÐµÑĤ": 991,
      "ĠÐŁÑĢÐ¸": 992,
      "ut": 993,
      "ĠÐ´ÐµÑĤ": 994,
      "ir": 995,
      "ÑıÑĤÑĮ": 996,
      "ĠÐ½ÐµÑĤ": 997,
      "ĠÐ¿ÑĢÐ¾Ð¸Ð·": 998,
      "),": 999,
      "ÐµÐ½Ð¸Ñİ": 1000,
      "ĠÑĤÐ¾Ð³Ð¾": 1001,
      "ÑģÑĤÑĢÐµ": 1002,
      "ÑĤÐµÑĢÐ¸": 1003,
      "ÑĤÐ¾Ð¼Ñĥ": 1004,
      "ĠÐ½Ð¸Ðº": 1005,
      "ÐµÐ³Ð¾": 1006,
      "Ð°Ð»Ðµ": 1007,
      "ÑĮÑİ": 1008,
      "ÐĹ": 1009,
      "Ð¾Ð½Ðµ": 1010,
      "ĠÑĤÑĢÐµ": 1011,
      "ĠÐĴÑĭ": 1012,
      "ÑģÐºÐ¸Ñħ": 1013,
      "Ð¯": 1014,
      "Ð¸Ð½Ð°": 1015,
      "Ð°Ð»Ð¾ÑģÑĮ": 1016,
      "ĠÑģÐµÐ±Ñı": 1017,
      "Ð²Ð°Ñı": 1018,
      "Ġ4": 1019,
      "ÑĢÐ¸Ð¸": 1020,
      "Ġ5": 1021,
      "Ġst": 1022,
      "Ð°Ð»Ð¸ÑģÑĮ": 1023,
      "ĠÐ±ÑĭÐ»Ð°": 1024,
      "ÐµÐ¹ÑģÑĤÐ²": 1025,
      "Ð§": 1026,
      "ĠÐ±ÑĭÐ»Ð¸": 1027,
      "ch": 1028,
      "ĠÑĤÐ¾Ð¼": 1029,
      "ÑħÐ°": 1030,
      "ĠÑįÑĤÐ¾Ð³Ð¾": 1031,
      "ÐµÐ»ÐµÐ¹": 1032,
      "ÐµÐ½Ð¸ÐµÐ¼": 1033,
      "Ġhe": 1034,
      "ĠÐŀÐ½": 1035,
      "ith": 1036,
      "ĠÐ¾Ð±ÑĬ": 1037,
      "ĠÐ³Ð´Ðµ": 1038,
      "ĠÑħÐ¾ÑĤ": 1039,
      "Ð¸Ðº": 1040,
      "ÑĢÐµÐ½": 1041,
      "ÑģÑĭ": 1042,
      "ĠÐ´ÐµÐ½ÑĮ": 1043,
      "ce": 1044,
      "ĠÑģÑĢÐµÐ´": 1045,
      "Ð½Ð¸Ð¼": 1046,
      "ĠÐ±Ð¾Ð»ÑĮÑĪ": 1047,
      "ĠÐ¿Ð¾ÐºÐ°": 1048,
      "ĠÑĥÐ¿": 1049,
      "ĠÐļÐ°Ðº": 1050,
      "Ð¾ÑĤÐ¾Ð²": 1051,
      "ÑıÐ²": 1052,
      "ĠÑģÐ´ÐµÐ»": 1053,
      "ĠÐ°Ðº": 1054,
      "ÑĢÐ¾Ðº": 1055,
      "ĠÐ²Ð¾Ð¿": 1056,
      "ĠÑģÐºÐ°Ð·": 1057,
      "ĠÐ¢Ð°Ðº": 1058,
      "ÑĢÑıÐ´": 1059,
      "Ð½ÑĮ": 1060,
      "ÑĥÐ¼Ð°": 1061,
      "ĠÐ¼Ð½": 1062,
      "Ð¸ÑĩÐµÑģÐº": 1063,
      "ĠR": 1064,
      "ĠÑģÐ»ÐµÐ´": 1065,
      "ĠÐĹÐ°": 1066,
      "ĠÐ¼Ð¾Ð»": 1067,
      "Ð»ÐµÐ½Ð¸Ðµ": 1068,
      "Ð¾ÑĢÐ¾ÑĪ": 1069,
      "ĠÐ¿Ð¾ÑģÐ»Ðµ": 1070,
      "ĠÐºÑĤÐ¾": 1071,
      "ĠÐ±Ð¾Ð»ÐµÐµ": 1072,
      "ĠN": 1073,
      "Ð»ÐµÐ¼": 1074,
      "ÑĩÐµÐ½": 1075,
      "ĠÑģÐ¾Ð·": 1076,
      "Ð³Ð»Ñı": 1077,
      "ul": 1078,
      "Ð¾Ð²Ð°ÑĤÑĮ": 1079,
      "Ð¼Ð¾": 1080,
      "ÑĢÑĥÐ¿": 1081,
      "Ð¿Ðµ": 1082,
      "ĠH": 1083,
      "ÐµÑģÐ¿": 1084,
      "ÑĢÐµÐ¼ÐµÐ½": 1085,
      "os": 1086,
      "Ð²ÐµÐ´": 1087,
      "ÑĥÐ½": 1088,
      "ÐºÑĢÑĭ": 1089,
      "ĠÐ¾Ð±ÑĢÐ°Ð·": 1090,
      "ĠÐºÐ¾ÑĢ": 1091,
      "ÐµÐ»Ð¾": 1092,
      "ÑĮÑı": 1093,
      "ĠÐ¿ÑĢÐ¾ÑģÑĤÐ¾": 1094,
      "ĠÑĤÐµÑħ": 1095,
      "Ð¸Ð½Ñĥ": 1096,
      "Ð¸Ð¼Ð¸": 1097,
      "op": 1098,
      "Ġit": 1099,
      "Ġy": 1100,
      "Ġas": 1101,
      "Ġwith": 1102,
      "ĠÑĩÐµÐ»Ð¾Ð²ÐµÐº": 1103,
      "ĠÐ¿Ð¸": 1104,
      "Ġwh": 1105,
      "ÑĨÐ¸Ñİ": 1106,
      "ĠD": 1107,
      "âĢĻ": 1108,
      "ÑĤÐ¸ÑĩÐµÑģÐº": 1109,
      "ÐµÐ»Ðµ": 1110,
      "ÑģÑĤÐ°Ð²Ð»Ñı": 1111,
      "ĠÐºÐ¾ÑĤÐ¾ÑĢÑĭÐ¹": 1112,
      "Ð²Ð°Ð»": 1113,
      "Ð²Ð¾Ð»": 1114,
      "ÐµÑĪÑĮ": 1115,
      "Ð°Ð»Ð°ÑģÑĮ": 1116,
      "Ð»Ñĭ": 1117,
      "ĠÑĢÐ°ÑģÐ¿": 1118,
      "Ġwas": 1119,
      "ÐºÐ°Ð¼Ð¸": 1120,
      "Ð»Ð°Ñģ": 1121,
      "Ð½Ð¸ÐºÐ¾Ð²": 1122,
      "ĠÐ¿Ð°ÑĢ": 1123,
      "ĠW": 1124,
      "ĠÑĤÐ°ÐºÐ¶Ðµ": 1125,
      "ĠÐ³Ð¾Ð²Ð¾ÑĢÐ¸": 1126,
      "Ð¾Ð²Ð°Ð½Ð¸Ñı": 1127,
      "ĠÐ²Ð¾Ñģ": 1128,
      "ĠÑģÐºÐ°": 1129,
      "ĠÑģÐ»ÑĥÑĩÐ°": 1130,
      "ÑĥÑİÑī": 1131,
      "ÑĨÐ¸Ð°Ð»ÑĮ": 1132,
      "ĠF": 1133,
      "ĠÐ²Ð¾ÑĤ": 1134,
      "ÑĩÐ°Ñģ": 1135,
      "ĠÑģÐµÑĢ": 1136,
      "ĠÐµÐ¼Ñĥ": 1137,
      "ĠÑĢÐµÑĪ": 1138,
      "ĠÑĤÐ°Ð¼": 1139,
      "ĠÐ±Ð¾Ð»ÑĮÑĪÐµ": 1140,
      "Ð´Ð¾Ð²": 1141,
      "ĠÐĶÐ°": 1142,
      "ĠÑĥÑģÐ»": 1143,
      "ri": 1144,
      "Ð³Ð°Ð½Ð¸": 1145,
      "ÑĩÐµÐ³Ð¾": 1146,
      "Ð²Ð½Ð¾": 1147,
      "ĠÐ²ÑĭÑģ": 1148,
      "ÑĤÐµÑĢÐµÑģ": 1149,
      "ÑĢÑĥÐ¶": 1150,
      "ĠÐºÐ°ÑĢ": 1151,
      "Ð¸ÑĤÐ°": 1152,
      "ĠÐ¸ÑģÐ¿Ð¾Ð»ÑĮÐ·": 1153,
      "ĠÐ¾ÑĤÐ²ÐµÑĤ": 1154,
      "Ð¤": 1155,
      "ĠÐ²Ð¾Ð·Ð¼Ð¾Ð¶": 1156,
      "ĠÐºÐ¾Ð»": 1157,
      "Ð¶Ð´Ñĥ": 1158,
      "Ð½ÑĥÐ»": 1159,
      "ÐµÑĢÐµÐ·": 1160,
      "ag": 1161,
      "ÑĥÐ²": 1162,
      "ÑĪÐµÐ³Ð¾": 1163,
      "Ġal": 1164,
      "ĠÑĥÑĩÐ°": 1165,
      "Ð»Ð¾Ð¶": 1166,
      "Ġ--": 1167,
      "ĠÐ¶ÐµÐ½": 1168,
      "Ð¾Ð²Ð¾ÑĢ": 1169,
      "ÑĭÐ¼": 1170,
      "ĠÐ´Ð¾Ð±": 1171,
      "ÑģÐºÐ°Ñı": 1172,
      "ĠÐ·Ð°Ð¿": 1173,
      "ĠÐķÑģÐ»Ð¸": 1174,
      "ht": 1175,
      "ÑĢÐ¸Ñı": 1176,
      "Ð¾Ð²Ð¾Ð¹": 1177,
      "ĠÑĢÐµÐ·": 1178,
      "ÑģÐºÐ¸Ðµ": 1179,
      "ÐºÐ°Ñħ": 1180,
      "ĠÑģÐ²Ñı": 1181,
      "ÑĥÑĩÐ¸": 1182,
      "ÐµÐ¹ÑĩÐ°Ñģ": 1183,
      "ĠÐ»ÑĥÑĩ": 1184,
      "Ð½Ð¸ÐºÐ¸": 1185,
      "ĠÐ¾Ð±ÑĢÐ°": 1186,
      "ĠÐ³Ð¾Ð´Ñĥ": 1187,
      "ĠÐ³Ð¾Ð´": 1188,
      "ĠÐ¾Ð±Ð»Ð°": 1189,
      "Ð°Ð´": 1190,
      "ĠG": 1191,
      "ĠÐ½Ð¸Ñħ": 1192,
      "ĠÐ²ÐµÐ´": 1193,
      "Ð·ÑĭÐ²Ð°": 1194,
      "ĠÑıÐ²Ð»Ñı": 1195,
      "ĠÐ»ÑİÐ´": 1196,
      "ĠÐ¸Ð¼Ðµ": 1197,
      "Ð½Ð¾Ð¼Ñĥ": 1198,
      "ĠÐ¨": 1199,
      "ĠÐ¿ÑĢÐ¾Ð´": 1200,
      "ĠÑģÑĤÐ¾ÑĢÐ¾": 1201,
      "od": 1202,
      "Ð¸Ð»Ð°": 1203,
      "ĠÐ¾ÑĤÐ½Ð¾": 1204,
      "Ð»ÐµÑĤ": 1205,
      "ÑģÑĤÐ°Ð½Ð¾Ð²": 1206,
      "ÑĢÐ¾Ð¿": 1207,
      "ĠÐ½ÐµÐ³Ð¾": 1208,
      "ÑģÐºÐ¾Ð»ÑĮÐºÐ¾": 1209,
      "ĠÐ³Ð¾Ñģ": 1210,
      "ĠÐ¿ÑĢÐ¾Ð±": 1211,
      "ÑĤÑı": 1212,
      "ÑĤÑĢÐ°": 1213,
      "ĠÑģÐ¿Ðµ": 1214,
      "ĠÐ²Ð¾Ð¿ÑĢÐ¾Ñģ": 1215,
      "ĠÐ´Ð²": 1216,
      "ĠÐ°Ð½": 1217,
      "ĠÐ¿Ð¾ÑģÐ»ÐµÐ´": 1218,
      "ĠL": 1219,
      "ÑĭÑĪ": 1220,
      "107": 1221,
      "Ð°Ð²": 1222,
      "ĠÑĢÐ¾Ð´": 1223,
      "ru": 1224,
      "Ð±Ð¾ÑĢ": 1225,
      "Ð¹ÑĤÐµ": 1226,
      "ÑĢÐ°Ñı": 1227,
      "our": 1228,
      "ĠÐ¸ÑģÑĤÐ¾": 1229,
      "ill": 1230,
      "ĠÐ²ÑģÐµÑħ": 1231,
      "ĠÐ¼ÑĥÐ¶": 1232,
      "ĠÐ¸ÑģÐº": 1233,
      "Ð¾ÑģÐº": 1234,
      "Ð¾ÐºÐ°": 1235,
      "ĠÐ¾Ð´Ð¸Ð½": 1236,
      "ĠÐ²ÑģÐµÐ³Ð¾": 1237,
      "ĠÐ¼Ð½Ð¾Ð³Ð¾": 1238,
      "Ð¸ÑĤÐµÐ»ÑĮÐ½Ð¾": 1239,
      "Ġcon": 1240,
      "ĠÑįÑĤÐ¾ÑĤ": 1241,
      "ĠÑģÐµÐ±Ðµ": 1242,
      "ted": 1243,
      "Ð´ÐµÑģÑĮ": 1244,
      "ĠÐłÐ¾ÑģÑģÐ¸Ð¸": 1245,
      "Ð¸Ð½Ðµ": 1246,
      "Ð±Ñĥ": 1247,
      "ĠÑģÐµÐ¼": 1248,
      "and": 1249,
      "ÑģÑĤÐ²Ðµ": 1250,
      "ĠÐ²Ð¾Ð´": 1251,
      "Ġwe": 1252,
      "ÑĤÑĢÐ¸": 1253,
      "Ð¾ÑģÐ¾Ð±": 1254,
      "ĠÐ²Ð¸Ð´": 1255,
      "ĠÐ´ÐµÐ¹ÑģÑĤÐ²": 1256,
      "Ð½Ð¾Ð²Ð°": 1257,
      "ĠÐ´Ð°Ð½": 1258,
      "ĠÐ¾ÑĢÐ³Ð°Ð½Ð¸": 1259,
      "ĠÑĤÐµÑĢ": 1260,
      "ĠÐ²Ð°Ñģ": 1261,
      "ÑĤÐ¸Ñı": 1262,
      "ÑĤÐ¾ÑĢÑĭ": 1263,
      "ĠÑħÐ¾ÑĢÐ¾ÑĪ": 1264,
      "Ð·Ð°ÑĤÑĮ": 1265,
      "out": 1266,
      "!!": 1267,
      "ÑĨÑĥ": 1268,
      "ÐŃ": 1269,
      "ĠÑĩÐµÐ»Ð¾Ð²Ðµ": 1270,
      "if": 1271,
      "ÑģÐ¾Ð²": 1272,
      "Ġde": 1273,
      "ĠÐ½ÐµÐ¼": 1274,
      "Ð²Ð°Ð»Ð¸": 1275,
      "ĠThe": 1276,
      "Ð¼Ð¾ÑĤÑĢÐµ": 1277,
      "ÑĩÑĮ": 1278,
      "ĠÐ²Ð°Ð¼": 1279,
      "her": 1280,
      "Ð¾Ð³Ð°": 1281,
      "Ð¾Ð»Ð¾Ð³Ð¸": 1282,
      "Ġ.": 1283,
      "ĠÐºÐ¾Ð¼Ð¿": 1284,
      "--": 1285,
      "Ð¿ÐµÑĢÑĮ": 1286,
      "Ð´Ð°Ð½": 1287,
      "Ġ6": 1288,
      "Ð»Ð°Ð´": 1289,
      "Ð¶Ð´Ñĭ": 1290,
      "ĠÐ½ÐµÐ¿": 1291,
      "Ġat": 1292,
      "ra": 1293,
      "ĠÐ¶Ð¸Ð·Ð½Ð¸": 1294,
      "ĠÑģÐ¸ÑģÑĤ": 1295,
      "ĠÐ¼ÐµÑĤ": 1296,
      "ĠÐ´ÑĢÑĥ": 1297,
      "ÑĦÐ¾ÑĢÐ¼Ð°": 1298,
      "ÐµÑħ": 1299,
      "Ð³Ð´Ð°": 1300,
      "ĠÑĦÐ¾ÑĢ": 1301,
      "ĠÐ°ÑĢ": 1302,
      "Ð¾Ð¶Ð´": 1303,
      "ÑģÑĤÑĭ": 1304,
      "ĠÐ½ÐµÐ¾Ð±": 1305,
      "ĠÐ³Ð¾": 1306,
      "ÐµÑĤÑĭ": 1307,
      "Ð²Ð¸ÑĤÑĮ": 1308,
      "ĠÐ½Ð°Ð´Ð¾": 1309,
      "ÑĥÑī": 1310,
      "ÑıÑī": 1311,
      "ÑĥÐº": 1312,
      "Ð»Ð¸Ñĩ": 1313,
      "ĠÐ¿ÐµÑĢÐµÐ´": 1314,
      "Â».": 1315,
      "Ġ200": 1316,
      "ers": 1317,
      "ÑĤÐ°Ðº": 1318,
      "ĠE": 1319,
      "ĠÑĩÐµÑĢÐµÐ·": 1320,
      "ĠÐ¿Ð¾ÑĤ": 1321,
      "ist": 1322,
      "ĠÐĸ": 1323,
      "ÑģÐ»ÐµÐ´": 1324,
      "ĠÐ²Ð¾Ð»": 1325,
      "ke": 1326,
      "ld": 1327,
      "oun": 1328,
      "Ð¸Ð¸": 1329,
      "ĠÐ½Ð°Ð´": 1330,
      "Ð°Ð»ÑĮÐ½Ð¾": 1331,
      "Ð´Ð°ÑĤÑĮ": 1332,
      "ÑīÐµÐ³Ð¾": 1333,
      "ÑıÑģ": 1334,
      "ÑģÐºÐ¾Ð¼": 1335,
      "ĠÐºÐ¾Ð¼Ð¿Ð°": 1336,
      "ÑıÐ½": 1337,
      "se": 1338,
      "ÑĩÐ¸Ð½Ð°": 1339,
      "ĠÐ½Ð°Ð¼": 1340,
      "Ð³Ð¾Ð´Ð½Ñı": 1341,
      "ĠÑĩÐ¸": 1342,
      "Ð°ÑĪ": 1343,
      "ĠÐ¾ÑĤÐºÑĢÑĭ": 1344,
      "ĠÐ¿ÑĢÐ¾ÑĨ": 1345,
      "Ð°Ð³": 1346,
      "ÑĥÐ´Ð°ÑĢ": 1347,
      "ÑĭÑĤ": 1348,
      "ĠÐ¿Ð¾Ð½Ñı": 1349,
      "um": 1350,
      "ĠÑĤÐ¾Ð¶Ðµ": 1351,
      "Ð½ÐµÑģ": 1352,
      "res": 1353,
      "ĠÐŀÑĤ": 1354,
      "Ð½Ð¾ÑģÑĤÑĮÑİ": 1355,
      "Ð¾Ð²ÑĭÑħ": 1356,
      "ÑĩÐµÐ¼": 1357,
      "ÐºÐ¸Ð¹": 1358,
      "ĠÐ¾Ð³": 1359,
      "Ġ,": 1360,
      "Ð²ÐµÑģÑĤ": 1361,
      "ĠÑģÐ¾Ð¾Ð±": 1362,
      "ĠÐ¼Ð°ÑĤÐµÑĢÐ¸": 1363,
      "ĠÐ½ÑĥÐ¶Ð½Ð¾": 1364,
      "ĠÑĢÑĭ": 1365,
      "ĠÐ½ÐµÐ¾Ð±ÑħÐ¾Ð´": 1366,
      "Ð¾Ð½Ð¾Ð¼": 1367,
      "rom": 1368,
      "ĠÐ´Ð¾ÑĢ": 1369,
      "ÑĥÐ´ÑĮ": 1370,
      "Ð°Ñħ": 1371,
      "ÑĳÑĤ": 1372,
      "ĠÐ³Ð¾ÑĢÐ¾Ð´": 1373,
      "ÐµÐ½ÑĤÐ°": 1374,
      "ĠÐ¼ÐµÐ¶Ð´Ñĥ": 1375,
      "Ð»Ð°Ð²": 1376,
      "ew": 1377,
      "ÑħÐ¾Ð´Ð¸ÑĤ": 1378,
      "ĠÐ´Ð²Ð°": 1379,
      "ÐļÐ°Ðº": 1380,
      "Ð±ÑĢÐ°": 1381,
      "ĠÑģÐ¼": 1382,
      "ÑĩÐµÑĤ": 1383,
      "ÑıÑĤÐµÐ»ÑĮ": 1384,
      "ÑĩÐµÐ½Ð¸Ðµ": 1385,
      "ore": 1386,
      "Ġpro": 1387,
      "Ð¿Ð¾": 1388,
      "Ð¼ÐµÐ½Ð½Ð¾": 1389,
      "ĠÐ¿Ð¾Ð»ÑĥÑĩ": 1390,
      "Ð²Ð°ÑĢ": 1391,
      "Ð´Ð¸Ð½": 1392,
      "Ġcom": 1393,
      "ÑĪÐµÐ»": 1394,
      "Ð°ÑĤÐµÐ»ÑĮ": 1395,
      "Ġby": 1396,
      "ĠÐ¸Ð½ÑĤÐµÑĢÐµÑģ": 1397,
      "ĠÐ¿Ð¾ÑĢ": 1398,
      "Ġ7": 1399,
      "ĠÑģÐ¸ÑģÑĤÐµÐ¼": 1400,
      "ab": 1401,
      "ÐºÐ»Ñİ": 1402,
      "oc": 1403,
      "ÑĥÐ»ÑĮÑĤÐ°": 1404,
      "ĠÐ²ÑģÑĳ": 1405,
      "ĠÑģÐµÐ¹ÑĩÐ°Ñģ": 1406,
      "Ð¸ÑĤÑĥ": 1407,
      "ĠÐ±Ð»Ð°": 1408,
      "Ġse": 1409,
      "ÑĨÐµÐ²": 1410,
      "ĠÐ¼Ñĥ": 1411,
      "ÑĪÐµÐ½": 1412,
      "ĠÑįÑĤÐ¾Ð¹": 1413,
      "Ð¸ÑĤÑĮÑģÑı": 1414,
      "ÑĤÐµÐ»ÑĮÐ½Ð¾": 1415,
      "ÑĢÐ¸ÑĤ": 1416,
      "ÑĢÐ¾Ð²Ð°Ð½": 1417,
      "ĠÐ²Ð¾Ð¹": 1418,
      "Ġ10": 1419,
      "ĠÐ¦": 1420,
      "ive": 1421,
      "ÑĢÐ¾Ð±": 1422,
      "ĠÐĴÑģÐµ": 1423,
      "Ð°Ð±": 1424,
      "Ð°Ð½Ð´": 1425,
      "ĠÐ´ÐµÐ²": 1426,
      "ĠÐ½ÐµÑģÐºÐ¾Ð»ÑĮÐºÐ¾": 1427,
      "ĠÐ¿ÑĢÐ°": 1428,
      "ÑĤÐ¾ÑĢÐ°": 1429,
      "ĠÑģÐ°Ð¹": 1430,
      "pp": 1431,
      "ĠÐ²ÑģÐµÐ³Ð´Ð°": 1432,
      "Ġ8": 1433,
      "Ġr": 1434,
      "Ð¾Ð²ÑĭÐµ": 1435,
      "ĠÐ³ÑĢÐ°": 1436,
      "Ġv": 1437,
      "ÑģÑĤÑı": 1438,
      "ÑīÐµÑģÑĤÐ²": 1439,
      "ĠÐ¿Ð¾Ð±": 1440,
      "ĠÐ¾ÑģÐ½Ð¾Ð²": 1441,
      "ĠÐ½Ð°ÑħÐ¾Ð´": 1442,
      "ĠÐ¿Ð¾Ð¼Ð¾": 1443,
      "ÑģÑĤÐ¾Ð²": 1444,
      "ĠÑĤÑĥÑĤ": 1445,
      "th": 1446,
      "Ð²Ð¸Ð¶": 1447,
      "ÐµÐ½Ðµ": 1448,
      "Â»,": 1449,
      "Ð¸ÑĢ": 1450,
      "ĠÐľÐ¾ÑģÐº": 1451,
      "ĠÐ¼Ð°Ð»": 1452,
      "Ġare": 1453,
      "ÑĢÐ°Ð±Ð¾ÑĤ": 1454,
      "ment": 1455,
      "est": 1456,
      "ĠÐĲÐ½": 1457,
      "ity": 1458,
      "ĠÑģÐºÐ°Ð·Ð°Ð»": 1459,
      "Ð¨": 1460,
      "Ð°ÑĢÐ¸": 1461,
      "ĠÐ¿Ð¾ÑĤÐ¾Ð¼": 1462,
      "ĠÐ¿Ð»Ð¾": 1463,
      "Ð½ÐµÑĢ": 1464,
      "ĠÐ¸Ñģ": 1465,
      "ĠÑģÐ¿Ð¾ÑģÐ¾Ð±": 1466,
      "Ð½ÐµÑĤ": 1467,
      "Ð²ÑĢÐ°": 1468,
      "ĠÐ²ÑģÑĤÑĢÐµ": 1469,
      "ĠÐ½Ð¸ÑĩÐµÐ³Ð¾": 1470,
      "//": 1471,
      "ĠÐ¶Ð¸Ð²": 1472,
      "Ð¸Ð»Ð¾ÑģÑĮ": 1473,
      "Ð¸Ð´": 1474,
      "ĠÐ·Ð´ÐµÑģÑĮ": 1475,
      "ÑĪÐµÐ½Ð¸Ñı": 1476,
      "ĠÐ¾ÑģÐ¾Ð±": 1477,
      "Ð²Ð¸ÑĤ": 1478,
      "Ð³Ð¾ÑĤÐ¾Ð²": 1479,
      "ÑĨÐ¸Ð¹": 1480,
      "ĠÑĥÐ´": 1481,
      "ÑįÑĤÐ¾Ð¼Ñĥ": 1482,
      "ĠÑģÐ²Ð¾ÐµÐ¹": 1483,
      "ĠÑĥÑģÐ¿": 1484,
      "ain": 1485,
      "ĠÐ¿ÑĢÐ¾ÑĤÐ¸Ð²": 1486,
      "ÐĿÐ°": 1487,
      "ĠÐ¼ÐµÐ´": 1488,
      "Ð½Ñİ": 1489,
      "ĠÑİ": 1490,
      "ÑģÑĤÐµÑĢ": 1491,
      "ĠÐ¸Ð½ÑĦÐ¾ÑĢÐ¼Ð°": 1492,
      "Ð²Ð¾Ð·": 1493,
      "ĠÐ¿Ð¾Ð¶": 1494,
      "Ġha": 1495,
      "Ð¥": 1496,
      "ĠÐºÐ°ÑĩÐµ": 1497,
      "ÑĢÑĥÐº": 1498,
      "Ð¸Ñĩ": 1499,
      "ĠÑģÐ²ÐµÑĤ": 1500,
      "ĠÐľÑĭ": 1501,
      "ĠÑģÑĩÐ¸ÑĤ": 1502,
      "ÑĩÐµÐ½Ð¸Ñı": 1503,
      "Ð½Ð¸Ñİ": 1504,
      "ĠÑĤÑĢÐ¸": 1505,
      "Ð¾Ð³ÑĢÐ°Ð¼": 1506,
      "ĠÑĤÐµÐ±Ñı": 1507,
      "ÑĢÐ¾Ð²Ð°ÑĤÑĮ": 1508,
      "ĠÐļÐ°": 1509,
      "Ð²Ð°ÐµÑĤÑģÑı": 1510,
      "ĠÑĩÐ°Ñģ": 1511,
      "Ð²Ð¾ÑĢ": 1512,
      "ĠÐ¿ÑĢÐ¾Ð¸Ð·Ð²Ð¾Ð´": 1513,
      "ÐµÐ½Ð½ÑĭÑħ": 1514,
      "qu": 1515,
      "ĠÐ³Ð»Ð°Ð·Ð°": 1516,
      "ĠÐ¸Ð³": 1517,
      "ÑĳÐ½": 1518,
      "__": 1519,
      "ÑĢÐ¾Ð½": 1520,
      "ĠÐ²Ð»Ð°": 1521,
      "Ð²Ð°ÑİÑĤ": 1522,
      "ĠÐ·ÐµÐ¼": 1523,
      "ĠÐ¼Ð½Ð¾Ð³": 1524,
      "ess": 1525,
      "Ð½Ð¸ÑĤÑĮ": 1526,
      "ĠâĢ": 1527,
      "ĠÐ³Ð¾ÑģÑĥÐ´Ð°ÑĢ": 1528,
      "Ð²Ð¾Ð¹": 1529,
      "ĠÐ»ÑİÐ´ÐµÐ¹": 1530,
      "ĠÐ½Ð¾Ð²": 1531,
      "ĠÐ¼Ð¸Ð½": 1532,
      "ÑģÑĤÐµÐ¹": 1533,
      "Ð±ÑĢÑı": 1534,
      "ĠÐ²ÑģÐµÐ¼": 1535,
      "Ð´Ð¾ÑĢ": 1536,
      "ĠÐ·Ð²": 1537,
      "ĠĠĠĠ": 1538,
      "Ð»Ð¾Ð²": 1539,
      "ĠÑĥÐ³": 1540,
      "ÑīÐµÐµ": 1541,
      "ĠÐ¿ÐµÑĢÐ²Ñĭ": 1542,
      "ĠÐ²Ð¼Ðµ": 1543,
      "'s": 1544,
      "ĠÑģÐ¸Ð»": 1545,
      "Ġ18": 1546,
      "ÑģÐµÐ¼": 1547,
      "ĠÐ»ÐµÐ³": 1548,
      "Ġ20": 1549,
      "ĠÑģÐ»Ð¾Ð²": 1550,
      "ÑģÑĥ": 1551,
      "ĠÑĤÐµÐ»Ðµ": 1552,
      "ĠO": 1553,
      "Ð¸Ð±": 1554,
      "ĠJ": 1555,
      "ÑģÐºÐ¸": 1556,
      "ĠÐ¾Ð¿ÑĢÐµÐ´": 1557,
      "Ð»ÐµÐ¹": 1558,
      "ĠÐ´ÐµÐ»Ð°": 1559,
      "ĠÐ§ÑĤÐ¾": 1560,
      "ĠÐ´Ð¾Ðº": 1561,
      "ĠÑĤÐ°ÐºÐ¾Ð¹": 1562,
      "ĠÑģÐ²Ð¾Ñİ": 1563,
      "ĠÑıÐ²Ð»ÑıÐµÑĤÑģÑı": 1564,
      "ÑĤÐ¸Ð½": 1565,
      "ĠÐ³Ð»": 1566,
      "ĠÐ¿ÑĢÐ¾ÑĪ": 1567,
      "ÐµÐ½Ð½ÑĭÐµ": 1568,
      "ĠÐŁÑĢÐ¾": 1569,
      "ĠÑĢÐ°ÑģÑģ": 1570,
      "ÑĥÐ±Ð»Ð¸": 1571,
      "Ġor": 1572,
      "ĠÑĩÑĥÐ²": 1573,
      "Ð½Ð°ÐºÐ¾": 1574,
      "ĠÐ¾Ð±Ñī": 1575,
      "Ð½Ð¸ÐµÐ¼": 1576,
      "ĠÐĺÐ½": 1577,
      "Ġfrom": 1578,
      "Ð¾Ð²ÑĭÐ¹": 1579,
      "ÑİÑīÐ¸Ñħ": 1580,
      "ĠÑįÑĤÐ°": 1581,
      "ÐºÐ°Ð½": 1582,
      "ÑĩÐºÐ¸": 1583,
      "pe": 1584,
      "ĠÑħÐ¾Ñĩ": 1585,
      "ĠÐ½ÐµÐ¹": 1586,
      "art": 1587,
      "Ġ9": 1588,
      "Ð»Ð¾ÑģÑĮ": 1589,
      "ĠÐ¿ÑĢÐµÐ´ÑģÑĤÐ°Ð²": 1590,
      "ĠÑģÐ²Ð¾Ð¹": 1591,
      "Ð»Ð¸Ð½": 1592,
      "ÑīÑĳ": 1593,
      "ĠÐ³Ð»Ð°Ð²": 1594,
      "ĠÐŀÐ½Ð°": 1595,
      "ÐµÑĢÐ¸": 1596,
      "ant": 1597,
      "Ð²Ð¸Ñģ": 1598,
      "ĠÐŁÐ¾Ñģ": 1599,
      "ĠÐ°Ð´": 1600,
      "Ð»ÐµÐºÑģ": 1601,
      "Ð½ÑĥÑĤÑĮ": 1602,
      "Ġsu": 1603,
      "ÑĢÐµÐ±": 1604,
      "ĠÑĩÐµÐ»Ð¾Ð²ÐµÐºÐ°": 1605,
      "ĠÐºÐ½Ð¸": 1606,
      "ĠÑĢÑĥÐ±": 1607,
      "ĠÐ¼Ð¾Ð³ÑĥÑĤ": 1608,
      "ÑĢÐ°Ð·Ñĥ": 1609,
      "ĠÑģÐ¾Ð·Ð´Ð°": 1610,
      "ÑĳÐ¼": 1611,
      "Ġ&#": 1612,
      "ĠÐºÐ¾Ð½Ðµ": 1613,
      "ÑĩÐµÑĢ": 1614,
      "ĠÑĢÐµÐ·ÑĥÐ»ÑĮÑĤÐ°": 1615,
      "ÑĢÐµÑĤ": 1616,
      "ĠÐ²Ð½Ñĥ": 1617,
      "ÑģÑĤÐ²ÐµÐ½Ð½Ð¾": 1618,
      "ĠÑģÐ¾Ð²ÐµÑĢ": 1619,
      "ÑĢÐ°ÑĤ": 1620,
      "ĠÐ»ÑĥÑĩÑĪÐµ": 1621,
      "ĠÐŀÐ´": 1622,
      "Ð³Ðµ": 1623,
      "ĠÑĢÐ°Ð±Ð¾ÑĤÑĭ": 1624,
      "Ð´ÐµÑĢÐ¶": 1625,
      "ÑĢÐ¾Ðµ": 1626,
      "Ð·Ð°ÑĨÐ¸Ð¸": 1627,
      "ĠÐ´Ð¾Ð²": 1628,
      "ĠÐ¿Ð¾ÑĤÐ¾Ð¼Ñĥ": 1629,
      "ĠÑĩÐµÐ³Ð¾": 1630,
      "ĠÐ»Ð¸ÑĪÑĮ": 1631,
      "ort": 1632,
      "ĠÑģÐ¾ÑģÑĤÐ¾Ñı": 1633,
      "ĠÑĩÐµÑĢ": 1634,
      "ÑĪÐ¸Ñħ": 1635,
      "ies": 1636,
      "ĠÑĥÐ¶": 1637,
      "ĠÑĤÐµÐ¿ÐµÑĢÑĮ": 1638,
      "ĠÐ²ÑĭÑģÐ¾Ðº": 1639,
      "ÐºÐ¸Ñħ": 1640,
      "all": 1641,
      "ĠÐºÐ¾ÑĤÐ¾ÑĢÐ°Ñı": 1642,
      "ĠÑģÐ¾Ð³": 1643,
      "ÑĢÐ¸Ð¹": 1644,
      "ĠÑģÑĤÑĢÐ¾": 1645,
      "Ð¾Ð²Ð°Ð½Ð¸Ðµ": 1646,
      "ĠÐ¿ÑĢÐ¸Ð½Ñı": 1647,
      "ÑĢÐ¾Ð³Ð¾": 1648,
      "ĠÐºÑĥ": 1649,
      "ĠÑģÑĤÐ°Ð½": 1650,
      "Ð¸ÑĤÐµÐ»ÐµÐ¹": 1651,
      "ÐµÐ½Ð½ÑĭÐ¹": 1652,
      "ĠÐºÑĢÐ¸": 1653,
      "ÑģÑĤÑĥ": 1654,
      "Ġex": 1655,
      "Ð¼ÐµÐ½Ð¸": 1656,
      "ĠÐŀÐ±": 1657,
      "ĠÐ±Ðµ": 1658,
      "ÑģÐ¾": 1659,
      "Ð½ÐµÐ¼": 1660,
      "ĠÐ»ÑİÐ´Ð¸": 1661,
      "ĠÐ¾ÑģÑĤÐ°": 1662,
      "ĠÐ¼Ð°Ñģ": 1663,
      "Ð¾Ð»Ð¶": 1664,
      "Ð¾Ð±ÑīÐµ": 1665,
      "ĠÑģÑĭ": 1666,
      "ĠÐ·Ð°ÐºÐ¾Ð½": 1667,
      "ĠÐ¿ÑĢÐ¾ÑģÑĤ": 1668,
      "ĠÐĶÐ»Ñı": 1669,
      "ĠÐ¿ÑĢÐ¾ÑĦ": 1670,
      "ÐµÑĢÐ¶": 1671,
      "ĠÑĢÐ°Ð±Ð¾ÑĤÐ°": 1672,
      "ĠÐ¿ÑĢÐ¾Ð±Ð»ÐµÐ¼": 1673,
      "ĠÑģÐ²Ð¾Ð¸": 1674,
      "ĠÑĨÐ²ÐµÑĤ": 1675,
      "iv": 1676,
      "ĠÐ¾Ð±Ñĭ": 1677,
      "ĠÐºÑĢÐµ": 1678,
      "ĠÑģÐµÐº": 1679,
      "Ð½Ð¸Ñħ": 1680,
      "ĠÐ±Ð»Ð¸": 1681,
      "ĠÐ²ÑĢÐµÐ¼ÐµÐ½Ð¸": 1682,
      "ÐĿÐµ": 1683,
      "Ð¾Ð¿Ð¾Ð»": 1684,
      "ÑıÐ¼": 1685,
      "Ð¸ÑĢÐ°": 1686,
      "ĠÐ±Ð¾": 1687,
      "ÐµÑĤÑĮ": 1688,
      "red": 1689,
      "ÐµÐ½Ð¾": 1690,
      "Ð¿ÑĢÐ°Ð²": 1691,
      "ĠÐ²Ð½Ð¸Ð¼Ð°": 1692,
      "ĠÑģÐµÐ³Ð¾Ð´Ð½Ñı": 1693,
      "ĠÑĤÐµÐ±Ðµ": 1694,
      "ĠÐ½Ð°Ð·": 1695,
      "ÑģÑĤÐ²Ð¾Ð¼": 1696,
      "ÑİÑīÐ¸Ðµ": 1697,
      "ĠÑĥÑĤ": 1698,
      "ĠÐ¸Ð¼ÐµÐ½Ð½Ð¾": 1699,
      "19": 1700,
      "ĠÑĤÐ¾ÑĤ": 1701,
      "Ð¾Ð»Ð¾": 1702,
      "ĠÐµÐ¹": 1703,
      "ĠÐ¾Ð±ÑīÐµ": 1704,
      "ĠÑĢÑĥÑģ": 1705,
      "ÑĩÑĥ": 1706,
      "ight": 1707,
      "Ġsh": 1708,
      "ard": 1709,
      "ĠÑĪÐº": 1710,
      "Ð°ÑĤÑĮÑģÑı": 1711,
      "ÑİÑģÑĮ": 1712,
      "Ġ0": 1713,
      "ĠÑģÐ¾ÑĤ": 1714,
      "ĠÐ³ÑĢÑĥÐ¿": 1715,
      "Ð½ÑĥÐ»ÑģÑı": 1716,
      "ĠÐ¿ÑĢÐ¾ÐµÐº": 1717,
      "Ð¼ÐµÐ½ÑĤÐ°": 1718,
      "Ð¿Ð¾Ð´": 1719,
      "ĠÐ¿Ð¾Ð·Ð²Ð¾Ð»": 1720,
      "ĠÐ´ÑĥÐ¼Ð°": 1721,
      "Ġnot": 1722,
      "ĠÐºÐ¾ÑĤÐ¾ÑĢÑĭÑħ": 1723,
      "ĠÑĨÐµÐ½ÑĤ": 1724,
      "ĠÐ¶Ð¸Ð·Ð½ÑĮ": 1725,
      "ĠÐ¾Ð±Ñı": 1726,
      "ĠÐ¼Ð¾Ð¼": 1727,
      "ÑĦÑĦ": 1728,
      "The": 1729,
      "ĠÑĤÑĢÐ°": 1730,
      "ĠÑĤÐ¾ÑĢ": 1731,
      "ÑıÑĤÐ¸": 1732,
      "Ð½Ð¸Ñĩ": 1733,
      "Ġ15": 1734,
      "Ð¶Ñĥ": 1735,
      "âĢĿ": 1736,
      "Ð¼Ð°Ð½": 1737,
      "ĠÐ¼Ð°ÑĢ": 1738,
      "tp": 1739,
      "Ġhave": 1740,
      "ĠÐ°Ð²ÑĤÐ¾Ð¼": 1741,
      "Ð¾ÑĤÐ²ÐµÑĤ": 1742,
      "ĠÑĤÑĭÑģÑı": 1743,
      "Ð¸ÑĤÐµÐ»Ñı": 1744,
      "ĠÑĥÐ±": 1745,
      "ÑģÑĤÐ°Ð½": 1746,
      "ĠÐºÐ°Ð¶Ð´": 1747,
      "Ð¾Ð¶Ð¸": 1748,
      "ĠÐŁÐ¾Ð´": 1749,
      "ould": 1750,
      "ĠÑģÐºÐ¾": 1751,
      "ĠÐºÐ°ÐºÐ¾Ð¹": 1752,
      "ĠU": 1753,
      "ĠÑģÐ¸Ð»ÑĮ": 1754,
      "Ð¹ÑĤÐ¸": 1755,
      "ÐºÐ¸Ðµ": 1756,
      "ĠÐ¿Ð¾Ð½Ð¸Ð¼Ð°": 1757,
      "ÑıÑĤÑģÑı": 1758,
      "Ð½Ð°Ð´": 1759,
      "Ð½ÐµÐ³Ð¾": 1760,
      "Ð¾Ð»ÑĮÑĪ": 1761,
      "Ð³Ð¾ÑĢ": 1762,
      "ÐµÐ¿": 1763,
      "ĠÐ¿ÑĢÐ¾Ð³ÑĢÐ°Ð¼": 1764,
      "ĠÑĪÐµ": 1765,
      "ĠÐµÑĳ": 1766,
      "ĠÐ¾ÑĩÐµ": 1767,
      "ud": 1768,
      "ĠÐ½Ð¸Ð¼": 1769,
      "ĠÐ±ÑĥÐ´ÑĥÑĤ": 1770,
      "ÑĢÐµÐ¹": 1771,
      "ĠÑģÑĤÐ°ÑĤÑĮ": 1772,
      "://": 1773,
      "ĠÑĢÐ°Ð¹": 1774,
      "ear": 1775,
      "ĠÐ²Ð°Ð¶": 1776,
      "ĠÑĥÑĩ": 1777,
      "ĠÑģÐ²Ð¾Ð¸Ñħ": 1778,
      "ÑĢÐ°Ð±": 1779,
      "Ġun": 1780,
      "ÑĪÐ¸ÑģÑĮ": 1781,
      "ĠÑģÑĤÐ¾Ð»": 1782,
      "ĠÑģÑĥÐ´": 1783,
      "ĠÑģÐ¾Ð±ÑģÑĤÐ²ÐµÐ½": 1784,
      "ÑģÐ¸Ð¹": 1785,
      "ĠÐ¿Ð¾Ð³": 1786,
      "Ġch": 1787,
      "Ð²Ð°Ð½Ð¸Ñı": 1788,
      "ĠÑĤÑĥ": 1789,
      "ĠÑĢÐµÐ±": 1790,
      "ĠÐ¼Ð¾Ð»Ð¾Ð´": 1791,
      "ĠÑģÑĤÐ¸": 1792,
      "ÑĤÑĢ": 1793,
      "ĠÐµÑīÑĳ": 1794,
      "Ð½Ð°Ð»": 1795,
      "ĠÐ½ÐµÐºÐ¾": 1796,
      "Ð¾ÑĢÑĤ": 1797,
      "ĠÐ´ÐµÑĢÐµ": 1798,
      "Ð»Ð¾Ð¼": 1799,
      "ĠÑģÐ»ÑĥÑĩÐ°Ðµ": 1800,
      "ĠÐ»Ð¸ÑĨ": 1801,
      "ĠÐĺÐ·": 1802,
      "ĠÐ±ÐµÑģÐ¿": 1803,
      "ĠÑĤÐ¾Ð³Ð´Ð°": 1804,
      "ÑĩÐµÑģÐºÐ¸Ñħ": 1805,
      "em": 1806,
      "ÑīÐµÐ½Ð¸Ñı": 1807,
      "Ð±ÑĥÐ´ÑĮ": 1808,
      "ĠÑģÑĤÐ°Ð»": 1809,
      "ĠÑĢÐ¸": 1810,
      "ĠÐ²ÐµÐ´ÑĮ": 1811,
      "Ġle": 1812,
      "Ġthis": 1813,
      ")<|": 1814,
      "ack": 1815,
      "Ð²Ð¸Ð´": 1816,
      "ĠÑĢÐ¾": 1817,
      "ge": 1818,
      "ÐµÑĢÑĤ": 1819,
      "Ġhis": 1820,
      "ĠÐ´ÐµÐ»Ð°ÑĤÑĮ": 1821,
      "ĠÐ¿Ð¾Ñħ": 1822,
      "ÑĩÐ¸Ð½": 1823,
      "ÑĪÐµÐ¹": 1824,
      "ÑģÑıÑĤ": 1825,
      "ĠÑĥÑģÐ»Ð¾Ð²": 1826,
      "ĠÐºÐ°Ð¼": 1827,
      "ĠÐ¸Ð½ÑĤÐµÑĢ": 1828,
      "Ð°Ð»Ñĥ": 1829,
      "ĠÐ¾Ð±Ð»Ð°ÑģÑĤÐ¸": 1830,
      "Ð²Ð»Ðµ": 1831,
      "ĠÐ¿Ð¾Ð»Ð¾Ð¶": 1832,
      "ĠÑĦÐ°Ðº": 1833,
      "ĠÐ¸Ð·Ð²ÐµÑģÑĤ": 1834,
      "ÐµÐ»ÐµÐ½": 1835,
      "ĠÐ®": 1836,
      "ĠÑĤÐ¸": 1837,
      "Ġyou": 1838,
      "Ð°Ð»ÑĮÐ½Ð¾Ð¹": 1839,
      "ĠÐ¿Ð¾Ð¼Ð¾Ñī": 1840,
      "ÑĤÐ¾Ñĩ": 1841,
      "ĠÑĢÐ°Ð·Ð²Ð¸ÑĤ": 1842,
      "ak": 1843,
      "ĠÑĢÐ¾Ñģ": 1844,
      "ÑģÑĤÑĮÑİ": 1845,
      "ĠÐ³Ð¾Ð»Ð¾Ð²": 1846,
      "Ð¿Ð¸ÑĤ": 1847,
      "Ð§ÑĤÐ¾": 1848,
      "ĠÑħÐ¾": 1849,
      "ĠÑģÐ»Ð¾Ð²Ð°": 1850,
      "ÐºÐ»Ð°": 1851,
      "ĠÐ±Ð°Ð½": 1852,
      "ÑĢÐ¾Ð¼Ðµ": 1853,
      "....": 1854,
      "ĠÐ²Ð·Ð³Ð»Ñı": 1855,
      "ÑģÑĤÐ²ÑĥÐµÑĤ": 1856,
      "ĠÑįÐºÑģÐ¿": 1857,
      "Ð°Ð»ÑĮÐ½ÑĭÑħ": 1858,
      "Ð°Ð»ÑĮÐ½ÑĭÐµ": 1859,
      "ĠÐ²ÑĢÐ°": 1860,
      "ĠÐ³ÑĢÑĥ": 1861,
      "Ð»ÐµÐ´": 1862,
      "??": 1863,
      "Ð·Ð°Ð½": 1864,
      "ĠÐĴÐ¾": 1865,
      "ĠÐ¼ÐµÑģÑı": 1866,
      "up": 1867,
      "109": 1868,
      "ĠÑĥÐ´Ð°": 1869,
      "ĠÐºÐ¸": 1870,
      "ÑħÑĢÐ°": 1871,
      "ÑģÑĤÑĢÐ¾Ð¹": 1872,
      "ÑĩÐ°ÑĤ": 1873,
      "ĠÑģÐ¾Ð»": 1874,
      "ĠÐĴÐ¾ÑĤ": 1875,
      "ÑģÐºÐ¾": 1876,
      "ok": 1877,
      "Ð²Ð°ÑĤÑĮÑģÑı": 1878,
      "ĠÐ´Ð°Ð»ÑĮ": 1879,
      "Ġ12": 1880,
      "ĠÐ½Ð¸ÐºÐ°Ðº": 1881,
      "ĠÐ²Ð¸Ð´Ðµ": 1882,
      "ĠÐ²ÑģÑı": 1883,
      "ĠÑħÐ¾ÑĢÐ¾ÑĪÐ¾": 1884,
      "Ð¾Ð³Ñĥ": 1885,
      "ÑıÑħ": 1886,
      "ĠÑıÐ·Ñĭ": 1887,
      "Ð³Ð¾Ð²": 1888,
      "og": 1889,
      "Ð´ÐµÑĤÑĮ": 1890,
      "Ð°Ð½ÑĤ": 1891,
      "Ð½ÑĥÐ»Ð°": 1892,
      "ĠÑģÐ»ÑĥÐ¶": 1893,
      "ĠÐ¼ÐµÑģÑĤÐ¾": 1894,
      "ÑĮÐµ": 1895,
      "ĠÐĿÑĥ": 1896,
      "ÑĢÐ°Ð»ÑĮ": 1897,
      "ĠÐ¿ÑĢÐ¾Ð´Ñĥ": 1898,
      "ĠÐ´Ð¾Ð¼Ð°": 1899,
      "ich": 1900,
      "ÑħÐ¾ÑĤ": 1901,
      "Ð°Ð»ÑĮÐ½ÑĭÐ¹": 1902,
      "ial": 1903,
      "ĠÐ½ÐµÐ¾Ð±ÑħÐ¾Ð´Ð¸Ð¼Ð¾": 1904,
      "ĠÑģÐ´ÐµÐ»Ð°ÑĤÑĮ": 1905,
      "ĠÐ´ÑĢÑĥÐ³Ð¸Ñħ": 1906,
      "ĠÐ±Ð°": 1907,
      "Ð¿ÑĢÐ¾": 1908,
      "ĠIn": 1909,
      "ÑħÐ²Ð°": 1910,
      "ĠÐ¼ÐµÑģÑĤ": 1911,
      "ÑĤÑĥÑĢ": 1912,
      "ĠÑĪÐ¸": 1913,
      "ĠÐºÐ¾ÑĤÐ¾ÑĢÐ¾Ð¹": 1914,
      "ap": 1915,
      "ĠÐ½Ð°Ð¿ÑĢÐ°Ð²": 1916,
      "ĠK": 1917,
      "ĠÑĤÑĢÑĥÐ´": 1918,
      "ĠÐŀÐ½Ð¸": 1919,
      "ÑħÐ¸": 1920,
      "ĠÐ¿Ð¾Ð»ÑĥÑĩÐ¸": 1921,
      "ÑĥÐ³": 1922,
      "ĠÐ¿Ð¾Ð»ÑĮÐ·": 1923,
      "ÂłÂł": 1924,
      "ĠÑĤÑı": 1925,
      "ia": 1926,
      "Ð¶Ð´ÑĭÐ¹": 1927,
      "ĠÑĥÑģÑĤÐ°Ð½Ð¾Ð²": 1928,
      "ĠÐºÑĥÐ¿": 1929,
      "ÑĤÐ¸ÑĤÑĮ": 1930,
      "ÑĪÐ»Ð¸": 1931,
      "ÐµÐµ": 1932,
      "ĠÑĥÐ¿ÑĢÐ°Ð²": 1933,
      "Ð¿Ñĭ": 1934,
      "Ð¾Ð»Ð¾Ð´": 1935,
      "ÑĥÐµÑĤ": 1936,
      "ÑİÑīÐ¸Ð¹": 1937,
      "ĠÐ²Ð½Ðµ": 1938,
      "Ġpl": 1939,
      "ĠÑģÐ²Ð¾ÐµÐ³Ð¾": 1940,
      "ĠÐ·Ð°Ð´Ð°": 1941,
      "ÑĩÐµÑģÑĤÐ²Ð¾": 1942,
      "Ð½Ð°Ñĩ": 1943,
      "ÑĩÐµÑģÐºÐ¾Ð¹": 1944,
      "ĠÑĨÐµÐ»": 1945,
      "ĠÑĥÑĢÐ¾Ð²": 1946,
      "ĠÐ¿ÑĢÐ¾Ð¸Ñģ": 1947,
      "ĠÑĥÐ¼": 1948,
      "ust": 1949,
      "ÑģÐºÐ¸Ð¼": 1950,
      "ĠÑģÑĢÐ°Ð·Ñĥ": 1951,
      "ĠÑģÐ»Ð¾Ð¶": 1952,
      "ĠÐ¿Ð¾Ð»Ð¸ÑĤ": 1953,
      "ÑģÑĤÐ¾Ð¹": 1954,
      "ĠÐ¶ÐµÐ»": 1955,
      "ÑĢÑĥÑİ": 1956,
      "ĠÐ²Ð¾Ð¾Ð±ÑīÐµ": 1957,
      "ĠÑģÐ¾Ð±Ð¾Ð¹": 1958,
      "Ð²Ð¾Ðµ": 1959,
      "ĠÑģÐ¾Ð¾ÑĤÐ²ÐµÑĤ": 1960,
      "Ð½Ð¸Ð·": 1961,
      "ĠÐ°Ð¿": 1962,
      "ĠÐ²ÐµÐ»Ð¸": 1963,
      "Ð°Ð»ÑĮÐ½Ð¾Ð³Ð¾": 1964,
      "ĠÑįÐ»ÐµÐº": 1965,
      "ĠÑħÐ¾Ð´": 1966,
      "11": 1967,
      "ÑĤÐ¸Ð¹": 1968,
      "ast": 1969,
      "ĠÐ¡ÑĤ": 1970,
      "ĠÐ¿ÑĢÐ¾ÑĨÐµÑģ": 1971,
      "ĠÐ¿Ð¾ÑĩÑĤÐ¸": 1972,
      "ĠÐ¿ÑĢÐ°Ðº": 1973,
      "ĠÑĥÑĩÐ°ÑģÑĤ": 1974,
      "ÑĭÑĤÐ°": 1975,
      "ĠÐ¿ÐµÑĢÐ²": 1976,
      "over": 1977,
      "ÑĪÐ¸Ð¹": 1978,
      "ost": 1979,
      "ĠÐ¾Ð±Ð¾": 1980,
      "ĠÑĢÐµÐ³Ð¸": 1981,
      "ĠÑĤÑĢÑĥ": 1982,
      "ĠÑģÐ°": 1983,
      "Ð¼ÐµÑĢÐ¸": 1984,
      "Ð¸ÑĤÐµÐ»Ð¸": 1985,
      "ĠÐ¿Ð¾ÑĩÐµÐ¼Ñĥ": 1986,
      "ĠÐºÐ»Ð¸": 1987,
      "ĠÐ´ÐµÐ²ÑĥÑĪ": 1988,
      "Ð¾ÑĤÐ¾": 1989,
      "Ð±Ð¸ÑĢÐ°": 1990,
      "ĠÐĿÐ¸Ðº": 1991,
      "ĠÐ¼Ð¾ÑĢ": 1992,
      "Ð²Ð°Ð½": 1993,
      "ÑĩÐ°ÑĤÑĮ": 1994,
      "ÑģÐºÐ¾Ðµ": 1995,
      "com": 1996,
      "ĠÐ²ÑĭÐ¿Ð¾Ð»": 1997,
      "ĠÐĶÐ¶": 1998,
      "ĠÐ·Ð°Ð±": 1999,
      "201": 2000,
      "ÐºÐ°Ð·Ð°": 2001,
      "Ð¾Ð²Ð°Ð»": 2002,
      "ÑĢÐ¾ÑģÐ¸": 2003,
      "ÑĢÐµÐº": 2004,
      "ĠÐ´Ð²Ðµ": 2005,
      "Ð²Ð°Ð½Ð¸Ðµ": 2006,
      "ÑģÑĥÑĤ": 2007,
      "ÑĪÐ»Ð°": 2008,
      "Ġ...": 2009,
      "ĠÐ²Ð´": 2010,
      "Ð²ÑĭÐµ": 2011,
      "ĠÐ´ÐµÐ»Ð¾": 2012,
      "ĠV": 2013,
      "ĠÐ¼Ð¾Ð´": 2014,
      "Ð´Ð°ÐµÑĤ": 2015,
      "ĠÐºÑĢÐ°Ñģ": 2016,
      "ĠÐ½ÐµÐ±": 2017,
      "Ð»Ñĥ": 2018,
      "ÐµÑĨ": 2019,
      "Ġ:": 2020,
      "ĠÐ´Ñĥ": 2021,
      "ĠÐ±ÑĢÐ°": 2022,
      "ĠÐ½Ð¾ÑĢ": 2023,
      "ĠÑħÐ¾ÑĤÑı": 2024,
      "ĠÐ¿ÑĢÐ¾Ð´ÑĥÐº": 2025,
      "ÐºÐ°Ð¼": 2026,
      "ĠÑĤÐ°": 2027,
      "ÑĢÐµÐ²": 2028,
      "ĠÑħÐ°": 2029,
      "ÐĶÐ°": 2030,
      "ÐµÐ½ÑĤÐ¾Ð²": 2031,
      "ĠÑĤÐ°ÐºÐ¾Ðµ": 2032,
      "ĠÐ¼Ð¸Ð½ÑĥÑĤ": 2033,
      "Ð½Ð¸Ð±ÑĥÐ´ÑĮ": 2034,
      "ÑĪÐµÐ½Ð¸Ðµ": 2035,
      "Ġab": 2036,
      "Ð¾Ð»Ð°": 2037,
      "ĠÑĢÑıÐ´": 2038,
      "Ð¾Ð·Ñı": 2039,
      "Ð»Ð¸Ñı": 2040,
      "ÐºÐ¾Ð²Ð¾Ð´": 2041,
      "ĠÑĤÐ¾Ð²Ð°": 2042,
      "ob": 2043,
      "ÑĨÐ¸Ð°Ð»Ð¸": 2044,
      "Ġhas": 2045,
      "ÑĩÐ½Ð¾Ð¹": 2046,
      "ĠÐķÐ²": 2047,
      "ĠÐºÐ¾Ð»Ð¸": 2048,
      "ĠÐ¿ÑĢÐ¾Ð¿": 2049,
      "ine": 2050,
      "ĠÐ¿Ð¾Ð´Ð¾Ð±": 2051,
      "ĠÐ³Ð¾Ð»Ð¾Ñģ": 2052,
      "Ð²ÐµÐ»Ð¸": 2053,
      "ĠÐºÐ¾Ð½ÐµÑĩÐ½Ð¾": 2054,
      "ĠÑģÑĤÐ¾Ð¸ÑĤ": 2055,
      "Ð½Ð¸ÑĨÐ°": 2056,
      "ame": 2057,
      "ÑģÐ»Ðµ": 2058,
      "ĠÐ²ÐµÑģ": 2059,
      "ÑĢÐ°Ñģ": 2060,
      "ĠÑģÐ¾Ð²ÑģÐµÐ¼": 2061,
      "ĠÐ³Ð¾ÑĢÐ¾Ð´Ð°": 2062,
      "ÑĤÐ½Ð¾": 2063,
      "ĠÐ´Ð¾ÑģÑĤÐ°": 2064,
      "Ðĸ": 2065,
      "ĠÐ²ÐµÑģÑĮ": 2066,
      "ĠÐ¿ÑĢÐµÐ´Ð»Ð¾Ð¶": 2067,
      "ĠÐ¶ÐµÐ»Ð°": 2068,
      "ĠÐ½Ð°ÑģÑĤÐ¾Ñı": 2069,
      "Ð¾ÑĩÐµÐ¼Ñĥ": 2070,
      "ÐµÑĢÑĭ": 2071,
      "ĠÐ²ÑĭÑħÐ¾Ð´": 2072,
      "ĠÐ±Ð¾Ð»": 2073,
      "ÑģÐºÐ¾Ð»ÑĮ": 2074,
      "Ð¾ÑĤÐ°": 2075,
      "ĠÑģÐ¾Ð´": 2076,
      "ĠÐ£ÐºÑĢÐ°": 2077,
      "Ð·Ð¾Ð²": 2078,
      "ĠÐ½ÐµÑģ": 2079,
      "ĠÐ¿ÑĢÐµÐºÑĢÐ°": 2080,
      "ĠÐ´Ð¾Ð»Ð¶ÐµÐ½": 2081,
      "ÑĨÐµÐ½": 2082,
      "ÑģÐ¸Ð¸": 2083,
      "ĠÐ¿ÑĢÑı": 2084,
      "Ð¾Ð±ÑĢÐ°Ð·": 2085,
      "ÑĢÑĮ": 2086,
      "ĠÐ¸Ð´Ðµ": 2087,
      "ĠâĢľ": 2088,
      "ÐµÑĢÐ¾": 2089,
      "ĠÐ¡Ð¾": 2090,
      "Ð²Ð°ÐµÐ¼": 2091,
      "ell": 2092,
      "ĠÐ½ÐµÐµ": 2093,
      "ÑĩÐ¸ÑĤÑĮ": 2094,
      "ĠÑįÑĤÐ¸Ñħ": 2095,
      "ÑģÐ¸Ð¾Ð½": 2096,
      "Ġsa": 2097,
      "Ð¸ÑĤÑĥÐ°": 2098,
      "ĠÐ¶ÐµÐ½ÑīÐ¸": 2099,
      "ĠÐ¾ÐºÐ°Ð·": 2100,
      "Ġus": 2101,
      "000": 2102,
      "ĠÑįÐºÐ¾Ð½Ð¾Ð¼": 2103,
      "ĠÑĥÐ²Ð¸": 2104,
      "ÑīÐµÐ½Ð¸Ðµ": 2105,
      "Ð´ÐµÐ»ÑĮ": 2106,
      "ĠÐ³Ð¾Ð²Ð¾ÑĢ": 2107,
      "ĠÐºÐ»Ð°Ñģ": 2108,
      "Ð»Ð°Ð½": 2109,
      "Ð¾Ð²Ð°Ñı": 2110,
      "ÑĢÐ¾ÑĤ": 2111,
      "Ġk": 2112,
      "ÐºÐ°Ñı": 2113,
      "ĠÐ»Ð°": 2114,
      "Ð¾Ð±Ð¾Ð´": 2115,
      "Ð´ÐµÐ½": 2116,
      "Ġj": 2117,
      "ĠÐĲÐ»ÐµÐºÑģ": 2118,
      "ub": 2119,
      "ÑĤÑĥÑĢÑĭ": 2120,
      "ĠÑĦÐ¸Ð»ÑĮ": 2121,
      "ĠÑģÐºÐ°Ð·Ð°ÑĤÑĮ": 2122,
      "ĠÐºÐ²Ð°ÑĢ": 2123,
      "ĠÐ´Ð²ÑĥÑħ": 2124,
      "ĠÐºÑĥÑĢ": 2125,
      "ĠÐ²ÑģÐ¿": 2126,
      "ĠÑģÐ¾Ñģ": 2127,
      "ÐµÐ·Ð´": 2128,
      "Ġwor": 2129,
      "ÑĦÑĦÐµÐº": 2130,
      "ĠÐ¿ÑĢÐ¾ÑĦÐµÑģ": 2131,
      "ĠÐ½Ð°Ðº": 2132,
      "ong": 2133,
      "pl": 2134,
      "Ð¸ÐºÐ¸": 2135,
      "ĠÐ¾ÑĩÐµÑĢÐµÐ´": 2136,
      "ĠÑģÐ»Ð¸": 2137,
      "ĠÐ¾Ð´Ð½Ð¾Ð¹": 2138,
      "ĠÐ±ÐµÑĢÐµ": 2139,
      "ans": 2140,
      "12": 2141,
      "Ð¾Ð½Ð¾Ð²": 2142,
      "Ð¸Ð½Ñĭ": 2143,
      "ĠÐºÐ¾Ð¼Ð¿Ð°Ð½Ð¸Ð¸": 2144,
      "ÑĢÐ¸ÑĤÐ¾": 2145,
      "ĠÐ´ÐµÑĢÐµÐ²": 2146,
      "Ð½Ð¸ÑĤÐµÐ»ÑĮ": 2147,
      "ĠÐ·Ð°ÑıÐ²": 2148,
      "ĠÐ¿ÑĢÐ¾Ð´Ð°": 2149,
      "ide": 2150,
      "ÑıÐ»": 2151,
      "ĠÐ·Ð°Ð½Ñı": 2152,
      "ÑĩÐµÑģÐºÐ¾Ð³Ð¾": 2153,
      "ÑģÑĤÑĢÑĥÐº": 2154,
      "Ð²ÐµÑģÑĤÐ¸": 2155,
      "ĠÐ½Ð°Ð´Ðµ": 2156,
      "Ð¾Ð»Ð¾Ð³": 2157,
      "ĠÐ½Ð°ÑĢÐ¾Ð´": 2158,
      "ure": 2159,
      "ÑĥÐ»Ñı": 2160,
      "ĠÐ¸Ð³ÑĢÐ°": 2161,
      "Ð½Ð¸ÑĤ": 2162,
      "ĠÐ¿ÑĢÐ¾Ð´Ð¾Ð»Ð¶": 2163,
      "ĠÐ·Ð°ÑĤ": 2164,
      "ally": 2165,
      "Ð³Ð»Ð°": 2166,
      "ĠÐ¿Ð¾Ð»ÑĥÑĩÐ°": 2167,
      "ĠÐ¢Ñĭ": 2168,
      "ĠÐ²Ð¼ÐµÑģÑĤÐµ": 2169,
      "ĠÑģÐ¼Ðµ": 2170,
      "ÐµÑĪ": 2171,
      "ĠÑĤÐ°ÐºÐ¸Ðµ": 2172,
      "ÑģÑĤÐ²Ð¸Ðµ": 2173,
      "ĠÑģÐ¾Ð²ÐµÑĤ": 2174,
      "ÑĩÐºÐ°": 2175,
      "ÐµÑĢÐ±": 2176,
      "ÐµÐ½Ð½Ð¾Ð¹": 2177,
      "ĠÐ¢Ðµ": 2178,
      "ĠÑģÐ¸ÑĤÑĥÐ°": 2179,
      "ĠÐ¿ÑĢÐ¾Ð²Ð¾Ð´": 2180,
      "ĠÑĢÐ°ÑģÑģÐºÐ°": 2181,
      "ound": 2182,
      "ÑĩÐµÑģÐºÐ¸Ðµ": 2183,
      "ÑĢÐ°Ð²Ð¸": 2184,
      "ĠÐľÐ°": 2185,
      "ĠÐ±ÐµÐ»": 2186,
      "ÑħÐ¾": 2187,
      "ĠÐ¼Ð¸Ð»": 2188,
      "Ð´Ð°Ð»": 2189,
      "ĠÐĲÑĢ": 2190,
      "ĠÑĢÐ¾ÑģÑģÐ¸Ð¹": 2191,
      "Ð²ÑĪÐ¸Ð¹": 2192,
      "ÐºÐ¾Ð³Ð¾": 2193,
      "ĠÐ¾Ð±ÐµÑģÐ¿": 2194,
      "oug": 2195,
      "ĠÐ·Ð½Ð°Ñİ": 2196,
      "ĠÐłÐ°Ð·": 2197,
      "Ð½Ð°Ñħ": 2198,
      "ĠÐ½Ð°ÑĩÐ¸Ð½Ð°": 2199,
      "Ð²Ð°Ð»Ð°": 2200,
      "ĠÐ¼Ð°ÑĤÐµÑĢÐ¸Ð°Ð»": 2201,
      "ÑĤÐ¾ÑĩÐ½Ð¾": 2202,
      "Ð»Ð¾Ðº": 2203,
      "Ð½ÐµÐ½Ð¸Ñı": 2204,
      "ÐµÐ´Ð¸Ð½": 2205,
      "ions": 2206,
      "ĠÐ½Ð¸ÐºÐ¾Ð³Ð´Ð°": 2207,
      "ĠÑģÑĩÐ¸ÑĤÐ°": 2208,
      "Ð·Ð°Ð´": 2209,
      "Ġwhe": 2210,
      "ie": 2211,
      "ĠÐ¾Ð´Ð½Ð°": 2212,
      "ĠÐ³Ð°": 2213,
      "ĠÐ·Ð°Ð¼ÐµÑĤ": 2214,
      "ĠÑģÑĤÐ¾ÑĢÐ¾Ð½Ñĭ": 2215,
      "ĠÑģÐ°Ð¼Ð¾": 2216,
      "ĠÑįÑĤÑĥ": 2217,
      "ÑģÑĤÐ¾ÑıÐ½": 2218,
      "ĠÐ´Ð¾ÐºÑĥ": 2219,
      "ĠÑĢÐµÐ±ÐµÐ½": 2220,
      "ÑĪÐ¸Ðµ": 2221,
      "\\\\": 2222,
      "age": 2223,
      "ĠÑĩÐ°ÑģÑĤÐ¸": 2224,
      "ĠÐ¿ÐµÑĢÐ¸": 2225,
      "ĠÐ±Ð¾ÑĢ": 2226,
      "ĠÐ¾Ð±ÑıÐ·Ð°": 2227,
      "ĠÐ´ÐµÑĤÐµÐ¹": 2228,
      "ated": 2229,
      "Ð¿Ð°Ð´": 2230,
      "ĠÑģÐ¾Ð²ÐµÑĢÑĪ": 2231,
      "Ġ*": 2232,
      "ĠÐ½Ð°Ð±": 2233,
      "ÐµÐ´Ð¸": 2234,
      "Ð·Ñı": 2235,
      "ĠÐ¾ÑĤÐ»Ð¸": 2236,
      "Ð¾Ð¼Ð¸Ð½Ð°": 2237,
      "ĠÐļÐ¾Ð³Ð´Ð°": 2238,
      "ĠÑĥÐ»Ð¸": 2239,
      "ÑıÑģÑĮ": 2240,
      "Ġbut": 2241,
      "ĠÑĥÐ´Ð¸": 2242,
      "ÐµÑģÑĤ": 2243,
      "iz": 2244,
      "ÑģÐ»ÑĥÐ¶": 2245,
      "ÑĩÐ½ÑĭÐ¹": 2246,
      "20": 2247,
      "ÑĩÐ°ÑģÑĤ": 2248,
      "ĠÐ´ÑĢÑĥÐ³Ð¾Ð¹": 2249,
      "ĠÑĨÐ¸": 2250,
      "ÑģÑĤÐ²ÐµÐ½Ð½Ð¾Ð¹": 2251,
      "ĠÐ³Ð¾Ð²Ð¾ÑĢÐ¸ÑĤ": 2252,
      "ĠÐ³Ð¾ÑĤÐ¾Ð²": 2253,
      "ĠÐ·Ð°Ð¼": 2254,
      "ÐµÐ´ÐµÑĢÐ°": 2255,
      "ĠÐ´Ð¾Ð»Ð¶Ð½Ñĭ": 2256,
      "ĠÐºÐ¾ÑĤÐ¾ÑĢÐ¾Ð³Ð¾": 2257,
      "Ð½Ð¸Ð»": 2258,
      "ĠÐ¿ÑĢÐ¾Ñģ": 2259,
      "ÑĤÐ¸ÑĩÐµÑģÐºÐ¸": 2260,
      "Ð²Ñı": 2261,
      "ĠÐ¾Ð±ÐµÑģÐ¿Ðµ": 2262,
      "ĠÑĢÑĥÐºÐ¾Ð²Ð¾Ð´": 2263,
      "ĠÐ´Ð½Ñı": 2264,
      "ĠÑĤÐµÑĢÑĢÐ¸ÑĤÐ¾": 2265,
      "Ð´ÐµÐ»Ð°": 2266,
      "ĠÐ²ÐºÐ»Ñİ": 2267,
      "ÑĢÐ¾ÑģÐ¸Ð»": 2268,
      "ĠÐ¿Ð¾ÑįÑĤÐ¾Ð¼Ñĥ": 2269,
      "ĠÑĤÐ¾Ð»": 2270,
      "Ð¼ÐµÐ½ÑĤ": 2271,
      "ĠÑģÐ½Ð¾Ð²Ð°": 2272,
      "ĠÐ±ÑĭÑģÑĤÑĢÐ¾": 2273,
      "ÑĢÐ°Ñħ": 2274,
      "ĠÐ¿ÑĢÐµÐ´Ð¿ÑĢÐ¸": 2275,
      "own": 2276,
      "ĠÐ¾ÑĦÐ¸": 2277,
      "ĠÐĽÑİ": 2278,
      "ĠÐ¼Ð¾Ð¹": 2279,
      "ÑĨÐ¸ÐµÐ¹": 2280,
      "ĠÑģÑĤÑĢÐ°Ð½": 2281,
      "ĠÑħÐ°ÑĢÐ°Ðº": 2282,
      "ÑģÐºÐ°Ð·": 2283,
      "ĠÑģÐ¼ÐµÑĢ": 2284,
      "ĠÐ¸Ð¼ÐµÐµÑĤ": 2285,
      "ry": 2286,
      "ff": 2287,
      "Ð°ÑĤÑĭ": 2288,
      "ĠÑĤÐ²Ð¾": 2289,
      "Ð´Ð¶": 2290,
      "Ð¼Ð¾ÑĤÑĢÐµÑĤÑĮ": 2291,
      "ÑģÐºÑĥÑİ": 2292,
      "Ð½Ð¸ÑĨÑĭ": 2293,
      "ĠÐŁÐµÑĢ": 2294,
      "Ð¶Ð´Ð°": 2295,
      "ĠÐ¿Ð¸Ñģ": 2296,
      "Ð¾ÐºÐ¾": 2297,
      "ĠÐ½ÐµÐºÐ¾ÑĤÐ¾ÑĢÑĭ": 2298,
      "Ð¨ÐĲ": 2299,
      "ĠÐ·Ð´Ð¾ÑĢ": 2300,
      "ĠÐ¿ÑĢÐ¸Ð¼ÐµÑĢ": 2301,
      "ĠÐ³ÑĢÐ°Ð¶": 2302,
      "ĠÐ¾Ð¿ÐµÑĢÐ°": 2303,
      "Ġcan": 2304,
      "ĠÐ²ÑĤÐ¾ÑĢ": 2305,
      "ĠÐºÐ¾ÑĤÐ¾ÑĢÐ¾Ð¼": 2306,
      "ĠÐ¼ÐµÑģÑĤÐ°": 2307,
      "ĠÐ¼Ð¸ÑĢ": 2308,
      "Ð½Ð°Ð¼Ð¸": 2309,
      "ĠÐ´ÐµÑıÑĤÐµÐ»ÑĮ": 2310,
      "Ð¶ÐµÐ½": 2311,
      "Ð°Ð¼Ð°": 2312,
      "ĠÑģÐ¾Ð²ÑĢÐµÐ¼ÐµÐ½": 2313,
      "Ġall": 2314,
      "ĠÐ²ÑĢÐµÐ¼ÐµÐ½": 2315,
      "ÑīÐ¸ÑĤ": 2316,
      "ĠÑįÑĤÐ¸Ð¼": 2317,
      "ous": 2318,
      "ÑĩÐµÑģÐºÐ¸Ð¹": 2319,
      "ind": 2320,
      "ĠÑĢÐ°Ð·Ð»Ð¸Ñĩ": 2321,
      "one": 2322,
      "ĠÐ¸Ð´": 2323,
      "ĠÐ´Ð²Ð¸Ð¶": 2324,
      "ĠÑģÑĥÑīÐµ": 2325,
      "ĠÐ¿Ð¾Ñı": 2326,
      "ÑĢÐ¸Ð½": 2327,
      "Ð¾Ð¶ÐµÑĤ": 2328,
      "ĠÐºÐ¾Ð¼Ð°Ð½": 2329,
      "Ġ17": 2330,
      "ĠÐ¾Ð±ÑĢÐ°Ð·Ð¾Ð¼": 2331,
      "ĠÐ¡ÐµÑĢ": 2332,
      "Ð»Ð¾Ð½": 2333,
      "ĠÑĤÑĢÐ°Ð½": 2334,
      "ĠÐ½Ð°Ð·Ð°Ð´": 2335,
      "ip": 2336,
      "Ġ16": 2337,
      "ÑĢÐ°Ð¼": 2338,
      "ĠÑģÑĥÐ¼": 2339,
      "Ð²ÑĪÐ¸ÑģÑĮ": 2340,
      "ĠÑģÐ²Ð¾Ðµ": 2341,
      "Ð¾ÐºÐ¾Ð¹": 2342,
      "ice": 2343,
      "ome": 2344,
      "Ġthey": 2345,
      "Ġht": 2346,
      "ĠÐºÐ°Ð¶Ð´ÑĭÐ¹": 2347,
      "Ð¼Ð¸Ð½Ð¸": 2348,
      "ĠÑĩÐ°ÑģÑĤÑĮ": 2349,
      "Ð¶Ð¸Ð¼": 2350,
      "ÑĪÐºÐ¾Ð¼": 2351,
      "ĠÐ·Ð°Ð½Ð¸Ð¼Ð°": 2352,
      "ÑĢÐ°Ð·Ð´": 2353,
      "ĠÐ¼Ð¾Ð¼ÐµÐ½ÑĤ": 2354,
      "ĠÐłÐ°": 2355,
      "ĠÐ¿Ð¾Ð²ÐµÑĢ": 2356,
      "ber": 2357,
      "ĠÐ¾Ð¿ÑĢÐµÐ´ÐµÐ»": 2358,
      "ĠÐ¿ÑĢÐ¸ÑħÐ¾Ð´": 2359,
      "ĠÐ´Ð¾Ð³": 2360,
      "ÑģÑĤÑĢÐ°Ð½": 2361,
      "ĠÐŁÐ¾ÑĤ": 2362,
      "ĠÐ¼Ð¾Ð³Ñĥ": 2363,
      "ĠÑĢÐ°Ð·Ð³": 2364,
      "ÑģÐ¸Ñħ": 2365,
      "ĠÐºÐ¾Ð¼Ð½Ð°": 2366,
      "Ð³Ð¾Ð´Ð°ÑĢ": 2367,
      "ĠÐ¿ÑĢÐ¸Ð·Ð½Ð°": 2368,
      "ĠÐ±ÐµÑģ": 2369,
      "ĠÐļÐ¾Ð½": 2370,
      "Ð¿ÐµÑĢÐ°": 2371,
      "ĠÐ²Ð°ÑĪ": 2372,
      "Ġhttp": 2373,
      "Ð´ÐµÐ»Ð¸": 2374,
      "Ð¾Ð·Ð½Ð°": 2375,
      "Ð½ÐµÐ²": 2376,
      "ÑīÐµÐ½": 2377,
      "ÑĪÐºÐ¸": 2378,
      "ÑģÐ»Ð¾": 2379,
      "ĠÑģÐ¿ÐµÑĨÐ¸Ð°Ð»ÑĮ": 2380,
      "other": 2381,
      "ĠÑģÐ¾ÑĤÑĢÑĥÐ´": 2382,
      "Ð¸Ð³": 2383,
      "ÑıÐµÑĤ": 2384,
      "ĠÐ¿Ð¾ÑģÑĤÐ¾ÑıÐ½": 2385,
      "Ð½Ð¾Ñģ": 2386,
      "act": 2387,
      "ĠÐ·Ð°Ð¼Ðµ": 2388,
      "ĠÐŁÐ¾Ð»": 2389,
      "Ð°ÐºÑģ": 2390,
      "ĠÑĥÐ»Ñĭ": 2391,
      "Ð¾Ð»ÑĮÐ½Ð¾": 2392,
      "ace": 2393,
      "ÑĢÐ¸ÑĤÑĮ": 2394,
      "ĠÐµÐ´Ð¸Ð½": 2395,
      "ĠÐ¿Ð¾Ð¹": 2396,
      "ÐĹÐ°": 2397,
      "ĠÐºÑĢÐ¾Ð²": 2398,
      "Ð¾Ð½ÐµÑĨ": 2399,
      "ĠÐºÑĥÐ»ÑĮ": 2400,
      "ÑĩÐ°ÐµÑĤ": 2401,
      ".,": 2402,
      "Ġar": 2403,
      "ĠÑģÐ°Ð¼Ð¸": 2404,
      "av": 2405,
      "ĠÐŁÑĥ": 2406,
      "ÑĤÐµÐ½": 2407,
      "))))": 2408,
      "ĠÑģÐ²Ð¾Ð¸Ð¼": 2409,
      "ĠÑģÐ»ÐµÐ´ÑĥÑİÑī": 2410,
      "Ġ\\": 2411,
      "der": 2412,
      "Ġwhich": 2413,
      "Ð¶ÐµÑĤÑģÑı": 2414,
      "ĠÐ¡Ð¾Ð²": 2415,
      "ĠÑĤÐµÐº": 2416,
      "ass": 2417,
      "ĠÑįÑĦÑĦÐµÐº": 2418,
      "ÐµÑĤÐ¸": 2419,
      "!<|": 2420,
      "Ð»Ð°Ð´Ð¸": 2421,
      "Ð¾Ð³Ðµ": 2422,
      "Ġne": 2423,
      "ÑĢÐ¾Ð·": 2424,
      "ĠÐĴÐ°": 2425,
      "ÑĢÐµÐ·": 2426,
      "Ð»Ð°Ð³Ð°": 2427,
      "ĠÐ´ÑĢÑĥÐ³Ð¸Ðµ": 2428,
      "ĠÐ±ÑĥÐ´Ñĥ": 2429,
      "ĠÑĥÐºÑĢÐ°": 2430,
      "ĠÐ½Ð¾Ñģ": 2431,
      "ĠÐºÑĥÐ´Ð°": 2432,
      "Ð¾Ð¶Ð½Ð¾": 2433,
      "ĠÑĢÑĥÐºÐ¸": 2434,
      "50": 2435,
      "ĠÐ¾Ð´Ð½Ð¾": 2436,
      "ĠÐŀÐ´Ð½Ð°ÐºÐ¾": 2437,
      "ĠÐļÐ¾Ð¼": 2438,
      "ĠSt": 2439,
      "ÑĪÐµÐµ": 2440,
      "Ð²Ð¸Ð»Ð°": 2441,
      "ĠÐ¾Ð´Ð½Ð¾Ð³Ð¾": 2442,
      "Ġ30": 2443,
      "ĠÑħÐ¾Ð·Ñı": 2444,
      "Ġ199": 2445,
      "ĠÐ¼Ð°Ð»ÐµÐ½ÑĮ": 2446,
      "ĠÐŀÑģ": 2447,
      "Ð»ÑİÑĩ": 2448,
      "ĠÐ´ÑĥÑħ": 2449,
      "ÑģÑĤÑĢÐ¸": 2450,
      "ÐŃÑĤÐ¾": 2451,
      "Ð±ÐµÐ¶": 2452,
      "ail": 2453,
      "Ð¿Ð»Ð°": 2454,
      "ÑĢÑİ": 2455,
      "----": 2456,
      "ĠÑģÑĤÐ°Ð½Ð¾Ð²": 2457,
      "ĠÑĤÐ¾Ð¼Ñĥ": 2458,
      "so": 2459,
      "Ġme": 2460,
      "ĠÐºÐ²Ð°ÑĢÑĤÐ¸": 2461,
      "ÑıÑĤÐ½Ð¾": 2462,
      "ĠÑĢÐµÐ´": 2463,
      "ÑĦÐ¾Ð½": 2464,
      "ĠÑĤÑĭÑģÑıÑĩ": 2465,
      "Ġ14": 2466,
      "ĠÐ²Ð¿Ðµ": 2467,
      "Ð²ÑĭÐ¹": 2468,
      "ĠÑģÐ¾Ð¿": 2469,
      "ĠÐ¡Ð¨ÐĲ": 2470,
      "Ġtheir": 2471,
      "ĠÑįÐ»ÐµÐºÑĤ": 2472,
      "ary": 2473,
      "ĠÐŁÐ¾ÑģÐ»Ðµ": 2474,
      "Ġwere": 2475,
      "ĠÐ¸ÑĤ": 2476,
      "ĠÐ¼Ð°ÑĤ": 2477,
      "1086": 2478,
      "Ð´ÑĮ": 2479,
      "ĠÐ¿ÑĢÐ¾Ð¼": 2480,
      "ĠÐ¿Ð¾ÑĢÑıÐ´": 2481,
      "ĠÑĢÐ°Ð´Ð¸": 2482,
      "ĠÐ¿ÑĢÐ¸Ð½": 2483,
      "Ð¾Ð³ÑĢÐ°ÑĦÐ¸": 2484,
      "ĠÐ¿ÑĢÐ¸Ð¼ÐµÐ½": 2485,
      "ĠÐ²Ð¾Ð·Ð´Ñĥ": 2486,
      "pt": 2487,
      "ĠÐ³Ð°Ð·": 2488,
      "ĠÑĦÑĥÐ½": 2489,
      "ĠÑĥÐ·": 2490,
      "ÐºÐ¸Ð¼": 2491,
      "ĠÐ½Ð°Ð·ÑĭÐ²Ð°": 2492,
      "ĠÐ¸Ð·Ð¼ÐµÐ½": 2493,
      "Ð¸ÑģÐ°": 2494,
      "ÑĩÐ½ÑĭÐµ": 2495,
      "ite": 2496,
      "ÑģÐ¸Ñı": 2497,
      "Ð¾Ð²ÑĭÐ¼": 2498,
      "ÑģÑĤÐ°Ð²Ð»ÑıÐµÑĤ": 2499,
      "ĠÐ´Ð°Ð»Ðµ": 2500,
      "**": 2501,
      "ĠÐ°Ð²ÑĤÐ¾Ð¼Ð¾Ð±": 2502,
      "ÐµÐ»ÐµÐ¼": 2503,
      "ĠÑĩÐ¸ÑĤ": 2504,
      "ĠÐºÑĢÐ°ÑģÐ¸": 2505,
      "ÑĥÑĤÑĮ": 2506,
      "ĠÐ³Ð»ÑĥÐ±": 2507,
      "Ġdo": 2508,
      "Ð²Ð¸Ð»Ð¸": 2509,
      "ĠÐ´ÐµÐ½ÑĮÐ³Ð¸": 2510,
      "ĠÐ¿ÑĢÐ¾Ð²ÐµÐ´": 2511,
      "ÑĳÐ»": 2512,
      "Ġad": 2513,
      "Ð½Ð°Ð»Ð¸": 2514,
      "Ġwill": 2515,
      "ĠÐ¼Ð¾Ð¶ÐµÑĤÐµ": 2516,
      "Ð¸Ð»Ð¸ÑģÑĮ": 2517,
      "Ġhad": 2518,
      "ĠÐºÑĢÑĥÐ¿": 2519,
      "ĠÐµÐ²": 2520,
      "ĠÑĤÐ°ÐºÐ¸Ñħ": 2521,
      "ÑĩÑĤÐ¾": 2522,
      "ÑĢÐµÐ¿": 2523,
      "ĠÑĢÐ°ÑģÑĤ": 2524,
      "ĠÐŁÐµÑĤ": 2525,
      "ĠÐ¸Ñİ": 2526,
      "ĠÐ¸ÑģÐ¿Ð¾Ð»": 2527,
      "ime": 2528,
      "Ġcl": 2529,
      "ĠÐºÐ¾Ð³Ð¾": 2530,
      "ĠÐºÐ°ÐºÐ¸Ðµ": 2531,
      "Ġwho": 2532,
      "Ð¦": 2533,
      "Ð¾Ð¿Ð°Ñģ": 2534,
      "30": 2535,
      "ÑĳÑĢ": 2536,
      "Ð¼Ð¾Ð¶Ð½Ð¾": 2537,
      "ĠÑĥÑģÐ»Ð¾Ð²Ð¸Ñı": 2538,
      "ĠÑģÐ¿ÐµÑĨÐ¸Ð°Ð»Ð¸": 2539,
      "Ġ11": 2540,
      "ence": 2541,
      "Ð²Ð¸Ð³Ð°": 2542,
      "ĠÐ¿Ð¾Ð¼Ðµ": 2543,
      "ĠÐ¼ÐµÑĢ": 2544,
      "Ð³Ð»Ð¸": 2545,
      "ĠÑĩÐ°ÑģÑĤÐ¾": 2546,
      "ĠÐ¿Ð»": 2547,
      "Ġout": 2548,
      "ÑĩÐ½ÑĭÑħ": 2549,
      "ÑĨÐ¾Ð²": 2550,
      "ÑĩÐ¸Ðµ": 2551,
      "ÐĿÐ¾": 2552,
      "ep": 2553,
      "ĠÐºÑĢÑĭ": 2554,
      "Ð²Ð¸Ð½": 2555,
      "Ð¸Ð¼Ð¾ÑģÑĤÐ¸": 2556,
      "Ġen": 2557,
      "ÑĨÐ°ÑĤÑĮ": 2558,
      "ĠÑģÐ¼Ñĭ": 2559,
      "ÑĪÐ»Ð¾": 2560,
      "ĠÑĢÑĭÐ½": 2561,
      "ĠÑĩÐ°ÑģÑĤ": 2562,
      "Ġ?": 2563,
      "ĠÑģÐ¾Ð¾ÑĤÐ²ÐµÑĤÑģÑĤÐ²": 2564,
      "ÐµÐ¼Ð°": 2565,
      "ÐºÐ¾Ð½": 2566,
      "ĠÐºÐ¾Ñģ": 2567,
      "ĠÐ¿Ð°Ð¼": 2568,
      "Ð½ÑıÑĤÑĮ": 2569,
      "Ð¾Ð»ÐµÑĤ": 2570,
      "Ġcomp": 2571,
      "Ġsaid": 2572,
      "ÑĤÐµÐ»Ñı": 2573,
      "ĠÑĥÐ»ÑĭÐ±": 2574,
      "ĠÐ·Ð½Ð°ÐºÐ¾Ð¼": 2575,
      "Ð¡Ð¡": 2576,
      "ÐĴÑĭ": 2577,
      "ÐµÐ½Ð½Ð¾Ð³Ð¾": 2578,
      "ĠÐ·Ð°Ð²Ð¸Ñģ": 2579,
      "ĠÐ´Ð¾ÑģÑĤÐ¸": 2580,
      "Ð´ÐµÐ¼": 2581,
      "Ð¾Ð»Ñı": 2582,
      "ĠÑĦÐ¾ÑĤ": 2583,
      "ĠÐľÐ°ÑĢ": 2584,
      "ĠÐºÐ°Ð½": 2585,
      "ĠÐłÐ¤": 2586,
      "ĠÐ¾Ð³ÑĢÐ¾Ð¼": 2587,
      "ÑĤÐ°Ð¼Ð¸": 2588,
      "Ð²Ð°ÑİÑĤÑģÑı": 2589,
      "ĠÑįÐ½ÐµÑĢ": 2590,
      "ĠÑĥÑĩÐ°ÑģÑĤÐ¸": 2591,
      "ĠÑģÐºÐ¾ÑĢÐ¾": 2592,
      "ĠÐ¿ÑĢÐ°Ð²Ð¸Ð»ÑĮ": 2593,
      "Ð¸ÐºÐ°": 2594,
      "ÑģÐµÑĢ": 2595,
      "Ð°Ð½Ð°": 2596,
      "ÑĩÐ½Ð¾Ð³Ð¾": 2597,
      "ĠÑĤÑıÐ¶": 2598,
      "ĠÐ¾Ð¶Ð¸": 2599,
      "ÑĢÐ°Ð¼Ð¸": 2600,
      "Ð¬": 2601,
      "ĠÑĢÐ°Ð±Ð¾ÑĤÑĥ": 2602,
      "ĠÑģÐ°Ð¼Ð¾Ð¼": 2603,
      "ÑĥÑīÐµÑģÑĤÐ²": 2604,
      "ĠÐ²Ð°ÑĢÐ¸": 2605,
      "ĠÐ¸ÑģÑĤÐ¾ÑĢÐ¸": 2606,
      "cl": 2607,
      "ĠÐ¼Ð¸Ð½Ð¸": 2608,
      "ĠÐ½ÐµÐ¼Ð½Ð¾Ð³Ð¾": 2609,
      "ÐŁÐ¾": 2610,
      "Ġup": 2611,
      "Ð¿Ð¸Ñģ": 2612,
      "ov": 2613,
      "ĠÐ¸Ð½ÑģÑĤ": 2614,
      "ÑĤÐ¸Ð»": 2615,
      "ĠÑģÑĤÐ°ÑĢ": 2616,
      "ĠÐ¿Ð»Ð¾ÑīÐ°": 2617,
      "ian": 2618,
      "Ð·ÑĭÐ²Ð°ÐµÑĤ": 2619,
      "ĠÐ°ÐºÑĤÐ¸Ð²": 2620,
      "Ð´ÐµÑĢÐ¶Ð¸": 2621,
      "18": 2622,
      "ĠÐ¶Ð¸": 2623,
      "ÑĩÐ¸Ðº": 2624,
      "ÑĭÐ¼Ð¸": 2625,
      "ĠÑĥÐ²ÐµÑĢ": 2626,
      "ÑĤÐ¸Ðµ": 2627,
      "ĠÐ²Ð¾Ð·Ð¼Ð¾Ð¶Ð½Ð¾": 2628,
      "ĠÐ½Ð°ÑĪÐµÐ¹": 2629,
      "ĠÑģÑĤÐ°Ð»Ð¸": 2630,
      "ĠÐĲÐ»ÐµÐºÑģÐ°Ð½Ð´": 2631,
      "Ð»ÐµÐ½Ð¸Ð¸": 2632,
      "ÑģÑĤÐ°Ð²Ð¸ÑĤÑĮ": 2633,
      "ĠÑĤÑĢÐµÐ±": 2634,
      "ĠÐ¿Ð¾ÐºÑĥÐ¿": 2635,
      "Ð½Ð¸ÑĨ": 2636,
      "Ð«": 2637,
      "ĠÐ¾Ð±ÑĬÐµÐº": 2638,
      "Ð´Ð°Ð½Ð¸Ñı": 2639,
      "to": 2640,
      "ign": 2641,
      "ĠÐĽÐ¸": 2642,
      "ĠÑĩÐµÑĤÑĭ": 2643,
      "ĠÐºÐ¾Ð½ÑĨÐµ": 2644,
      "ue": 2645,
      "Ð°Ð½Ðº": 2646,
      "ÐµÐ»ÑĮÐ·Ñı": 2647,
      "ĠÐ°Ð²ÑĤÐ¾": 2648,
      "ĠÑģÐ¾Ð±Ð¸ÑĢÐ°": 2649,
      "Ġ[": 2650,
      "ĠÐºÐ¾Ð½ÑĤÑĢ": 2651,
      "Ð¾ÑĢÐ¸": 2652,
      "ect": 2653,
      "ĠÐ²Ð¾Ð·Ð¼Ð¾Ð¶Ð½Ð¾ÑģÑĤÑĮ": 2654,
      "Ð½Ð¸ÐºÐ¾Ð¼": 2655,
      "Ð´Ð¾Ð¼": 2656,
      "Ġone": 2657,
      "ÑģÑĤÐ²Ð¸Ñı": 2658,
      "ÑĢÐ¾Ð²Ð°Ð½Ð¸Ñı": 2659,
      "ĠÐºÐ¾ÑĤÐ¾ÑĢÐ¾Ðµ": 2660,
      "Ð¾Ð»Ð¾Ð¶": 2661,
      "Ð½ÑıÑı": 2662,
      "ĠÐ¿ÑĢÐ°Ð·Ð´": 2663,
      "ÑĢÑĥÑĪ": 2664,
      "ĠÐľÐ¸": 2665,
      "Ð´Ð°ÑĢ": 2666,
      "ÑģÐºÐµ": 2667,
      "ll": 2668,
      "Ð¾Ð»Ð¾Ð²": 2669,
      "ÑģÐ½Ð¾": 2670,
      "Ð³Ð¸Ð½": 2671,
      "ook": 2672,
      "ĠÐ¼ÐµÑģÑĤÐµ": 2673,
      "ÑģÑĤÐ¾ÑıÑĤÐµÐ»ÑĮ": 2674,
      "ÐŁÑĢÐ¸": 2675,
      "ÑİÑīÐµÐ¹": 2676,
      "ult": 2677,
      "ĠÐ¼Ð°Ð³Ð°": 2678,
      "ĠÐ´ÐµÐ»Ðµ": 2679,
      "ĠÐ·Ð½Ð°Ñĩ": 2680,
      "ĠÐ¾ÐºÐ¾Ð»Ð¾": 2681,
      "ĠÑģÑĤÑĢÐ¾Ð¸ÑĤÐµÐ»ÑĮ": 2682,
      "ĠÑģÐµÑĢÐ´": 2683,
      "ÑĢÑĥÐ·": 2684,
      "ib": 2685,
      "Ð²ÑĪÐ¸Ñħ": 2686,
      "ÑĤÐ¾Ð±": 2687,
      "Ð²ÑĭÑħ": 2688,
      "ĠÐ¡Ð°Ð¼": 2689,
      "ÑĤÐ¸Ð¸": 2690,
      "ÑĦÐµÑĢ": 2691,
      "ÑģÐ¸Ð»Ð¸": 2692,
      "ĠÐ¿ÐµÑĢÐ²ÑĭÐ¹": 2693,
      "Ġmore": 2694,
      "ĠX": 2695,
      "ÑģÑĤÐ²ÐµÐ½Ð½Ð¾Ð³Ð¾": 2696,
      "ĠÐ·Ð°Ð²": 2697,
      "Ð¼Ð¾Ð½": 2698,
      "ĠÐĿÐ¸": 2699,
      "ical": 2700,
      "ĠÐ·Ð½Ð°ÑĩÐ¸ÑĤ": 2701,
      "Ð°Ð»ÑĮÐ½Ð¾Ðµ": 2702,
      "ĠÐ¿Ð»Ðµ": 2703,
      "ĠÐ¿ÑģÐ¸Ñħ": 2704,
      "ÑģÐ¾Ð½": 2705,
      "ĠÐĴÐ°Ñģ": 2706,
      "ĠÐ½Ð¸ÐºÑĤÐ¾": 2707,
      "ĠÐ·Ð°Ð³": 2708,
      "ĠÐ¾Ð½Ð¾": 2709,
      "ÐķÑģÐ»Ð¸": 2710,
      "ĠÐ·Ð°Ð±Ñĭ": 2711,
      "____": 2712,
      "ĠÐ²Ð¾Ð·ÑĢÐ°": 2713,
      "ĠÐ¿ÑĢÐµÐ´Ð¾": 2714,
      "Ð½ÑĥÐ»Ð°ÑģÑĮ": 2715,
      "Ð´Ñı": 2716,
      "ĠÑģÐ¾ÑģÑĤÐ°Ð²": 2717,
      "ĠÑĤÐµÐ¿": 2718,
      "ĠÐĵÐ¾Ñģ": 2719,
      "Ð°Ð»ÑĥÐ¹": 2720,
      "ĠÑĢÑıÐ´Ð¾Ð¼": 2721,
      "ys": 2722,
      "ord": 2723,
      "ĠÑģÐ»Ð°": 2724,
      "ĠÐ¸ÑģÑģÐ»ÐµÐ´": 2725,
      "Ġgo": 2726,
      "ĠÐ´Ð²ÐµÑĢ": 2727,
      "ĠÐ¼Ð¸ÑĢÐ°": 2728,
      "ĠÐ²Ð¾Ðº": 2729,
      "ĠÑĢÑĥÐ±Ð»ÐµÐ¹": 2730,
      "Ġ13": 2731,
      "ĠÑĤÑĢ": 2732,
      "Ġim": 2733,
      "ĠÐ´Ð¾ÑģÑĤÐ°ÑĤÐ¾ÑĩÐ½Ð¾": 2734,
      "ĠÐ¾Ð±ÑĬÑıÑģ": 2735,
      "ĠÐ¾ÑĢÐ³Ð°Ð½Ð¸Ð·Ð°": 2736,
      "ĠÐ²ÐµÑĤ": 2737,
      "ĠÐ½ÐµÐ´": 2738,
      "ĠÐ¸ÑģÐ¿Ð¾Ð»ÑĮÐ·Ñĥ": 2739,
      "ĠÐ±Ð¸Ð·": 2740,
      "ÑĪÑĥ": 2741,
      "Ð·Ð¸Ð´": 2742,
      "ÑĥÐ¶Ð´": 2743,
      "Ð»ÑĥÐ±": 2744,
      "ÑĦÐµ": 2745,
      "ĠÑģÐ²Ð¾Ð±Ð¾Ð´": 2746,
      "Ð¸Ð½Ð¾Ð¹": 2747,
      "ĠÑĦÐ¸Ð·": 2748,
      "ĠÐ¿ÐµÑģ": 2749,
      "ĠÑģÑĢÐµÐ´Ð¸": 2750,
      "ÐµÑĢÐ¾Ð²": 2751,
      "ĠÑģÐ¾ÑĨÐ¸Ð°Ð»ÑĮ": 2752,
      "ĠÐ¼Ð¸Ð»Ð»Ð¸": 2753,
      "ĠCh": 2754,
      "Ð²ÐµÑĢÑħ": 2755,
      "ĠÐ½Ð¾Ð¼": 2756,
      "ough": 2757,
      "ĠÐ¡ÑĤÐ°": 2758,
      "Ð¼Ð¸Ð½Ð¸ÑģÑĤÑĢÐ°": 2759,
      "ĠÐ¾ÑĤÐ´ÐµÐ»": 2760,
      "orm": 2761,
      "ĠÐ¾ÐºÐ°": 2762,
      "ire": 2763,
      "ĠNo": 2764,
      "ĠÐ¼ÑĥÐ·Ñĭ": 2765,
      "ÑģÐºÐ¾Ð²": 2766,
      "Ð¾ÑĢÐ°": 2767,
      "Ð¼Ð¾ÑĤÑĢÐ¸": 2768,
      "ĠÑĥÐ·Ð½Ð°": 2769,
      "ike": 2770,
      "Ð´Ð¾Ñħ": 2771,
      "ĠTh": 2772,
      "ĠÐ²ÑģÑİ": 2773,
      "ÐĻ": 2774,
      "Ð½Ð°ÑĢÐ¾Ð´": 2775,
      "ĠÑģÐµÐ¼ÑĮ": 2776,
      "ĠÐ·Ð°ÐºÑĢÑĭ": 2777,
      "ÑģÐ¸Ð±Ð¾": 2778,
      "ĠÐ¿Ð¾ÑıÐ²": 2779,
      "ĠÐ¾ÑģÑĤÐ°Ð²": 2780,
      "ÑĤÑĢÐµÐ½": 2781,
      "ĠÐ¼ÐµÐ½ÑĮ": 2782,
      "ĠÐ¼ÐµÐ½ÐµÐµ": 2783,
      "ĠÐ½ÐµÐ¾Ð±ÑħÐ¾Ð´Ð¸Ð¼": 2784,
      "ÑģÑģ": 2785,
      "ĠÐ¼Ñı": 2786,
      "ĠÐ¼Ð°ÑĪ": 2787,
      "ÑģÑĤÐ²ÐµÐ½Ð½ÑĭÑħ": 2788,
      "Ð¾Ð½Ð¸": 2789,
      "ÑģÑĤÐ²ÐµÐ½Ð½ÑĭÐ¹": 2790,
      "ĠÐ¿Ð¾ÑĤÑĢÐµÐ±": 2791,
      "ÑĢÐ¸Ð¼ÐµÑĢ": 2792,
      "ĠÐ°Ð³": 2793,
      "15": 2794,
      "Ð°Ð»Ð¸Ð·": 2795,
      "ĠÐ´Ð¾Ð»Ð³Ð¾": 2796,
      "ww": 2797,
      "ĠÑģÐ¾Ð³Ð»Ð°Ñģ": 2798,
      "Ð¶Ð´Ðµ": 2799,
      "Ð°ÑģÐ°": 2800,
      "ĠÑģÑĤÐ°Ð»Ð¾": 2801,
      "ĠÐ»Ð¸Ð±Ð¾": 2802,
      "ĠÑģÑĤÑĢÐ°Ð½Ñĭ": 2803,
      "Ð²Ð°Ñİ": 2804,
      "ÑĩÐµÑģÑĤÐ²Ð°": 2805,
      "Ð¼ÐµÑĢÐ¸ÐºÐ°Ð½": 2806,
      "ĠÐ¾ÑĢÐ³Ð°Ð½Ð¸Ð·": 2807,
      "Ġres": 2808,
      "ÐĿÑĥ": 2809,
      "ĠÐ²ÑĭÐ¿Ñĥ": 2810,
      ")))": 2811,
      "ĠÐ¿ÐµÑĢÐ¸Ð¾Ð´": 2812,
      "Ð¸Ð¼Ð¾ÑģÑĤÑĮ": 2813,
      "ĠÐ¿Ð¾Ð¸": 2814,
      "ĠÐłÐµ": 2815,
      "ĠÐ´Ð½ÐµÐ¹": 2816,
      "ÑĩÐ°Ð»": 2817,
      "ĠÐ¾Ñī": 2818,
      "Ð»ÐµÐ½Ñĭ": 2819,
      "16": 2820,
      "ĠÐ¾ÑģÐ¾Ð±ÐµÐ½Ð½Ð¾": 2821,
      "ÑĢÐ¸Ð»": 2822,
      "Ð¾Ð¶Ð°": 2823,
      "ÑģÑĤÑĥÐ¿Ð°": 2824,
      "ĠÐĴÐ°Ð¼": 2825,
      "ÑĢÑĥÐµÑĤ": 2826,
      "ÐµÑĢÐº": 2827,
      "ĠÐ½Ð°Ð¿ÑĢÐ¸Ð¼ÐµÑĢ": 2828,
      "ĠÑģÐ¸Ð¼": 2829,
      "ĠÐ¿Ð°ÑĢÐ°": 2830,
      "ĠÑħÐ²Ð°": 2831,
      "Ð±Ð»Ð¸": 2832,
      "ÑĤÐ°Ñħ": 2833,
      "ÐºÐ°Ðº": 2834,
      "ÑĢÐµÐµ": 2835,
      "ĠÐ½Ð°Ð¹ÑĤÐ¸": 2836,
      "ÐµÑĢÐ¶Ð°": 2837,
      "ÑĢÑĥÐ¶Ð¸": 2838,
      "ĠÐķÐ³Ð¾": 2839,
      "ĠÐ´ÐµÐ½Ðµ": 2840,
      "ÑĩÐºÑĥ": 2841,
      "ĠÐ¿Ð¾Ð²Ñĭ": 2842,
      "Ð°Ð»ÑĮÐ½Ð°Ñı": 2843,
      "ÑıÐ±ÑĢÑı": 2844,
      "ĠÑĤÐµÑħÐ½": 2845,
      "co": 2846,
      "ations": 2847,
      "ĠÐ½Ð¾ÑĢÐ¼": 2848,
      "per": 2849,
      "ĠÐºÐ¾ÑĤÐ¾ÑĢÑĥÑİ": 2850,
      "ĠÑģÐ»Ð¸ÑĪÐºÐ¾Ð¼": 2851,
      "ÑĦÐ°": 2852,
      "Ð¾Ð¶Ð´ÐµÐ½Ð¸Ñı": 2853,
      "ĠÐĴÐ»Ð°Ð´Ð¸": 2854,
      "ĠÐľÐ½Ðµ": 2855,
      "ÑģÐ¿ÐµÐº": 2856,
      "ĠÑĨÐµÐ½": 2857,
      "Ġac": 2858,
      "Ð°ÐºÐ°": 2859,
      "ĠÐ¾ÐºÐ¾Ð½": 2860,
      "ĠÑģÐ²ÑıÐ·Ð¸": 2861,
      "ÑĤÐ¾Ð½": 2862,
      "ÐµÑģÑĤÐ¸": 2863,
      "ens": 2864,
      "ÐµÐ´ÑĮ": 2865,
      "ĠÐ¶ÑĥÑĢ": 2866,
      "ĠÑģÐ¸ÑģÑĤÐµÐ¼Ñĭ": 2867,
      "ĠÑĩÐµÑĤ": 2868,
      "ĠÐ²Ð¾ÑģÐ¿": 2869,
      "ĠÐºÐ°Ð·": 2870,
      "ĠÐ²Ð½Ð¸Ð¼Ð°Ð½Ð¸Ðµ": 2871,
      "ĠÐ¾Ð´Ðµ": 2872,
      "Ð¾Ð»Ð¾Ð³Ð¸Ð¸": 2873,
      "ĠÐ´Ð¾Ð¿Ð¾Ð»": 2874,
      "ĠÐ¿Ð¾Ð»Ð¸": 2875,
      "ÑĤÐ°Ð¼": 2876,
      "Ġsp": 2877,
      "Ð¸Ð½Ð°Ð½": 2878,
      "ĠÐ±ÐµÐ·Ð¾Ð¿Ð°Ñģ": 2879,
      "ÐµÐ½ÐµÑĢÐ°": 2880,
      "Ð¾ÑĤÐµ": 2881,
      "ĠÐ¿Ð¾ÑĤÐµÑĢ": 2882,
      "ÑĤÐ¾Ð¹": 2883,
      "ĠÐŁÐ¾ÑįÑĤÐ¾Ð¼Ñĥ": 2884,
      "ĠÑħÐ¾Ð»Ð¾Ð´": 2885,
      "ĠÑģÐºÐ¾Ð»ÑĮÐºÐ¾": 2886,
      "ĠÐ½ÐµÐ´Ð¾": 2887,
      "ĠÐ¾ÑģÑĤÐ°Ð½Ð¾Ð²": 2888,
      "ĠÑģÐ»ÑĭÑĪ": 2889,
      "Ġcont": 2890,
      "ÑģÑĭÐ»": 2891,
      "Ð²Ñĥ": 2892,
      "ĠÐ´ÑĢÑĥÐ·": 2893,
      "ĠÐ¿ÑıÑĤÑĮ": 2894,
      "ĠÐ°Ð±": 2895,
      "ĠÑĢÐ°Ð·Ð¼Ðµ": 2896,
      "ĠÑĢÐ°ÑģÐº": 2897,
      "ĠÐ¿ÑĢÐ¾Ðº": 2898,
      "ĠÐ¡Ðµ": 2899,
      "ĠÑĥÐ»": 2900,
      "ĠÑģÑĢÐ¾Ðº": 2901,
      "ĠY": 2902,
      "able": 2903,
      "Ð°Ð³Ð°": 2904,
      "ction": 2905,
      "ĠÐ²ÐºÑĥ": 2906,
      "Ġag": 2907,
      "ĠÐ½Ð°Ð»": 2908,
      "ĠÐ²Ð´ÑĢÑĥÐ³": 2909,
      "Ð¸Ð½Ð¾Ð²": 2910,
      "ĠÐ¶ÐµÐ½Ñī": 2911,
      "ĠÑģÐ¾Ð±Ñĭ": 2912,
      "ĠÑħÑĥÐ´": 2913,
      "Ð¼Ð°ÑĤÑĢÐ¸": 2914,
      "ĠÐ¾ÑģÑĥÑīÐµÑģÑĤÐ²": 2915,
      "ĠÑģÐ²Ð¸": 2916,
      "ĠÑĥÐ´Ð¸Ð²": 2917,
      "Ġbeen": 2918,
      "ÑĢÑĥÑģ": 2919,
      "Ġ$": 2920,
      "ĠÐ°Ð»": 2921,
      "ÑģÑĤÐ¸ÑĤÑĮ": 2922,
      "ÑĥÐ»": 2923,
      "ĠÐ³ÑĥÐ±": 2924,
      "Ġ100": 2925,
      "ÑĥÐ·": 2926,
      "ĠÑģÑİ": 2927,
      "ÑĪÐºÐ°": 2928,
      "ĠÐ±Ð¾Ð³": 2929,
      "ĠÐ½Ð°ÑĪÐ¸": 2930,
      "mer": 2931,
      "Ð»Ð¸Ðº": 2932,
      "ose": 2933,
      "ĠÑħÐ¾ÑĤÑĮ": 2934,
      "ÑĢÐµÐ¶Ð´": 2935,
      "Ð¾ÑĤÑĭ": 2936,
      "ĠÐ¾Ð¿Ð°Ñģ": 2937,
      "ĠÑĢÐ°Ð²": 2938,
      "ĠÑģÐ¿Ð¾ÑĢ": 2939,
      "ile": 2940,
      "ĠÐ¿Ð¾Ð´Ð´ÐµÑĢÐ¶": 2941,
      "ĠÐ½ÑĢÐ°Ð²": 2942,
      "ĠÑģÐ¼Ð¾Ð³": 2943,
      "ĠÑĥÐ½Ð¸": 2944,
      "Ġman": 2945,
      "ÐŀÐ½": 2946,
      "ĠÐ¿Ð¾Ð´Ð³Ð¾ÑĤÐ¾Ð²": 2947,
      "ĠÑģÐµÑĢÑĮ": 2948,
      "ĠÐ½Ð°Ð±Ð»Ñİ": 2949,
      "Ð¾ÐºÑĢÐ°": 2950,
      "Ð¾Ð²Ð°Ð½": 2951,
      "ĠÐ¾Ð±Ðµ": 2952,
      "Ġabout": 2953,
      "Ð¾Ð²Ð°ÑĤÑĮÑģÑı": 2954,
      "ĠÐ»ÑİÐ±Ð¾Ð²": 2955,
      "ĠÐ±Ð»Ð¸Ð·": 2956,
      "Ð°ÐºÑģÐ¸Ð¼": 2957,
      "Ð°ÑĢÐ°": 2958,
      "ake": 2959,
      "ĠÐŁÑĢÐ°Ð²": 2960,
      "ĠÑģÐ¾Ð²ÐµÑĢÑĪÐµÐ½Ð½Ð¾": 2961,
      "Ð½Ð¸ÑĤÐµ": 2962,
      "ĠÑĤÐ°ÐºÐ¾Ð³Ð¾": 2963,
      "ÑĩÐµÑĢÐ°": 2964,
      "Ð»ÐµÐ½Ð°": 2965,
      "ĠÑģÑĥÑīÐµÑģÑĤÐ²": 2966,
      "ĠÑĤÐ¾Ð½": 2967,
      "Ġtr": 2968,
      "ĠÐ¿ÑĢÑıÐ¼Ð¾": 2969,
      "1077": 2970,
      "Ð»Ð¸Ð²Ð¾": 2971,
      "ks": 2972,
      "ÑĪÐ¸Ð±": 2973,
      "ree": 2974,
      "ĠÑĥÐ²ÐµÐ»Ð¸": 2975,
      "ĠÐ½ÐµÐ±Ð¾Ð»ÑĮÑĪ": 2976,
      "ÐºÑĥÐ´Ð°": 2977,
      "ÐºÐ¾Ðµ": 2978,
      "Ð²Ð°Ð»ÑģÑı": 2979,
      "are": 2980,
      "ĠÐ²Ð½ÐµÑĪ": 2981,
      "ĠÑĢÐ°Ð²Ð½Ð¾": 2982,
      "ĠÐ²Ð¾Ð»Ð¾Ñģ": 2983,
      "ĠÑģÐ¾Ð±ÑĢÐ°": 2984,
      "ĠÑĤÐ°ÐºÐ¸Ð¼": 2985,
      "ÐºÑĥÑĢ": 2986,
      "ÑĢÐ¾Ð´Ðµ": 2987,
      "ĠÐŁÑĢÐµÐ´": 2988,
      "ĠÐ³Ð¾Ð»Ð¾Ð²Ñĥ": 2989,
      "ress": 2990,
      "ĠÐ¾ÑĤÐ½Ð¾ÑĪ": 2991,
      "ĠAn": 2992,
      "Ġop": 2993,
      "ĠÐ¼Ð¸ÑĢÐµ": 2994,
      "ĠÐ½ÐµÐ»ÑĮÐ·Ñı": 2995,
      "ÐµÐ½ÑĤÑĭ": 2996,
      "Ð²ÑĪÐ¸Ðµ": 2997,
      "Ð¾Ð²Ð°Ð»Ð¸": 2998,
      "ĠÐ½Ð°ÑĩÐ°Ð»Ð°": 2999,
      "ĠÑĢÐ°Ð·ÑĢÐ°Ð±Ð¾ÑĤ": 3000,
      "ÑĤÐ¾ÑĢÐ¾Ð²": 3001,
      "ĠÐ´Ð°Ð»ÑĮÑĪÐµ": 3002,
      "ĠÐ½Ð°ÑģÐµÐ»": 3003,
      "ĠÑģÐ¾Ð¾Ð±Ñī": 3004,
      "ĠÐ¼Ð°Ð»Ð¾": 3005,
      "ĠÐ´Ð°Ð²Ð½Ð¾": 3006,
      "Ð³Ð¸Ð¸": 3007,
      "ÑĩÐ¸ÑĤÑĭ": 3008,
      "uc": 3009,
      "ĠÐ²ÑħÐ¾Ð´": 3010,
      "ĠÐ¾Ð±Ð½Ð°": 3011,
      "ÑĩÐµÐº": 3012,
      "ĠÑĤÐ¾ÑĩÐ½Ð¾": 3013,
      "ĠÐ¿Ð¾Ð¼Ð¾ÑīÑĮÑİ": 3014,
      "Ġ+": 3015,
      "ÑĢÐµÐ½Ð¸Ñı": 3016,
      "ÑīÐ°ÐµÑĤ": 3017,
      "ĠÐ½Ð°Ð³": 3018,
      "Ð°Ð¹ÑĤÐµ": 3019,
      "Ġper": 3020,
      "ĠÐ´Ð¾Ð»Ð¶Ð½Ð°": 3021,
      "ĠÐĶÐ¾": 3022,
      "ĠÐ·Ð°ÑĤÐµÐ¼": 3023,
      "Ġoff": 3024,
      "Ġwould": 3025,
      "ĠÐ¿Ð¾ÐºÐ°Ð·": 3026,
      "ĠÐ´ÑĢÑĥÐ³Ð°": 3027,
      "Ð²Ð°Ð¹": 3028,
      "ÑħÐ¾Ð²": 3029,
      "Ġ25": 3030,
      "ĠÐĳÑĭ": 3031,
      "ĠÐ¿Ð¾Ð´Ð½Ñı": 3032,
      "ÑİÑīÐ¸Ð¼": 3033,
      "ond": 3034,
      "ĠÐºÑĢÐ°Ð¹": 3035,
      "ĠÐ²ÐµÑĩÐµÑĢ": 3036,
      "Ġ2015": 3037,
      "ĠÑħÐ¾ÑĩÑĥ": 3038,
      "17": 3039,
      "ish": 3040,
      "ÑıÐ¼Ð¸": 3041,
      ".\"": 3042,
      "ĠÑĩÐµÑĤÑĭÑĢÐµ": 3043,
      "ĠÐ¼Ð¾Ðµ": 3044,
      "ĠÐĴÐ¾Ð·": 3045,
      "ĠÐ²Ð½ÑĥÑĤÑĢÐµÐ½": 3046,
      "ĠÐ¢Ð¾Ð»ÑĮÐºÐ¾": 3047,
      "ÑĤÐ¾ÑĢÐ¾Ð¼": 3048,
      "ĠÐ²Ð¾Ð·Ð²ÑĢÐ°": 3049,
      "ĠÐ¾ÑĤÐ¿ÑĢÐ°Ð²": 3050,
      "ĠÑĪÐºÐ¾Ð»": 3051,
      "ĠÑģÐ»ÐµÐ´ÑĥÐµÑĤ": 3052,
      "Ġapp": 3053,
      "ĠÑĥÐ´Ð¾Ð²": 3054,
      "ĠÐ¿ÑĢÐ¾Ð³": 3055,
      "ĠÐĽÐµ": 3056,
      "ĠÐ´ÐµÐ¼": 3057,
      "ĠÑĩÑĥÑĤÑĮ": 3058,
      "ĠÑĥÐ´Ð¾Ð±": 3059,
      "Ð²ÐµÑĢÑģ": 3060,
      "ĠÑĦÑĥÐ½Ðº": 3061,
      "ÐŀÑĤ": 3062,
      "?<|": 3063,
      "ĠÐ¿Ð¸ÑģÑĮ": 3064,
      "Ð¾Ð½Ñĭ": 3065,
      "ÑĢÐµÐ´Ð¸": 3066,
      "Ġalso": 3067,
      "ĠÐ·Ð´Ð¾ÑĢÐ¾Ð²": 3068,
      "ĠÑĪÐ¸ÑĢÐ¾Ðº": 3069,
      "ĠÐ¿Ð¾Ð±ÐµÐ´": 3070,
      "ĠÑĩÑĥÐ²ÑģÑĤÐ²": 3071,
      "ĠÐ²Ð¾Ð´Ñĭ": 3072,
      "ÐµÐ»Ð¾ÑģÑĮ": 3073,
      "ĠÐ±Ð»Ð°Ð³Ð¾Ð´Ð°ÑĢ": 3074,
      "ÑģÑĤÐ°Ð»": 3075,
      "ĠÑĦÐ¸Ð½Ð°Ð½": 3076,
      "ance": 3077,
      "very": 3078,
      "ĠÐ¿Ð»Ð°Ð½": 3079,
      "...<|": 3080,
      "ĠÐ½Ð°ÑĥÑĩ": 3081,
      "ÑĤÐ°ÐºÐ¸": 3082,
      "ĠÐ¼Ð°ÑĪÐ¸": 3083,
      "Ġyear": 3084,
      "Ð´Ð°Ð½Ð¸Ðµ": 3085,
      "ĠÐ¸Ð·Ð¾Ð±": 3086,
      "ÑĤÑĥÑĢÐ°": 3087,
      "ÑĢÐµÐ»": 3088,
      "ĠÐ»ÑİÐ±Ð¸Ð¼": 3089,
      "ĠÐķÐ²ÑĢÐ¾Ð¿": 3090,
      "ĠÑĦÐ¾ÑĤÐ¾": 3091,
      "ĠÐ¶Ð¸Ð²Ð¾ÑĤ": 3092,
      "Ð¶ÐµÐ½Ð¸Ñı": 3093,
      "ĠÐĿÐµÑĤ": 3094,
      "ÑĢÐ¾Ð²Ð°Ð½Ð¸Ðµ": 3095,
      "ach": 3096,
      "ĠÐ¿ÑĢÐ¾ÑĦÐµÑģÑģÐ¸Ð¾Ð½": 3097,
      "ÑĩÐ°ÐµÑĤÑģÑı": 3098,
      "ĠÑĥÑģ": 3099,
      "ĠÑįÑĤÐ¾Ð¼Ñĥ": 3100,
      "ĠÑģÑĤÐ°Ð»Ð°": 3101,
      "ÑĩÐµÐ¹": 3102,
      "ĠÐ¸ÑģÐºÑĥÑģ": 3103,
      "ĠÐ»Ð¸ÑĤ": 3104,
      "ĠÐ½Ñĥ": 3105,
      "ÑĩÐ¸Ð½Ñĭ": 3106,
      "14": 3107,
      "ĠÐ½ÐµÐ¿ÑĢÐ¸": 3108,
      "Ð¢Ð°Ðº": 3109,
      "ĠÐ¿Ð¾Ð´ÑħÐ¾Ð´": 3110,
      "ĠÑģÐºÐ°Ð·Ð°Ð»Ð°": 3111,
      "ĠÐ²ÑĭÐ³Ð»Ñı": 3112,
      "Ġev": 3113,
      "ĠÐ¿Ð¾ÑģÑĤÑĥÐ¿": 3114,
      "ĠÐŁÑĢÐµ": 3115,
      "Ð³Ð¾ÑĢÐ¾Ð´": 3116,
      "Ġte": 3117,
      "ĠÐ³ÑĢÐ°Ð¶Ð´Ð°Ð½": 3118,
      "Ð¾Ð½ÐµÑĩÐ½Ð¾": 3119,
      "Ġits": 3120,
      "ĠÐ¼Ð»": 3121,
      "==": 3122,
      "ĠÐ¼ÐµÐ´Ð¸": 3123,
      "ĠÑĢÐ°ÑģÐ¿Ð¾Ð»Ð¾Ð¶": 3124,
      "Ð¿Ð¾Ð»Ð½Ðµ": 3125,
      "ĠÐľÐµ": 3126,
      "1072": 3127,
      ".)": 3128,
      "ĠÐ´ÐµÐ¹ÑģÑĤÐ²Ð¸ÑĤÐµÐ»ÑĮÐ½Ð¾": 3129,
      "Ð¼Ð¾ÑĤÑĢÑı": 3130,
      "ÑĤÑĭÐ¹": 3131,
      "ĠÐ¾ÑĤÐ´ÐµÐ»ÑĮ": 3132,
      "ĠÐ´Ð¾Ð¿": 3133,
      "ĠÐ¾Ð³ÑĢÐ°": 3134,
      "ÑģÑĤÐ°ÑĤÐ¸": 3135,
      "ĠÐ´Ð¾Ð»Ð¶Ð½Ð¾": 3136,
      "ÑģÑĤÐ¾Ð¼": 3137,
      "ĠÐ°Ð¼ÐµÑĢÐ¸ÐºÐ°Ð½": 3138,
      "ĠÑģÑĤÐ¾ÑĢÐ¾Ð½Ñĥ": 3139,
      "ÑģÐ»Ð¾Ð²": 3140,
      "Ð½Ð¸ÑĨÑĥ": 3141,
      "Ð¶Ð¸ÑĤÐµ": 3142,
      "Ð½Ð°Ð¼": 3143,
      "old": 3144,
      "ĠÑģÐ°Ð¼Ð¾Ðµ": 3145,
      "ĠHe": 3146,
      "ĠÑĤÐ°ÐºÐ°Ñı": 3147,
      "ÑĢÐ¾Ð´Ð°": 3148,
      "ĠÐ¿Ð¾ÑģÑĤÐ°Ð²": 3149,
      "ĠÐ¿ÑĢÐ¸Ð¾Ð±": 3150,
      "Ġpart": 3151,
      "ĠÐ¤ÐµÐ´ÐµÑĢÐ°": 3152,
      "ĠÐ¿Ð°Ð»ÑĮ": 3153,
      "ÑĢÐ¸Ðº": 3154,
      "ÑĮÑĤÐµ": 3155,
      "ÑĦÐ¸ÐºÐ°": 3156,
      "Ð¾Ð²Ð°ÑĤÐµÐ»ÑĮ": 3157,
      "ĠÐ½Ð°Ð²ÐµÑĢ": 3158,
      "ÑīÐµÐ¹": 3159,
      "ĠÐ¼ÐµÑĩ": 3160,
      "ĠÐ¿Ð¾Ð¼Ð¾Ð³": 3161,
      "ĠÐ¿ÑĢÐ°Ð²Ð°": 3162,
      "ĠÑıÐ½": 3163,
      "ĠÐ½Ð°Ð»Ð¸": 3164,
      "ang": 3165,
      "ĠÐ±ÑĥÐ´ÑĤÐ¾": 3166,
      "ĠÐ¿Ð¾Ð»Ð½Ð¾ÑģÑĤÑĮÑİ": 3167,
      "ĠÐ±Ð¾Ð»ÑĮÑĪÐ¾Ð¹": 3168,
      "Ġdis": 3169,
      "ĠÐ¿ÑĢÐµÐ´Ð»Ð°Ð³Ð°": 3170,
      "ĠÑĢÐ°Ð·Ð²Ð¸ÑĤÐ¸Ñı": 3171,
      "ĠÐ±Ð°Ð»": 3172,
      "ĠÑģÑĩÐµÑĤ": 3173,
      "Ð»ÐµÐ³": 3174,
      "ÑĢÑĭÐ¹": 3175,
      "ĠÐ¿ÑıÑĤ": 3176,
      "ĠÑĩÐ¸ÑģÐ»Ðµ": 3177,
      "ĠÐĲÐ²": 3178,
      "ĠÐ¸ÑģÑĤÐ¾ÑĢÐ¸Ð¸": 3179,
      "ĠÐ²Ð¾Ð¹Ð½Ñĭ": 3180,
      "ĠÑģÐ¼Ð¾Ð¶": 3181,
      "ÑĨÐ¸Ð¿": 3182,
      "ĠÐ¼ÐµÑĤÐ¾Ð´": 3183,
      "ĠÐ¿ÑĢÐ¸Ð´": 3184,
      "Ġso": 3185,
      "ĠÑıÑĢ": 3186,
      "Ð¾ÑĢÑı": 3187,
      "ays": 3188,
      "ĠÐ¿ÑĢÐ¾ÑħÐ¾Ð´": 3189,
      "Ð½Ð¸ÐºÑĥ": 3190,
      "ÑģÑĤÐ¾Ðº": 3191,
      "ĠÐ¿ÑĢÐ°Ð²Ð¾": 3192,
      "ĠÑģÐ°Ð¼Ð¾Ð³Ð¾": 3193,
      "ĠÐ¿ÑĢÐ¸Ð½Ð¸Ð¼Ð°": 3194,
      "ĠÐ²ÑģÐµÐ¹": 3195,
      "II": 3196,
      "Ð»ÐµÐ½Ð½Ð¾": 3197,
      "ĠÐºÐ¾Ð»Ð¸ÑĩÐµÑģÑĤÐ²Ð¾": 3198,
      "ĠIt": 3199,
      "Ð½ÐµÐ½Ð¸Ðµ": 3200,
      "ĠÐ·Ð°ÑīÐ¸ÑĤ": 3201,
      "Ġother": 3202,
      "ĠÐºÐ°ÑĩÐµÑģÑĤÐ²Ðµ": 3203,
      "Ð»ÐµÐ½Ð¸ÐµÐ¼": 3204,
      "Ġ194": 3205,
      "ase": 3206,
      "ÑģÐºÐ¾Ð»ÑĮÐºÑĥ": 3207,
      "ÑģÐ¾Ð¼": 3208,
      "ĠÑĤÑĢÐµÐ±Ñĥ": 3209,
      "ĠÐ¼Ð¾Ð½": 3210,
      "ĠÐĴÐ»Ð°Ð´Ð¸Ð¼Ð¸": 3211,
      "ĠÑģÐ°Ð¼ÑĭÑħ": 3212,
      "Ġqu": 3213,
      "Ð¾Ð·Ð°": 3214,
      "ĠÐºÑĢÑĥ": 3215,
      "vel": 3216,
      "ĠÐºÐ¾Ð¿": 3217,
      "ĠÐ²Ð»Ð°ÑģÑĤÐ¸": 3218,
      "ĠÐ¾ÑĤÐ½Ð¾ÑĪÐµÐ½Ð¸Ñı": 3219,
      "ĠÐ²ÑĭÑĪÐµ": 3220,
      "Ð°Ð½ÑĤÐ°": 3221,
      "ĠÐ´ÐµÑĢÐ¶": 3222,
      "ĠÑĩÐ°ÑģÐ¾Ð²": 3223,
      "ĠÐļÐ¾": 3224,
      "ĠÐ·Ð°Ð»": 3225,
      "int": 3226,
      "ĠÑĢÐ°ÑģÑģÐºÐ°Ð·": 3227,
      "ec": 3228,
      "ĠÐ»ÐµÐ³ÐºÐ¾": 3229,
      "ÑĨÐ°Ð¼Ð¸": 3230,
      "ĠÐ½Ð°Ð¿Ð¸Ñģ": 3231,
      "ĠÐłÐ¾ÑģÑģÐ¸Ð¹": 3232,
      "ĠÐ¾ÑĤÐ²Ðµ": 3233,
      "Ð¢Ðŀ": 3234,
      "fter": 3235,
      "ĠÐ¼Ð½Ð¾Ð³Ð¸Ðµ": 3236,
      "ĠÑģÐ¾Ð³Ð»Ð°": 3237,
      "Ð½Ðº": 3238,
      "Ġâ": 3239,
      "!!!": 3240,
      "ĠÐ²ÑĤÐ¾ÑĢÐ¾Ð¹": 3241,
      "irst": 3242,
      "Ġher": 3243,
      "ĠÑģÐ°Ð¹ÑĤÐµ": 3244,
      "ĠÑģÐ²Ðµ": 3245,
      "ÐµÐ»Ñİ": 3246,
      "Ġnew": 3247,
      "ĠÑĤÐµÑĢÑĢÐ¸ÑĤÐ¾ÑĢÐ¸Ð¸": 3248,
      "wo": 3249,
      "ount": 3250,
      "Ð¸Ð½Ð³": 3251,
      "110": 3252,
      "ÐµÐ¼ÑģÑı": 3253,
      "ĠÑģÐ½Ðµ": 3254,
      "ĠÐ¿ÑĢÐ¸Ð·": 3255,
      "ĠÑģÐ»ÑĥÑĩÐ°Ð¹": 3256,
      "Ð²Ð¸Ñĩ": 3257,
      "ĠÐ»ÐµÑģ": 3258,
      "ĠÑĢÐ°Ð·Ð´ÐµÐ»": 3259,
      "ĠÐ·Ð°Ð´": 3260,
      "ÑĢÐ¸ÑģÑĤÐ¸": 3261,
      "ĠÑĤÐ°Ð½": 3262,
      "Ð½Ð°Ð²": 3263,
      "ÑģÐºÑĥ": 3264,
      "ĠÐ¾ÑĤÐ¼ÐµÑĤ": 3265,
      "Ġ2014": 3266,
      "ĠÑģÐ¾ÑħÑĢÐ°": 3267,
      "Ġsc": 3268,
      "ĠÐ¡Ð¸": 3269,
      "ĠÑĢÐ°Ð·ÑĢÐµ": 3270,
      "ĠÐ¥Ð¾ÑĤ": 3271,
      "ĠÑĤÐ²Ð¾ÑĢ": 3272,
      "ĠÐ¿ÐµÑĢÐµÐ´Ð°": 3273,
      "ÑĥÑĪÐºÐ¸": 3274,
      "ÑĮÐ¼Ð¸": 3275,
      "Ð»ÑıÑĤÑĮ": 3276,
      "Ð°Ð»ÑĮÐ½ÑĭÐ¼": 3277,
      "ĠÐºÐ°Ð¶ÐµÑĤÑģÑı": 3278,
      "ÑģÐºÐ¾Ð¼Ñĥ": 3279,
      "ition": 3280,
      "Ð½ÐµÐ½": 3281,
      "ĠÐ¿ÑĢÐ¸ÑĪ": 3282,
      "ĠÐ¶Ð¸ÑĤÑĮ": 3283,
      "ĠÐ»Ð¸ÑĨÐ¾": 3284,
      "ĠÐ¿Ð¾Ð½": 3285,
      "Ġover": 3286,
      "ĠÑĥÑĤÐ²ÐµÑĢ": 3287,
      "ÑĢÑĭÐ²": 3288,
      "ĠÐ´ÑĥÑĪ": 3289,
      "ĠÐ³Ð»Ð°Ð·": 3290,
      "ĠÐ³Ð¾ÑĤ": 3291,
      "13": 3292,
      "ĠÑģÑĬ": 3293,
      "ĠÐºÐ°Ð±": 3294,
      "ĠÐ¿Ð¾ÑģÑĤ": 3295,
      "ĠÐ±ÑĥÐº": 3296,
      "ÑĪÐ¸Ð¼": 3297,
      "ĠÑĢÐ°Ð±Ð¾ÑĤÐµ": 3298,
      "ĠÐ²Ð¾ÐºÑĢÑĥÐ³": 3299,
      "ĠÐ¿Ð¾Ð·Ð´": 3300,
      "ÑĢÐµÑĤÐ°": 3301,
      "ĠÐ½Ð¸Ð¼Ð¸": 3302,
      "ÐµÐ¶": 3303,
      "ĠÑģÐ¿ÑĢÐ¾ÑģÐ¸Ð»": 3304,
      "1080": 3305,
      "Ð¸Ð»Ð°ÑģÑĮ": 3306,
      "ĠÐ¿Ð¾Ð»Ð¾Ð²": 3307,
      "ĠÐ²ÑĭÐ±Ð¾ÑĢ": 3308,
      "ory": 3309,
      "Ð½Ð°Ð»Ð°": 3310,
      "Ð¾Ð²Ð°ÑĤ": 3311,
      "Ġno": 3312,
      "Ġ50": 3313,
      "ĠÐ³Ð¾Ð´Ñĭ": 3314,
      "ĠÐ´ÐµÑıÑĤÐµÐ»ÑĮÐ½Ð¾ÑģÑĤÐ¸": 3315,
      "ĠÐ²ÑĭÐ±ÑĢÐ°": 3316,
      "Ġpr": 3317,
      "ĠÐ²ÑĭÑģÑĤÑĥÐ¿": 3318,
      "Ð°ÑĤÐ°": 3319,
      "ĠÑĢÑĥÐºÑĥ": 3320,
      "Ð¼Ð¾ÑĤÑĢÐµÐ»": 3321,
      "ĠÑĢÐµÑĪÐ¸": 3322,
      "ÐµÐ²ÐµÑĢ": 3323,
      "ÑĨÐµÐ¿": 3324,
      "ĠÐ¿ÑĢÐ¸Ð²Ñĭ": 3325,
      "ĠÐºÑĢÑĥÐ³": 3326,
      "ÑģÑĤÐ²ÑĥÑİÑĤ": 3327,
      "port": 3328,
      "ĠÐĵÐµÑĢ": 3329,
      "Ð¾Ð·Ð¸": 3330,
      "ĠÐ¢Ð¾": 3331,
      "ĠÐ´Ð¾ÐºÑĥÐ¼ÐµÐ½": 3332,
      "ĠÐ²Ð¿Ð¾Ð»Ð½Ðµ": 3333,
      "ĠÐ»ÑİÐ±Ð¾Ð¹": 3334,
      "ĠÐ¿ÑĢÐ¾Ð²ÐµÑĢ": 3335,
      "ĠÐ¿Ð¾Ð»ÑĥÑĩÐ¸ÑĤÑĮ": 3336,
      "ÑıÐ»Ð¸": 3337,
      "ĠÑģÑĢÐ°Ð²": 3338,
      "ĠÑģÑĤÑĥÐ´": 3339,
      "ĠÐ²Ð¾Ð¿ÑĢÐ¾ÑģÑĭ": 3340,
      "ĠÑģÐ¿Ð¾ÐºÐ¾Ð¹": 3341,
      "ÑİÑīÐ°Ñı": 3342,
      "ÐµÑĢÐ±ÑĥÑĢ": 3343,
      "ĠÐ¿Ð¾ÐºÐ°Ð·Ð°": 3344,
      "ĠÐ¼Ð½Ð¾Ð¹": 3345,
      "Ð¿Ð°ÑĢÐ°": 3346,
      "ĠÑĩÑĥÐ´": 3347,
      "lic": 3348,
      "ĠÐ¾Ð´Ð½Ð°ÐºÐ¾": 3349,
      "Ġpe": 3350,
      "ĠÐ¼ÐµÐ»": 3351,
      "ĠÐ´Ð¾Ð²Ð¾Ð»ÑĮÐ½Ð¾": 3352,
      "ĠÐ½Ð°Ð¹": 3353,
      "ĠÑģÐ»Ð¾Ð²Ð½Ð¾": 3354,
      "Ġthere": 3355,
      "ĠÐ°ÑĢÐ¼Ð¸": 3356,
      "ĠÐ²ÑģÐ¿Ð¾Ð¼": 3357,
      "ĠÐ½Ð°ÑĩÐ°Ð»": 3358,
      "Ð²Ð°Ð¹ÑĤÐµ": 3359,
      "ĠÐ´ÐµÑģÑı": 3360,
      "ÑĥÐ¼Ð°Ð»": 3361,
      "ÑĩÐµÑģÐºÐ°Ñı": 3362,
      "ÑĤÐ²ÐµÑĢ": 3363,
      "ĠÐ¾ÑĪÐ¸Ð±": 3364,
      "ĠÑģÐ°Ð¼ÑĭÐ¹": 3365,
      "ÑĩÐµÐ±": 3366,
      "Ġ=": 3367,
      "ÑĢÐ¾Ð¶": 3368,
      "ĠÐ½Ð°ÑĪÐ¸Ñħ": 3369,
      "Ð¾ÑĢÐ¾Ð¶": 3370,
      "Ġ/": 3371,
      "ĠÐĴÐ°ÑĪ": 3372,
      "ĠÐ½Ð°ÑħÐ¾Ð´Ð¸ÑĤÑģÑı": 3373,
      "ĠÐ²Ð·Ð³Ð»ÑıÐ´": 3374,
      "ĠÐ¿Ð¾Ð»ÐµÐ·": 3375,
      "Ð»Ð¸Ð²": 3376,
      "Ð¾ÑĢÑĥÐ¶": 3377,
      "ĠÑĤÐµÑĩÐµÐ½Ð¸Ðµ": 3378,
      "Ð¿Ð¾Ñĩ": 3379,
      "Ð´ÑĥÑĤ": 3380,
      "Ð½Ð°ÑĩÐ°Ð»Ð°": 3381,
      "ĠÐļÐ°ÑĢ": 3382,
      "ĠÑĢÐ°Ð±Ð¾ÑĤÐ°ÑĤÑĮ": 3383,
      "ĠÐ´ÐµÐºÐ°": 3384,
      "ĠÐ¿ÑĢÐµÐ´ÑģÑĤÐ°Ð²Ð»Ñı": 3385,
      "ĠÐ½Ð°Ð·Ð½Ð°": 3386,
      "ĠÐĲÐ½Ð´": 3387,
      "ĠÑĥÐº": 3388,
      "ÐºÐ¾Ð¼ÐµÐ½": 3389,
      "ark": 3390,
      "ÐºÐ°ÑĢ": 3391,
      "Ð¸Ð±Ð¾Ð»ÐµÐµ": 3392,
      "ĠÐ¾Ð±Ð¾ÑĢÑĥÐ´": 3393,
      "ĠÐ¼Ð¸ÑĢÐ¾Ð²": 3394,
      "ĠÑģÐ°Ð¼Ð°": 3395,
      "ĠÐ³Ð¾Ð²Ð¾ÑĢÐ¸ÑĤÑĮ": 3396,
      "ÑģÐµÐ´Ð°": 3397,
      "Ð½Ð¾Ðº": 3398,
      "ĠÐ¿Ð¾Ð¶Ð°Ð»ÑĥÐ¹": 3399,
      "ÑīÐ¸Ð¹": 3400,
      "Ð²Ð»ÐµÐºÐ°": 3401,
      "ĠÐ¸Ð½ÑĦÐ¾ÑĢÐ¼Ð°ÑĨÐ¸Ð¸": 3402,
      "ÑĩÐ½Ð°Ñı": 3403,
      "ĠÐ½Ð°ÑĨÐ¸Ð¾Ð½": 3404,
      "Ð¸Ñİ": 3405,
      "ne": 3406,
      "Ð½Ð¸ÑĨÐµ": 3407,
      "ĠÐ¼Ð¾ÐµÐ¹": 3408,
      "Ð¾Ð»Ð¾ÑĤ": 3409,
      "ors": 3410,
      "ĠÐ¾ÑĢÐ³Ð°Ð½Ð¸Ð·Ð°ÑĨÐ¸Ð¸": 3411,
      "ĠÐ±Ñİ": 3412,
      "tem": 3413,
      "Ð½Ð¸Ð½": 3414,
      "Ð½ÑĮÑĪÐµ": 3415,
      "ÑĩÐ°Ñı": 3416,
      "ĠÐļÑĢÐ¾Ð¼Ðµ": 3417,
      "Ð±Ð¾ÑĢÐ°": 3418,
      "ĠÑģÑĤÑĢÐ°ÑĪ": 3419,
      "ĠÐ¿ÑĭÑĤÐ°": 3420,
      "ÑģÐ¸ÑĤÑĮ": 3421,
      "ĠÑįÑĦÑĦÐµÐºÑĤÐ¸Ð²": 3422,
      "ĠÐ¾ÑĤÐ½Ð¾Ñģ": 3423,
      "Ð¾Ð±ÑĢÐ°": 3424,
      "ÑĤÐ¸Ð¼": 3425,
      "Ð¹Ð½": 3426,
      "ĠÐ°Ð´Ð¼Ð¸Ð½Ð¸ÑģÑĤÑĢÐ°": 3427,
      "ÑĥÐ»ÑıÑĢ": 3428,
      "ĠÐĺÐ»Ð¸": 3429,
      "Ð¸Ð¿": 3430,
      "ĠÐ¼ÐµÐ½ÑĮÑĪÐµ": 3431,
      "Ð°ÑĤÐ¸": 3432,
      "ĠÑĤÑĢÐ°Ð½ÑģÐ¿": 3433,
      "ĠÐ½Ð¾Ð²ÑĭÐ¹": 3434,
      "ĠÐºÑĢÐ¾Ð¼Ðµ": 3435,
      "ĠÐĴÐµÐ»Ð¸": 3436,
      "Ġlike": 3437,
      "ĠÐ¼Ð°Ð»ÑĮ": 3438,
      "Ð¾ÑĢÑĥ": 3439,
      "ĠÐ½Ð¾Ð²Ð¾": 3440,
      "ĠÐ¿ÑĢÐ¸Ð²": 3441,
      "Ð¸ÐµÐ¼": 3442,
      "ÑĩÐ°Ð¹": 3443,
      "ĠÐ·Ð½Ð°ÐµÑĤ": 3444,
      "ĠÑĤÑĢÐ°Ð´Ð¸": 3445,
      "ĠÐ¿ÑĢÐ¾Ð¸Ð·Ð¾": 3446,
      "Ð´ÑĥÐ¼": 3447,
      "ĠÐ²Ð¾Ð²": 3448,
      "ĠÑĨÐµÐ»ÑĮ": 3449,
      "ÐµÐ²Ð°": 3450,
      "ÑĢÐ°ÑĪÐ¸": 3451,
      "oll": 3452,
      "ĠÐ½ÐµÐ²Ð¾Ð·": 3453,
      "Ð®": 3454,
      "ĠÐ¾Ð¿ÑıÑĤÑĮ": 3455,
      "Ð¼Ð¸ÑĤ": 3456,
      "ĠÐ¢ÐµÐ¿ÐµÑĢÑĮ": 3457,
      "ĠÐ·Ð°Ð¿Ð¸": 3458,
      "Ð¾Ð¹ÑĤÐ¸": 3459,
      "ĠÐ·Ð°ÐºÐ»Ñİ": 3460,
      "ĠÑĢÐ°Ð½ÑĮÑĪÐµ": 3461,
      "ÑĤÐ¾Ðº": 3462,
      "ĠÐ´Ð»Ð¸": 3463,
      "ÑĢÐ¾ÑģÐ°": 3464,
      "Ð»Ð¾Ð¿": 3465,
      "fer": 3466,
      "ĠÑĤÐµÐ»ÐµÑĦÐ¾Ð½": 3467,
      "25": 3468,
      "ÑģÐ¾Ð»": 3469,
      "ĠÑģÐ²Ð¾Ð¸Ð¼Ð¸": 3470,
      "Ð²ÑĪÐµÐ³Ð¾": 3471,
      "ĠÐ·Ð°ÐºÐ°Ð·": 3472,
      "ĠÐ½ÐµÐ¸Ð·": 3473,
      "ĠÐ½Ð¾Ð²ÑĭÐµ": 3474,
      "ĠÐ´Ð¾ÑĢÐ¾Ð³": 3475,
      "ĠÑģÐµÑĢÑĮÐµÐ·": 3476,
      "ĠÑĢÐµÑĪÐµÐ½Ð¸Ðµ": 3477,
      "ÑĥÑĪÐºÐ°": 3478,
      "ĠÐĿÐ¾Ð²": 3479,
      "ÐµÐ½ÑĤÐ¸": 3480,
      "ÐµÐ´Ñĥ": 3481,
      "ÑĪÐ°Ñı": 3482,
      "ÑĢÐµÐ¼ÐµÐ½Ð½Ð¾": 3483,
      "ĠÐ¿ÑĢÐ¾Ð¸ÑģÑħÐ¾Ð´Ð¸ÑĤ": 3484,
      "ÑģÑĤÐ½Ð¾": 3485,
      "ÑĢÐ¸Ð³Ð¸Ð½": 3486,
      "Ð·ÑĭÐ²Ð°ÑĤÑĮ": 3487,
      "ĠÐ»ÐµÐ¶": 3488,
      "ĠÐ¾ÑĤÑģÑĥÑĤ": 3489,
      "Ġsome": 3490,
      "Ġwhen": 3491,
      "ĠÑĢÐ°Ð´Ð¾": 3492,
      "ĠÑģÐ¸Ð»ÑĮÐ½Ð¾": 3493,
      "ĠÐ´ÐµÐ¹ÑģÑĤÐ²Ð¸Ñı": 3494,
      "ĠÐľÐ¾ÑģÐºÐ²Ðµ": 3495,
      "Ð³Ð°Ð½": 3496,
      "ÑĪÐ°ÐµÑĤ": 3497,
      "Ġthan": 3498,
      "ÑĩÐ¸ÑģÐ»": 3499,
      "Ð½Ð¾Ð³": 3500,
      "Ð·Ð¸Ð¸": 3501,
      "ĠÐ¿ÑĢÐ°Ð²Ð¸ÑĤÐµÐ»ÑĮ": 3502,
      "ĠÐ¾Ð·Ð½Ð°": 3503,
      "Ð¶ÐµÐ½Ð¸Ðµ": 3504,
      "ĠÐ¿ÑĢÐ°ÐºÑĤÐ¸ÑĩÐµÑģÐºÐ¸": 3505,
      "ĠÐ»Ð¸ÑĨÐ°": 3506,
      "ĠÐ²Ð¾Ð·Ð½Ð¸Ðº": 3507,
      "ĠÑģÐ¾Ð¼": 3508,
      "ĠÑħÑĢÐ°": 3509,
      "Ġtime": 3510,
      "ĠÐ³ÑĢÐµ": 3511,
      "Ġthem": 3512,
      "erv": 3513,
      "we": 3514,
      "Ð´ÑĨÐ°ÑĤÑĮ": 3515,
      "Ġ)": 3516,
      "In": 3517,
      "ĠÑī": 3518,
      "ĠÐ½Ð¾Ð³": 3519,
      "Ð¾Ð²Ð°Ð»Ð°": 3520,
      "ents": 3521,
      "hed": 3522,
      "ph": 3523,
      "ĠÑĢÐµÐºÐ»Ð°": 3524,
      "ĠÐºÐ°Ð¿Ð¸ÑĤ": 3525,
      "ĠÑģÑĢÐµÐ´ÑģÑĤÐ²Ð°": 3526,
      "ĠÐ±Ð¾Ð»ÑĮÑĪÐ¸Ð½": 3527,
      "ni": 3528,
      "ĠÑıÐ½Ð²Ð°": 3529,
      "ĠÐ¿Ð¾Ð»Ñĥ": 3530,
      "Ð¡Ð¢": 3531,
      "ĠÐ¸Ð·Ð¼ÐµÐ½Ð¸": 3532,
      "Ð°Ð½Ð½ÑĭÐµ": 3533,
      "ĠÐ¿Ð¾ÑģÑĤÑĢÐ¾": 3534,
      "ĠÑĤÐ¾Ð¹": 3535,
      "ĠÐ¿Ð¾Ð¿ÑĭÑĤ": 3536,
      "ters": 3537,
      "ÐŁÑĢÐ¾": 3538,
      "ÐŁÐ¾ÑĩÐµÐ¼Ñĥ": 3539,
      "Ð°Ð»Ñĭ": 3540,
      "ĠÐ´Ð¾ÑģÑĤÑĥÐ¿": 3541,
      "Ð½ÑĥÑĤ": 3542,
      "ĠÑĢÐ°ÑģÐ¿ÑĢÐ¾": 3543,
      "1090": 3544,
      "ÐĴÐ¾ÑĤ": 3545,
      "ĠÐ¸ÑģÐ¿Ð¾Ð»ÑĮÐ·Ð¾Ð²Ð°ÑĤÑĮ": 3546,
      "ĠÐ¿ÑĢÐµÐ²ÑĢÐ°": 3547,
      "Ð¾ÑĩÑĮ": 3548,
      "Ġkn": 3549,
      "Ð¾ÑģÑĤÐ¸": 3550,
      "ĠÑģÑĥÐ¿": 3551,
      "Ġ22": 3552,
      "ade": 3553,
      "ĠÐ¾Ð±ÑĭÑĩÐ½Ð¾": 3554,
      "ates": 3555,
      "ĠÑĤÑĥÐ´Ð°": 3556,
      "Ð¶ÐµÑĤ": 3557,
      "ĠÐ¢Ð°Ð¼": 3558,
      "Ð´Ð°ÑİÑĤ": 3559,
      "Ñĸ": 3560,
      "ĠÐ¸ÑģÑĤÐ¾Ñĩ": 3561,
      "Ð»ÐµÑĢ": 3562,
      "ople": 3563,
      "Ġla": 3564,
      "tern": 3565,
      "ĠÐ¾ÑĤÐ´Ñĭ": 3566,
      "Ð½Ð¸ÐºÐ°Ð¼Ð¸": 3567,
      "aus": 3568,
      "ÑıÐ²Ð»Ñı": 3569,
      "ĠÑģÐ»ÑĥÑĪ": 3570,
      "ÑģÑĤÐ²ÐµÐ½Ð½ÑĭÐµ": 3571,
      "ĠÐ½Ð¸Ð·": 3572,
      "Ð½ÑĥÑĤÑĮÑģÑı": 3573,
      "Ð²Ð¸Ð´Ñĥ": 3574,
      "ĠÐºÐ¾ÑĤÐ¾ÑĢÑĭÐ¼": 3575,
      "ÑīÐ°Ñı": 3576,
      "ÐµÐ½Ð½ÑĭÐ¼": 3577,
      "ĠÐ·Ð¸Ð¼": 3578,
      "ĠÐ·ÑĥÐ±": 3579,
      "Ð²ÑĭÐ¼": 3580,
      "Ġfirst": 3581,
      "ĠÐ¿Ð¾Ð»Ð¸ÑĤÐ¸ÑĩÐµÑģÐº": 3582,
      "ÐłÐŀ": 3583,
      "ings": 3584,
      "ĠÐ²Ð¸Ð½": 3585,
      "ick": 3586,
      "ĠÐ½Ð°ÑĪÐµÐ³Ð¾": 3587,
      "ĠÐ¾ÐºÑĢÑĥ": 3588,
      "ÐĿÐµÑĤ": 3589,
      "ĠÐ¾Ð´Ð½Ð¸Ð¼": 3590,
      "ons": 3591,
      "ÐľÑĭ": 3592,
      "Ð¿ÑĢÐ¸Ð¼ÐµÑĢ": 3593,
      "ĠÐ¼ÑĭÑģÐ»Ð¸": 3594,
      "ĠÐ±ÑĥÐ¼Ð°": 3595,
      "ÑıÐ»Ð°": 3596,
      "Ð¡Ð¡Ðł": 3597,
      "ĠÐ´Ð¸ÑĢÐµÐº": 3598,
      "Ð¸ÑĤÐµÑģÑĮ": 3599,
      "ĠÐĴÐµÐ´ÑĮ": 3600,
      "Ġ198": 3601,
      "ĠÐ¼ÐµÐ´Ð¸ÑĨÐ¸": 3602,
      "ÑĮÐµÑĢ": 3603,
      "ÑĩÐ½ÑĭÐ¼": 3604,
      "ÑĢÐ¸Ð·": 3605,
      "ÑĦÐ¾ÑĢÐ¼": 3606,
      "ĠÐĴÐµÑĢ": 3607,
      "ĠÐ¼Ð¾Ð³Ð»Ð¸": 3608,
      "Ġro": 3609,
      "ĠÐ¾ÑĤÐº": 3610,
      "ĠÐ¿Ð¾ÑģÑĤÐ¾ÑıÐ½Ð½Ð¾": 3611,
      "ĠÐ¼Ð¾Ñī": 3612,
      "Ġgr": 3613,
      "ĠÑģÐ°Ð¼Ð¾Ð¹": 3614,
      "ĠÐ¼Ð¾Ñı": 3615,
      "amp": 3616,
      "Ġinto": 3617,
      "ĠÑģÐ²Ð¾ÐµÐ¼": 3618,
      "ÑĢÐµÐ´Ð¸ÑĤ": 3619,
      "ĠÑĥÐ½Ð¸Ð²ÐµÑĢÑģ": 3620,
      "ĠÐ¸Ð´ÐµÑĤ": 3621,
      "vers": 3622,
      "Ġ24": 3623,
      "ÑĩÐ½Ð¾Ðµ": 3624,
      "Ð²Ð¾Ð»Ñİ": 3625,
      "ĠÑģÐºÑĢÑĭ": 3626,
      "Ð½Ð´": 3627,
      "ÑģÐ¾ÑĢ": 3628,
      "1085": 3629,
      "ĠÐ½ÐµÐ´ÐµÐ»": 3630,
      "Ð¶Ð½Ð¾": 3631,
      "ÐĿÐĺ": 3632,
      "ĠÑĥÑħÐ¾Ð´": 3633,
      "form": 3634,
      "ÑīÐ¸Ñħ": 3635,
      "ĠÐ¾ÑģÐ½Ð¾Ð²Ð°": 3636,
      "Ð¢Ñĭ": 3637,
      "ĠÐ¿ÑĥÑĤÐ¸": 3638,
      "Ð²Ð°Ð»Ð¸ÑģÑĮ": 3639,
      "ĠÑĦÐµÐ²": 3640,
      "ĠÐ´Ð¾Ð±Ð°": 3641,
      "Ð·Ð¸Ð½": 3642,
      "ĠÑģÑĤÐµÐ½": 3643,
      "ĠÐ¿Ð¾ÑĢÑĤ": 3644,
      "ÑĢÐ¾Ð³": 3645,
      "ĠÑįÐ»ÐµÐ¼": 3646,
      "ĠĠĠ": 3647,
      "ÑĪÐ¸Ð¼Ð¸": 3648,
      "ĠÐ¿Ð¾Ð´ÑĤÐ²ÐµÑĢ": 3649,
      "ĠÑģÐ¾ÑĢ": 3650,
      "ĠÑģÑĥÐ±": 3651,
      "ĠÐ¿ÑĢÐµÐºÑĢÐ°Ñģ": 3652,
      "ÐµÑģÑĤÑĮ": 3653,
      "ĠÐ¿ÑĢÐ¾Ð±Ð»ÐµÐ¼Ñĭ": 3654,
      "ÑħÑĢÐ°Ð½": 3655,
      "ĠÐ²ÑĭÐ·": 3656,
      "ĠÐ¿Ð¾Ð²ÐµÑĢÑħ": 3657,
      "ÑīÐµÑģÑĤÐ²Ð°": 3658,
      "ĠÑģÑĤÐµÐ¿": 3659,
      "ÑİÑīÐµÐ³Ð¾": 3660,
      "ĠÑĢÐµÐ±ÐµÐ½ÐºÐ°": 3661,
      "Ġif": 3662,
      "ĠÐ¿ÑĢÐµÐ´Ð¿Ð¾Ð»": 3663,
      "ĠÐ¿Ð°ÑĤ": 3664,
      "ĠÑĢÐ°Ð±": 3665,
      "ÑģÑĤÐ¸Ð½": 3666,
      "ĠÑĢÐµÐ·ÑĥÐ»ÑĮÑĤÐ°ÑĤÐµ": 3667,
      "ĠÑĩÐ»ÐµÐ½": 3668,
      "ĠÐ²Ð·Ð°": 3669,
      "ÐµÐ±": 3670,
      "ĠÐ¼Ð¾Ð¸": 3671,
      "ÐµÐ²Ð¾Ð¹": 3672,
      "ĠÐ¾Ð´Ð½Ñĥ": 3673,
      "ĠÐ´ÑĢÐ°": 3674,
      "200": 3675,
      "ĠÐ´ÐµÐ½ÐµÐ³": 3676,
      "Ġwork": 3677,
      "ĠÑĢÐµÐºÐ¾Ð¼ÐµÐ½": 3678,
      "ĠÑħÐ¾ÑĤÐµÐ»": 3679,
      "Ð±Ð¾Ð¹": 3680,
      "ĠÐºÐ¾Ð¼Ð¿Ð»ÐµÐº": 3681,
      "ĠÐºÐ¾Ð½ÐºÑĥÑĢ": 3682,
      "ĠÐ¿Ð¾Ð¼Ð¾ÑīÐ¸": 3683,
      "ĠÐ³Ð¾ÑĢÐ¾Ð´Ðµ": 3684,
      "ĠÐ¿ÑĢÐ¸ÑĢÐ¾Ð´": 3685,
      "ĠÑħÐ¾Ð·ÑıÐ¹": 3686,
      "Ð¿Ð¾Ð¼": 3687,
      "ÑĩÐµÑģÐºÐ¸": 3688,
      "Ð¾Ð½ÑĮ": 3689,
      "ÑĤÐ¸Ðº": 3690,
      "ĠÐ¸Ð½Ð¾Ð³Ð´Ð°": 3691,
      "ĠÐ½Ð¾Ð²ÑĭÑħ": 3692,
      "Ð¾Ð¿ÑĢÐ¸Ñı": 3693,
      "ĠÑģÐ¿Ñĥ": 3694,
      "Ð¼Ð¾Ð²": 3695,
      "ÑĤÐ¸ÐºÐ¸": 3696,
      "ÐŁÐ¾Ñģ": 3697,
      "ĠÐ±Ð¸": 3698,
      "Ð°ÐºÐ¸": 3699,
      "ĠÑĢÐ°Ð¼": 3700,
      "ĠÐºÐ¾Ð¼Ð¿Ð°Ð½Ð¸Ñı": 3701,
      "ĠÑģÐ°Ð¹ÑĤÐ°": 3702,
      "Ġ00": 3703,
      "ĠÑģÑĤÐ¾Ð»Ð¸": 3704,
      "ÐĿÐŀ": 3705,
      "ĠÐ´Ð²Ð¾": 3706,
      "ÐµÐ³": 3707,
      "ÑģÑİ": 3708,
      "ĠÐ²Ð»Ð¸Ñı": 3709,
      "ĠÐºÐ¾Ð¼Ð¼ÐµÐ½ÑĤÐ°": 3710,
      "ÑĮÑİÑĤ": 3711,
      "ĠÐ¾ÑĦÐ¸ÑĨÐ¸Ð°Ð»ÑĮ": 3712,
      "ĠÐ½ÐµÐ·Ð°": 3713,
      "ĠÐ¼Ð½Ð¾Ð³Ð¸Ñħ": 3714,
      "ĠÐ¡Ð¿": 3715,
      "Ð»ÐµÐ½Ð¸Ð¹": 3716,
      "ĠÐ£ÐºÑĢÐ°Ð¸Ð½Ñĭ": 3717,
      "ĠÐ´Ð°Ð²": 3718,
      "ĠÐ´Ð²ÐµÑĢÑĮ": 3719,
      "Ð±ÑĢÐµ": 3720,
      "ĠÐºÐ¾ÑĢÐ°Ð±": 3721,
      "ĠÐļÑĢÐ°Ñģ": 3722,
      "Ġrec": 3723,
      "ĠÑģÐµÐ½ÑĤ": 3724,
      "ĠÑĦÐ¸": 3725,
      "ĠÐľÐ¸Ñħ": 3726,
      "ÑİÐ·": 3727,
      "ĠÐ¸Ð¼Ñı": 3728,
      "ÐºÐ¾Ð²Ð°": 3729,
      "Ð¿ÑĥÑĤÐ°": 3730,
      "ĠÐºÐ°Ð¿": 3731,
      "ĠÐ¶ÐµÐ»ÐµÐ·": 3732,
      "Ð°Ð½Ð½ÑĭÐ¹": 3733,
      "ĠÐ´ÐµÑĤÐ¸": 3734,
      "Ð²Ð°ÑĢÐ¸": 3735,
      "ĠÐ¶ÐµÐ½ÑīÐ¸Ð½Ð°": 3736,
      ");": 3737,
      "ĠÐ¿Ð¾Ð¿Ð°": 3738,
      "Ġany": 3739,
      "ĠÐľÐ¾Ð¶ÐµÑĤ": 3740,
      "ÑĨÐµÐ¼": 3741,
      "ĠÑģÐ»Ð¾Ð²Ð¾": 3742,
      "ĠÐ¿ÑĢÐ¾ÑĤÑı": 3743,
      "ĠÑĥÐ¿ÑĢÐ°Ð²Ð»ÐµÐ½Ð¸Ñı": 3744,
      "ĠÑĪÑĤÐ°": 3745,
      "ÑĨÐµÐ½Ð¸": 3746,
      "Ð´Ð¸Ð½Ð°": 3747,
      "ĠÐ³ÐµÐ½ÐµÑĢÐ°": 3748,
      "ĠÐ½Ñĭ": 3749,
      "ĠÐ¾Ð¿ÑĭÑĤ": 3750,
      "ĠÐ²ÑĭÐ¿": 3751,
      "ĠÐ¾ÑĤÐ²ÐµÑĤÐ¸Ð»": 3752,
      "ĠÑıÐ²Ð»ÑıÑİÑĤÑģÑı": 3753,
      "ĠÑĢÐµÐ¶Ð¸Ð¼": 3754,
      "ĠÐ¿ÑĢÐ°Ð²Ð´Ð°": 3755,
      "ÐºÑĥÑİ": 3756,
      "ĠÐļÑĤÐ¾": 3757,
      "ĠÐ¾Ð·": 3758,
      "ĠÐ´ÐµÐ²Ð¾": 3759,
      "ĠÐŁÐ¾Ð¼": 3760,
      "ĠÐ½Ð°ÐºÐ¾Ð½ÐµÑĨ": 3761,
      "ĠÐ±Ð¾Ð»ÐµÐ·": 3762,
      "ĠÑĦÐ¾Ð½": 3763,
      "ĠÐ½Ð°ÑģÑĤ": 3764,
      "ĠÐ¿Ð¾Ð½ÑıÑĤÑĮ": 3765,
      "Ġshe": 3766,
      "ĠÐ¾Ð±Ñģ": 3767,
      "ĠÐ½Ð°Ð¿ÑĢÑı": 3768,
      "Ð·Ð°Ð¼": 3769,
      "Ð¾ÑĢÐ¾Ð´": 3770,
      "ÑģÐºÐ¸Ð¼Ð¸": 3771,
      "ĠÑĥÑĩÐ°ÑģÑĤÐ¸Ðµ": 3772,
      "ĠÐ°ÑĢÑħ": 3773,
      "ĠÐ¿Ð¾ÑģÐºÐ¾Ð»ÑĮÐºÑĥ": 3774,
      "ĠÐ¼ÐµÑĤÐ°Ð»": 3775,
      "ont": 3776,
      "ĠÐ¡Ð°": 3777,
      "Ġtwo": 3778,
      "ĠÐ±Ð°Ð·": 3779,
      "ĠÐ¡Ð¡Ð¡Ðł": 3780,
      "Ġpre": 3781,
      "ĠÑģÐ¾ÑģÑĤÐ°": 3782,
      "Ð¾Ð²Ð°ÑĢÐ¸": 3783,
      "ĠÐ¼ÑĭÑģÐ»": 3784,
      "ĠÑĢÐµÐ¼Ð¾Ð½": 3785,
      "ĠÑĢÐ°Ð·Ð½ÑĭÑħ": 3786,
      "ÑģÐ°Ð´": 3787,
      "ÐºÐ¸Ð¼Ð¸": 3788,
      "ĠÑĤÐ¾Ð¿": 3789,
      "ÑĢÐ°Ð¶Ð°": 3790,
      "ĠÑģÑĦ": 3791,
      "Ð¼Ð°Ñħ": 3792,
      "ÑĢÐ°Ð¶ÐµÐ½Ð¸Ðµ": 3793,
      "igh": 3794,
      "ĠÐ¿Ð¾ÑıÐ²Ð¸": 3795,
      "ĠÐ·Ð°Ð²ÐµÑĢ": 3796,
      "ĠÐ½ÐµÐ¼Ñĥ": 3797,
      "ĠÐ±ÐµÐ´": 3798,
      "ĠÐºÐ¾Ð»Ð»ÐµÐº": 3799,
      "ĠÑĢÐ°Ð·Ð¼ÐµÑĢ": 3800,
      "Ġ23": 3801,
      "ĠÐ¿ÑĢÐµÐ¶Ð´Ðµ": 3802,
      "Ð¾Ð³ÑĢÐ°ÑĦ": 3803,
      "ĠÑĤÐ°Ð¹": 3804,
      "ÑģÐ»Ð°": 3805,
      "ĠÐļÐ¾ÑĢ": 3806,
      "ÐµÐ½Ð½Ð°Ñı": 3807,
      "ĠÑĢÐµÐ³Ñĥ": 3808,
      "ĠÐ¾Ð´Ð½Ð¾Ð¼": 3809,
      "ĠÐ¿ÑĢÐµÐ·Ð¸Ð´": 3810,
      "ÑĩÐµÑģÐºÐ¾Ðµ": 3811,
      "ĠÐ²Ð½ÑĥÑĤÑĢÐ¸": 3812,
      "Ð´Ð°ÑĤ": 3813,
      "ÑģÑĤÐ²ÐµÐ½Ð½Ð¾Ðµ": 3814,
      "ĠÐ¾ÑĤÐ¿": 3815,
      "ĠÐ¿Ð¾Ð·Ð¸": 3816,
      "ĠÑĤÐµÑħÐ½Ð¸": 3817,
      "ild": 3818,
      "ÑģÐ¸Ð²": 3819,
      "ĠÐºÐ¾ÑĤ": 3820,
      "ÑĤÐµÐ¹": 3821,
      "Ð´Ð¸ÑĤ": 3822,
      "Ð·ÑĮ": 3823,
      "Ð½ÑĥÐ²": 3824,
      "Ð²Ð°ÑıÑģÑĮ": 3825,
      "40": 3826,
      "ĠÐ½Ð°ÑĩÐ°Ð»ÑĮ": 3827,
      "ĠÐ²Ð¾Ð·Ð¼Ð¾Ð¶Ð½Ð¾ÑģÑĤÐ¸": 3828,
      "ĠÐ¿Ð¾Ð·Ð²Ð¾Ð»ÑıÐµÑĤ": 3829,
      "ĠÐ³ÑĢÑĥÐ¿Ð¿Ñĭ": 3830,
      "Ð´Ð°Ð»Ð¸": 3831,
      "ÑĥÐºÐ°": 3832,
      "man": 3833,
      "ÐµÐ½Ð½Ð¾ÑģÑĤÐ¸": 3834,
      "ĠÑĤÑĢÐµÑĤÑĮ": 3835,
      "ĠÐ¿Ð¾Ð¿ÑĥÐ»ÑıÑĢ": 3836,
      "ĠÑģÐ¿ÑĢÐ°Ð²": 3837,
      "ÑĩÐ°ÑģÑĤÑĮ": 3838,
      "?!": 3839,
      "ĠÐ¿ÑĢÐ¾Ñĩ": 3840,
      "ĠÐľÐ¾": 3841,
      "ÑĤÑĭÐµ": 3842,
      "ĠÐºÐ¾Ð¼Ñĥ": 3843,
      "ĠÑĤÑĢÐ°Ð²": 3844,
      "ĠÑģÑģÑĭÐ»": 3845,
      "ĠÐ¿Ð¸ÑĪ": 3846,
      "ÐļÐ¾Ð³Ð´Ð°": 3847,
      "ĠÐ¾ÑĩÐµÑĢÐµÐ´ÑĮ": 3848,
      "ĠÑĥÑĤÑĢÐ°": 3849,
      "ĠÐ²ÑĭÐ´ÐµÐ»": 3850,
      "Ġyour": 3851,
      "ĠÑģÐ½Ð¸": 3852,
      "Ð°ÐºÐ¾Ð²": 3853,
      "Ġwhat": 3854,
      "ĠÑĦÐµÐ²ÑĢÐ°": 3855,
      "ĠÐ¸Ð½ÑĤÐµÑĢÐ½ÐµÑĤ": 3856,
      "Ġpeople": 3857,
      "ÐĴÑģÐµ": 3858,
      "Ð»ÐµÐ½Ð¸Ñİ": 3859,
      "ÐµÐ·Ð´Ð°": 3860,
      "ÑĨÐµÐ½ÑĤ": 3861,
      "ĠÐ½ÐµÐºÐ¾ÑĤÐ¾ÑĢÑĭÐµ": 3862,
      "ĠÑģÑĥÐ´ÑĮ": 3863,
      "Ġ2013": 3864,
      "ĠÐ¼ÐµÑĢÐ¾Ð¿ÑĢÐ¸Ñı": 3865,
      "ÐµÐ½Ñı": 3866,
      "ĠÑħÐ¾ÑĩÐµÑĤ": 3867,
      "ink": 3868,
      "ĠÑģÑĤÐ°ÑĢÐ°": 3869,
      "ĠÐ´ÑĥÐ¼Ð°Ñİ": 3870,
      "ĠÐ¾Ð±ÑıÐ·Ð°ÑĤÐµÐ»ÑĮÐ½Ð¾": 3871,
      "ĠÐ¶Ð°Ð»": 3872,
      "ĠÐ¿ÑĥÐ±Ð»Ð¸": 3873,
      "ÑģÑĤÑĢ": 3874,
      "ĠÑĤÐ¸Ñħ": 3875,
      "ĠÐ¼ÐµÐ¶Ð´ÑĥÐ½Ð°ÑĢÐ¾Ð´": 3876,
      "ĠÐ±ÐµÑģÐ¿Ð»Ð°": 3877,
      "ĠÐ¤ÑĢÐ°Ð½": 3878,
      "ĠÑĤÑĢÐµÑħ": 3879,
      "Ð½Ð°ÑĩÐµ": 3880,
      "Ġhim": 3881,
      "ĠÑĢÐ¾Ð¼": 3882,
      "ĠÐ·Ð½Ð°Ð»": 3883,
      "ĠÑģÐ¾Ð´ÐµÑĢÐ¶Ð°": 3884,
      "ÑĤÐµÑĢÐ°": 3885,
      "cess": 3886,
      "ĠÐ¾ÐºÑĤÑı": 3887,
      "ĠÐ¿ÑĢÐ¸Ð±Ñĭ": 3888,
      "ĠÐĹÐ½Ð°": 3889,
      "ĠÐ¶ÐµÐ½ÑīÐ¸Ð½Ñĭ": 3890,
      "ict": 3891,
      "ĠÐ±Ð»Ð°Ð³": 3892,
      "ĠÐŁÐ¾ÑĩÐµÐ¼Ñĥ": 3893,
      "ĠÑģÐºÑĥ": 3894,
      "ĠÐ½Ð°Ð¸Ð±Ð¾Ð»ÐµÐµ": 3895,
      "Ġplay": 3896,
      "ĠÐ¿ÑĢÐµÑģÑĤÑĥÐ¿": 3897,
      "ÐŁÐ¾Ð´": 3898,
      "ĠÐ±Ð¸Ð·Ð½ÐµÑģ": 3899,
      "ĠÑģÐ±Ð¾ÑĢ": 3900,
      "ĠÐµÐ´": 3901,
      "Ð¼Ð°ÑĢ": 3902,
      "ÐºÐ¾ÑĢ": 3903,
      "Ð½Ð°Ð²Ð»Ð¸": 3904,
      "].": 3905,
      "ĠÑĥÑģÐ»Ñĥ": 3906,
      "ĠÐºÑĥÐ¿Ð¸ÑĤÑĮ": 3907,
      "ĠÐ±Ð¾ÑĢÑĮ": 3908,
      "ÑĤÐ¸Ð»Ð¸": 3909,
      "ĠÐºÑĥÑħ": 3910,
      "Ð»ÐµÐ¶": 3911,
      "ĠÑıÐ²": 3912,
      "ĠÐ¿Ð»Ð°Ð½Ð¸": 3913,
      "Ġ21": 3914,
      "ĠÐ´Ð»Ð¸Ð½": 3915,
      "ĠÑģÐ¾Ð´ÐµÑĢÐ¶": 3916,
      "ĠÐºÐ°ÐºÐ°Ñı": 3917,
      "ĠÐ¿Ð¾ÐºÑĢÑĭ": 3918,
      "ĠÐ¾ÐºÐ¾Ð½ÑĩÐ°": 3919,
      "ĠÐ²Ð¸Ð´ÐµÐ»": 3920,
      "ĠÐ¾Ð±Ð¾ÑĢÐ¾": 3921,
      "ÑĩÐµÑĤÐ°": 3922,
      "urn": 3923,
      "Ð½ÑİÑİ": 3924,
      "ĠÐºÐ»ÑĥÐ±": 3925,
      "ĠÑĢÐ°Ð±Ð¾ÑĤÐ°ÐµÑĤ": 3926,
      "ÑĤÐ°Ñı": 3927,
      "ÐµÐ½Ð½Ð¾Ðµ": 3928,
      "ĠÐ¾ÑīÑĥÑī": 3929,
      "ĠÐ´Ð²Ð¸Ð³Ð°": 3930,
      "ÑĢÐ¾Ð²Ð°Ð»": 3931,
      "ĠÑģÐ¾Ð·Ð½Ð°": 3932,
      "ĠÐ²ÐµÐºÐ°": 3933,
      "ĠÐ½Ð°ÑģÑĤÑĢÐ¾": 3934,
      "Ð»Ð°Ð³": 3935,
      "ĠÐ¿Ð¾Ð´Ð°": 3936,
      "ĠÑĤÐ¸Ð¿Ð°": 3937,
      "ĠÑĤÐµÐ»": 3938,
      "60": 3939,
      "ÑıÑĤÐ¸Ñı": 3940,
      "ÑĭÑĪÐ»ÐµÐ½": 3941,
      "ĠÐ¸Ð½Ð´Ð¸": 3942,
      "ĠÐ¿ÑĢÐ¸ÑģÑĥÑĤ": 3943,
      "ĠÐºÐ¾Ð¼Ð¼Ñĥ": 3944,
      "ĠÑģÑĤÑĢÐµ": 3945,
      "ĠÐ´ÑĢÐµÐ²": 3946,
      "reat": 3947,
      "ĠĠĠĠĠĠĠĠ": 3948,
      "ÑĤÐ°Ð½": 3949,
      "ĠÐ³ÑĢÐ¾Ð¼": 3950,
      "Ð»Ð¸Ð±Ð¾": 3951,
      "ĠÐ±Ð»Ð¸Ð¶": 3952,
      "ĠÐ¡ÐµÐ¹ÑĩÐ°Ñģ": 3953,
      "ÑīÐ¸Ðµ": 3954,
      "Ð´Ð¸Ð¸": 3955,
      "ÐºÐµÑĤ": 3956,
      "ĠÐ´ÑĢÑĥÐ·ÑĮÑı": 3957,
      "ĠÑģÑĢÐµÐ´ÑģÑĤÐ²": 3958,
      "ÑĢÐ¸Ñİ": 3959,
      "ug": 3960,
      "ĠÑģÐ¸Ð»Ñĭ": 3961,
      "iss": 3962,
      "ĠÐ¼Ð½Ð¾Ð¶Ðµ": 3963,
      "Ð¾ÑĦ": 3964,
      "Ð¸ÑĤÐ°Ð¹": 3965,
      "22": 3966,
      "ĠÑģÐ°Ð¼ÑĭÐ¼": 3967,
      "ĠÑĪÐ°Ð³": 3968,
      "ĠÑįÐºÐ¾Ð½Ð¾Ð¼Ð¸ÑĩÐµÑģÐº": 3969,
      "ĠÐ³ÐµÑĢÐ¾": 3970,
      "ÑıÑİÑĤ": 3971,
      "ĠÐ¸Ð¼ÐµÑİÑĤ": 3972,
      "ĠÑģÑĤÑĢÐ°Ð½Ðµ": 3973,
      "ĠÐ²Ð¸Ð·": 3974,
      "ĠÐ¿Ð¾Ð´ÑĢÐ¾Ð±": 3975,
      "ĠÐ»Ð¸ÑĪ": 3976,
      "Ð½Ð¸Ð»Ð¸": 3977,
      "ĠÐ¿ÑĥÐ½Ðº": 3978,
      "ĠÑĢÐ¾Ð·": 3979,
      "Ð¾Ð¶Ñĥ": 3980,
      "ÑįÐº": 3981,
      "ĠÑģÐ½Ð°": 3982,
      "Ġafter": 3983,
      "ĠÐ±Ð»": 3984,
      "Ġ40": 3985,
      "ĠÐºÐ°Ð¶Ð´Ð¾Ð³Ð¾": 3986,
      "ĠÐ´ÑĥÑħÐ¾Ð²": 3987,
      "Ð½ÑĥÐ»Ð¸": 3988,
      "ĠÐ²Ð¿": 3989,
      "ÑĢÐ°Ð¶ÐµÐ½Ð¸Ñı": 3990,
      "ĠÑĤÐµÐ¼Ð¿ÐµÑĢÐ°": 3991,
      "Ġspe": 3992,
      "ĠÐ¼Ð°ÐºÑģÐ¸Ð¼": 3993,
      "ĠÐ¿Ð°ÑĢÑĥ": 3994,
      "Ð²ÑıÑī": 3995,
      "ĠÐ´Ð¾Ð¿Ð¾Ð»Ð½Ð¸ÑĤÐµÐ»ÑĮ": 3996,
      "ĠÐ¿Ð¾Ð´Ð°ÑĢ": 3997,
      "ĠÐ°Ð´ÑĢÐµÑģ": 3998,
      "Ġ#": 3999,
      "ĠÐĳÐ¾Ð³": 4000,
      "ĠÐ·Ð½Ð°ÑĤÑĮ": 4001,
      "ÑĤÐ¸Ð½Ð°": 4002,
      "ĠÑĥÑģÐ»Ð¾Ð²Ð¸ÑıÑħ": 4003,
      "ĠÑĥÐ´Ð°Ð»Ð¾ÑģÑĮ": 4004,
      "ĠÑħÐ°ÑĢÐ°ÐºÑĤÐµÑĢ": 4005,
      "ÑĢÐ¸ÑģÑĤ": 4006,
      "ĠÐ¸ÑģÐºÐ»ÑİÑĩ": 4007,
      "ĠÑĥÑģÑĤÑĢÐ¾Ð¹": 4008,
      "enc": 4009,
      "ĠÑģÐ°Ð¼ÑĭÐµ": 4010,
      "ÑĥÐ²ÑģÑĤÐ²": 4011,
      "ĠÐ³Ð¾Ð²Ð¾ÑĢÑıÑĤ": 4012,
      "ĠÐ½ÐµÑģÐºÐ¾Ð»ÑĮ": 4013,
      "Ġmy": 4014,
      "ÐºÐ¸Ð½": 4015,
      "ĠÐ¥Ð¾ÑĤÑı": 4016,
      "ĠÐ§ÑĤÐ¾Ð±Ñĭ": 4017,
      "Ð°ÑģÑģ": 4018,
      "ĠÐ¼Ð¾Ð·": 4019,
      "ĠÑģÐ¿Ð°": 4020,
      "Ġjust": 4021,
      "ÐĺÐ½": 4022,
      "ĠÑĢÐ°Ð¹Ð¾Ð½Ð°": 4023,
      "ious": 4024,
      "ĠÐ°Ð»ÑĮ": 4025,
      "ĠÐ»Ð¸ÑĤÐµÑĢÐ°": 4026,
      "ĠÐ²Ð¾Ð·Ð´ÑĥÑħ": 4027,
      "ĠÑıÐ½Ð²Ð°ÑĢÑı": 4028,
      "Ð³ÐµÐ¹": 4029,
      "Ð½Ð¾Ð²ÑĮ": 4030,
      "ÑĥÑİÑīÐ¸Ñħ": 4031,
      "ÑĥÐ¶Ðµ": 4032,
      "ĠÐĺÐ²Ð°": 4033,
      "ĠÐ¶Ð¸Ð»": 4034,
      "ĠÐ½Ð¾ÑĩÑĮ": 4035,
      "ĠÐ¼ÐµÑĢÐµ": 4036,
      "ĠÑĦÐ¸Ð·Ð¸ÑĩÐµÑģÐº": 4037,
      "http": 4038,
      "ĠÑģÐ¾ÑģÐµÐ´": 4039,
      "Ð¿Ð°ÑģÐ¸Ð±Ð¾": 4040,
      "ÑĪÐµÐ¼": 4041,
      "ĠÐ¿Ð¾Ð½ÑıÐ»": 4042,
      "ĠÐłÐ¾ÑģÑģÐ¸Ñı": 4043,
      "24": 4044,
      "ÑĦÐ¾ÑĢÐ¼Ð¸": 4045,
      "ĠÐĹÐ´ÐµÑģÑĮ": 4046,
      "anc": 4047,
      "ÑģÐ¾Ð»ÑİÑĤ": 4048,
      "ĠÐĶÐ°Ð¶Ðµ": 4049,
      "ĠÑĢÑı": 4050,
      "ĠÑģÐ´ÐµÐ»Ð°": 4051,
      "ĠÐ¼ÐµÑħÐ°": 4052,
      "ĠÑĢÐµÑģ": 4053,
      "ÐµÐ½Ð¸Ð½": 4054,
      "Ġcomm": 4055,
      "ĠÑĢÐµÑĪÐ¸Ð»": 4056,
      "ĠÐ¿ÑĢÐ°Ð²Ð¸Ð»ÑĮÐ½Ð¾": 4057,
      "ĠÐ¾ÑĤÐ»Ð¸Ñĩ": 4058,
      "ĠÑģÐ¿Ð°Ñģ": 4059,
      "oy": 4060,
      "ĠÐ²ÑĢÐ¾Ð´Ðµ": 4061,
      "ĠÐ¾Ð¿Ð»Ð°": 4062,
      "ĠÑģÐ¿ÑĢÐ¾ÑģÐ¸": 4063,
      "ĠÐ¡ÐµÐ³Ð¾Ð´Ð½Ñı": 4064,
      "ĠÐ¿Ð¾Ð¼Ð¾ÑīÑĮ": 4065,
      "ĠÑģÑĤÐ°Ð½Ð¾Ð²Ð¸ÑĤÑģÑı": 4066,
      "ĠÐºÐ¾ÑĢÐ¾ÑĤ": 4067,
      "ĠÐ¼Ð¾Ð³Ð»Ð°": 4068,
      "ĠÐ³Ð¾Ð²Ð¾ÑĢÐ¸Ð»": 4069,
      "ĠÐ¿ÐµÐ½": 4070,
      "ĠÑĩÐµÑĤÐ²ÐµÑĢ": 4071,
      "ĠÐ¿ÑĢÐ¾ÑģÑĤÑĢÐ°Ð½": 4072,
      "ĠÑģÐ¼ÐµÑĢÑĤÐ¸": 4073,
      "row": 4074,
      "Ð¿ÑĢÐµ": 4075,
      "Ð´ÑĢÐ°Ð²": 4076,
      "ĠÐ°Ð½ÑĤÐ¸": 4077,
      "ÑĤÐ¸ÑĤÑĮÑģÑı": 4078,
      "ÑĤÐ°ÑĢ": 4079,
      "ĠÐ´Ð¾Ð»Ð»Ð°": 4080,
      "ÑĤÐºÐ¸": 4081,
      "ĠÐ¼ÑĥÐ¶ÑĩÐ¸Ð½Ð°": 4082,
      "Ġ2016": 4083,
      "ÐºÐ¾Ð¼Ñĥ": 4084,
      "ĠÐ±ÐµÐ·Ð¾Ð¿Ð°ÑģÐ½Ð¾ÑģÑĤÐ¸": 4085,
      "ĠÐ¿Ð¾ÑģÑĤÐ°": 4086,
      "ĠÑĢÐµÑĪÐµÐ½Ð¸Ñı": 4087,
      "ĠÑģÐ¾Ð¶": 4088,
      "ÑĢÐµÐ¼Ñı": 4089,
      "ĠÐŁÐµÑĢÐµ": 4090,
      "Ġ197": 4091,
      "ĠÐĵÐ»Ð°Ð²": 4092,
      "ÐłÐĲ": 4093,
      "ĠÐ´Ð¾Ð»Ð³": 4094,
      "Ð¾Ð¼ÐµÑĤ": 4095,
      "ÐµÐ¼ÑĭÑħ": 4096,
      "ĠÐ¿ÑĢÐ¸Ð½Ð°Ð´": 4097,
      "ĠÑĢÐ°Ð·Ð´": 4098,
      "ĠÑģÑĤÐ°Ð²": 4099,
      "ĠÑĥÐºÑĢÐ°Ð¸Ð½": 4100,
      "ĠÑģÐ°Ð¹ÑĤ": 4101,
      "xd": 4102,
      "ĠÐ¾Ð±ÑĥÑĩ": 4103,
      "ĠÐĹÐ°Ðº": 4104,
      "ĠÐ²ÐµÑģÑĮÐ¼Ð°": 4105,
      "ĠÐ¼Ð°Ð¼": 4106,
      "ĠÐ¿Ð¾Ð³Ð¸": 4107,
      "ĠÐºÐ¾Ð½ÑģÑĤÑĢÑĥÐº": 4108,
      "Ġdes": 4109,
      "ĠÐ¢Ð°ÐºÐ¶Ðµ": 4110,
      "ÑīÐ°ÐµÑĤÑģÑı": 4111,
      "Ġ2012": 4112,
      "ational": 4113,
      "Ð·Ð°ÑĨÐ¸Ñı": 4114,
      "ĠWe": 4115,
      "?)": 4116,
      "ĠÐ½Ð¾Ð³Ð¸": 4117,
      "ÑĢÑĥÐµÑĤÑģÑı": 4118,
      "ĠÐ°Ð¿ÑĢÐµ": 4119,
      "ĠÐ±Ð°Ð±": 4120,
      "1089": 4121,
      "ĠÑģÐ¾Ð²Ð¼Ðµ": 4122,
      "Ġbet": 4123,
      "ĠÐ¿Ð¸ÑĤÐ°": 4124,
      "ĠÐ´Ð¾Ð¼Ð¾Ð¹": 4125,
      "ĠÐłÐ¾ÑģÑģÐ¸Ð¹ÑģÐºÐ¾Ð¹": 4126,
      "ĠÐ¢ÐµÐ¼": 4127,
      "ove": 4128,
      "Ġget": 4129,
      "ĠÐ¿ÑĢÐ¸Ð½ÑĨÐ¸": 4130,
      "ĠÐ·Ð°Ð±Ð¾Ð»Ðµ": 4131,
      "ÐļÐŀ": 4132,
      "ĠÐ¾ÑĨÐµÐ½": 4133,
      "ĠÐĴÑģ": 4134,
      "ĠÑĢÐ°Ð·Ð»Ð¸ÑĩÐ½ÑĭÑħ": 4135,
      "Ð²ÑĪÐµÐ¹": 4136,
      "ĠÑģÐºÐ¾ÑĢÐµÐµ": 4137,
      "ĠÑģÑĤÑĢÐ°Ñħ": 4138,
      "Ð±Ð¸ÑĤ": 4139,
      "ĠÐ¿ÑĭÑĤ": 4140,
      "ÑĢÐ¾ÑģÐ»": 4141,
      "ĠÐºÐ°ÐºÐ¾Ðµ": 4142,
      "ÑĨÐµÐ¹": 4143,
      "ĠÑĥÐ¼Ðµ": 4144,
      "Ð³Ð»Ð¸Ð¹": 4145,
      "ĠÐ³Ð¾Ð»Ð¾Ð²Ð¾Ð¹": 4146,
      "Ð´Ð°ÐµÑĤÑģÑı": 4147,
      "gr": 4148,
      "ĠÐ¿ÑĢÐ¾Ð´Ð¾Ð»": 4149,
      "ĠÑħÐ¾ÑĩÐµÑĤÑģÑı": 4150,
      "ÑĤÐµÐ³Ð¾": 4151,
      "Ð¾Ð²Ð¾Ð³Ð¾": 4152,
      "ĠÐ¼Ð°Ñı": 4153,
      "ĠÐ·Ð°ÐºÐ°": 4154,
      "Ð·ÑĭÐ²Ð°ÐµÑĤÑģÑı": 4155,
      "!\"": 4156,
      "ĠÐ¼Ð°ÑĤÐµÑĢÐ¸Ð°Ð»Ð¾Ð²": 4157,
      "ĠÐºÑĢÐµÐ¿": 4158,
      "ĠÐŁÐ¾ÑĤÐ¾Ð¼": 4159,
      "ĠÑĥÐºÐ°Ð·": 4160,
      "ĠÑģÐ²Ð¸Ð´ÐµÑĤ": 4161,
      "ĠÐ¿Ð¾ÑģÐµÑĤ": 4162,
      "ĠÐ°Ð²Ð³Ñĥ": 4163,
      "ĠÑģÐ¸ÑĤÑĥÐ°ÑĨÐ¸Ð¸": 4164,
      "ĠÐ¾Ð³ÑĢÐ°Ð½Ð¸": 4165,
      "ÑĩÐ¸ÐºÐ°": 4166,
      "Ġonly": 4167,
      "ÑįÐ½": 4168,
      "ĠÑģÐ¾Ð»Ð½": 4169,
      "Ð¿ÑĢÐ¾ÑĩÐµÐ¼": 4170,
      "ĠÐ»Ð¾": 4171,
      "Ð¾Ð¶Ð¸Ð´Ð°Ð½": 4172,
      "Ð½Ð¸Ð»Ð°": 4173,
      "ÐºÐ½ÑĥÐ»": 4174,
      "Ð±ÐµÑĢ": 4175,
      "ĠÐ³Ð»Ñı": 4176,
      "Ð¾Ð¼Ð°": 4177,
      "Ð³Ð¾Ðµ": 4178,
      "ĠÐ¾Ð±ÑĢÐ°Ð·Ð¾Ð²Ð°Ð½Ð¸Ñı": 4179,
      "Ð³Ð°Ð»": 4180,
      "ÐļÐĲ": 4181,
      "ÐµÐ¼ÑĭÐµ": 4182,
      "ÑĩÐµÑģÐºÐ¸Ð¼": 4183,
      "ĠÐ¾ÑĤÐ¼Ðµ": 4184,
      "ĠÐ½Ð¾Ð²Ð¾Ð³Ð¾": 4185,
      "ĠÐ²ÑĤÐ¾": 4186,
      "ÑģÑĤÑıÐ¼Ð¸": 4187,
      "Ð¸Ð½ÑĤÐµÑĢÐµÑģ": 4188,
      "ÑĤÑĭÑħ": 4189,
      "ĠÐ¼Ð°ÑģÑĤÐµÑĢ": 4190,
      "ĠÐ²Ð½Ð¾Ð²ÑĮ": 4191,
      "ĠÐ´Ð¾Ð¼Ðµ": 4192,
      "ĠÐŃÑĤÐ¾ÑĤ": 4193,
      "Ð¿ÐµÑĢÐ²ÑĭÐµ": 4194,
      "ĠÑģÐ²ÑıÐ·Ð°Ð½": 4195,
      "Ð¼Ð¸Ð½": 4196,
      "ÑĥÑĢÐ°": 4197,
      "ĠÐ½ÐµÐ¶": 4198,
      "ĠÐ¿ÑĥÑĤÐµ": 4199,
      "ĠÐ²ÐµÐº": 4200,
      "rit": 4201,
      "ident": 4202,
      "Ġour": 4203,
      "ÑĢÐ¸Ð½Ð°": 4204,
      "ĠÐĺÑģÐ¿": 4205,
      "ĠÐ¿ÑĥÑĤ": 4206,
      "Ð²Ð¸Ð·": 4207,
      "Ð¼Ð¾ÑĤÑĢ": 4208,
      "ĠÐ±ÑĥÐ´ÑĥÑī": 4209,
      "ĠÑģÐ´ÐµÐ»Ð°Ð»": 4210,
      "ÑĤÐ¾Ð³Ð¾": 4211,
      "ĠÑģÐ¸ÑģÑĤÐµÐ¼Ð°": 4212,
      "ĠÐµÑģÑĤÐµ": 4213,
      "ĠÑģÑĤÑĢÑĥÐº": 4214,
      "ĠÐ¼Ð°Ð½": 4215,
      "Ð°Ð»ÑĮÐ½ÑĥÑİ": 4216,
      "ĠÑĦÑĢÐ°Ð½": 4217,
      "ĠÐ±ÑĭÐ²Ð°ÐµÑĤ": 4218,
      "Ð¾Ð±Ð¾Ð¹": 4219,
      "ĠÐ¿Ð¾Ð¶Ð°Ð»ÑĥÐ¹ÑģÑĤÐ°": 4220,
      "ĠÐ¾Ð±ÑīÐµÐ¼": 4221,
      "ĠÐķÑģÑĤÑĮ": 4222,
      "ĠÑģÑĤÐµÐº": 4223,
      "ÑĩÐ¸Ð»": 4224,
      "ĠÐ½Ð°Ð¼Ð¸": 4225,
      "clud": 4226,
      "ĠÐĲÐ»": 4227,
      "ĠÐ¿ÑĢÐµÐ´Ð¼ÐµÑĤ": 4228,
      "ĠÐłÑĥ": 4229,
      "ĠÐ¸Ð³ÑĢÑĭ": 4230,
      "ĠÐ¿ÑĢÐ¾ÑĪÐ»": 4231,
      "ĠÑĢÐ°Ð·Ð°": 4232,
      "Ð¼Ð¾Ñģ": 4233,
      "ĠÑĩÐ¸ÑģÑĤ": 4234,
      "ĠÐ¼Ð¸Ðº": 4235,
      "ss": 4236,
      "ĠÐ·Ð°Ð¿Ð°": 4237,
      "ĠÐ¾ÑĤÐ¿Ñĥ": 4238,
      "ĠÐ¢Ð¾Ð³Ð´Ð°": 4239,
      "ĠÐ³Ð»Ð°Ð²Ð½Ð¾Ðµ": 4240,
      "ĠÐ¿ÑĢÐ¸Ð³Ð¾ÑĤÐ¾Ð²": 4241,
      "ÑģÐ»ÑĥÐ¶Ð¸": 4242,
      "ĠÐ»ÑİÐ±Ð²Ð¸": 4243,
      "Ð¾ÑĢÐ¾Ð²": 4244,
      "ĠÐĹÐµÐ¼": 4245,
      "ÑģÐ°Ñħ": 4246,
      "Ð½Ð¸ÐºÐµ": 4247,
      "ĠÐ²ÐºÑĥÑģ": 4248,
      "Ð¿Ð¾Ð½": 4249,
      "Ġbec": 4250,
      "âĢľ": 4251,
      "ĠÑģÐµÐ¼ÐµÐ¹": 4252,
      "ĠÐ¿ÑĥÑĤÑĮ": 4253,
      "ĠÐ´ÐµÐ²ÑĥÑĪÐºÐ°": 4254,
      "ĠÐ²ÐµÑĢÑħ": 4255,
      "ĠÐ´Ð¾ÐºÐ°": 4256,
      "ĠÐ³ÐµÑĢ": 4257,
      "ĠÐľÐ¸Ð½": 4258,
      "ĠÐŁÐ°": 4259,
      "ĠÐ¿Ð°ÑĢÑĤ": 4260,
      "ĠÑĥÑģÑĤÐ°": 4261,
      "Ð¸ÑĤÐµÑĤÐ°": 4262,
      "Ð¾Ð»ÑĮÑĪÐµ": 4263,
      "ÑĥÐ¼Ðµ": 4264,
      "Ð»ÐµÐ½Ð¾": 4265,
      "ÑĢÑĥÑİÑĤ": 4266,
      "ĠÐ½Ð¾Ð¼ÐµÑĢ": 4267,
      "ĠÑģÑĤÐ°Ð½ÐµÑĤ": 4268,
      "ĠÐ¿ÑĢÐ¸ÐµÐ¼": 4269,
      "ĠÑħÐ¾ÑĢÐ¾": 4270,
      "ĠÐ¾Ð±ÑĢÐ°Ñī": 4271,
      "ĠÐ»ÑİÐ±Ð¾Ð²ÑĮ": 4272,
      "Ð²Ð°ÑĤ": 4273,
      "ĠÑĥÐ¶Ð°Ñģ": 4274,
      "ÑĢÐ°Ð±Ð°ÑĤÑĭ": 4275,
      "Ð¾Ð³ÑĢÐ°ÑĦÐ¸Ð¸": 4276,
      "ĠÐºÐ°ÑĤ": 4277,
      "ĠÐ½Ð°ÑĢÑĥ": 4278,
      "ÑĤÐ¸Ð»ÑģÑı": 4279,
      "ĠÑģÐµÑĢÐ´ÑĨÐµ": 4280,
      "Ð»Ð¸Ð½Ð°": 4281,
      "ÑĢÐµÑĨ": 4282,
      "ĠÐºÐ½Ð¸Ð³Ð¸": 4283,
      "Ð¾ÑĢÑĤÐ°": 4284,
      "ĠÑĤÐµÐ°ÑĤ": 4285,
      "Ð¶ÐµÐ¼": 4286,
      "ĠÐ¼ÑıÐ³": 4287,
      "ÑģÑĤÐ²ÐµÐ½Ð½ÑĭÐ¼": 4288,
      "ÑıÑĤÑĮÑģÑı": 4289,
      "ĠÐŀÑĢ": 4290,
      "ual": 4291,
      "ÐºÑĢÐµÑĤ": 4292,
      "ĠÐ¿Ð»Ð¾ÑīÐ°Ð´": 4293,
      "ĠÐ´Ð¾ÑħÐ¾Ð´": 4294,
      "ĠÐ¸Ð¼ÐµÑĤÑĮ": 4295,
      "ĠÐ²Ð¿ÐµÑĩÐ°ÑĤ": 4296,
      "Ð¿Ð¾Ð´Ð°": 4297,
      "ÑĩÐ¸Ð²Ð¾": 4298,
      "ĠÐ¸Ð·Ð²ÐµÑģÑĤÐ½Ð¾": 4299,
      "ĠÐ±Ð¾Ðº": 4300,
      "ĠÑĤÑıÐ¶ÐµÐ»": 4301,
      "ĠÐ·Ð°ÑĩÐµÐ¼": 4302,
      "Ġpol": 4303,
      "Ð½Ð¾Ð¿": 4304,
      "ĠÐ¾Ð±ÑıÐ·Ð°ÑĤÐµÐ»ÑĮ": 4305,
      "ĠÐ±ÑİÐ´Ð¶": 4306,
      "ĠÑħÐ¾ÑĤÐµÐ»Ð¾ÑģÑĮ": 4307,
      "Ð¿Ð¾Ð²": 4308,
      "ĠÐ²Ð°Ð¶Ð½Ð¾": 4309,
      "ĠÐ²Ð°Ð¼Ð¸": 4310,
      "ĠÐ½Ð°ÑģÐµÐ»ÐµÐ½Ð¸Ñı": 4311,
      "ĠÐ±ÑĥÐ´ÐµÐ¼": 4312,
      "ĠÐ´ÐµÐºÐ°Ð±ÑĢÑı": 4313,
      "23": 4314,
      "ÐĺÐ·": 4315,
      "ÑĤÐ¸Ð²Ð°": 4316,
      "Ð½Ð¸ÐºÐ°Ð¼": 4317,
      "Ð½Ð¾Ð´": 4318,
      "ause": 4319,
      "ĠÑĤÐµÐ»Ð¾": 4320,
      "ÑĤÐ¾Ð¶": 4321,
      "ĠÐ´Ð°Ð»ÐµÐºÐ¾": 4322,
      "ĠÐ´Ð¾Ð±Ð°Ð²": 4323,
      "Ð½ÐµÐ¼Ñĥ": 4324,
      "ĠÑĥÐ¼ÐµÑĢ": 4325,
      "ĠÐ½ÐµÐ´Ð¾ÑģÑĤÐ°": 4326,
      "ĠÐŁÐµ": 4327,
      "ĠÐ°ÑĤ": 4328,
      "Ð°ÑģÑģÐ°": 4329,
      "ĠÑĨÐ°ÑĢ": 4330,
      "ĠÑĢÐ°Ð·Ð²Ð¸": 4331,
      "Ð»ÑİÐ±": 4332,
      "ÑĩÐ½Ð¾Ð¼": 4333,
      "ĠÐºÐ°ÐºÐ¸Ð¼": 4334,
      "ĠÐ¿Ð¾Ð·Ð½Ð°": 4335,
      "ĠÐ³Ð¾ÑģÑĤÐ¸": 4336,
      "ĠÐ¸Ð½ÑĦÐ¾ÑĢÐ¼Ð°ÑĨÐ¸Ñİ": 4337,
      "ÑĭÐ»": 4338,
      "ĠÑĥÐ´Ð¾Ð²Ð¾Ð»ÑĮ": 4339,
      "ĠÐºÐ¾Ð½ÑĨÐ°": 4340,
      "ÑģÑĤÑıÑħ": 4341,
      "ĠÐ¿Ð¾Ð´Ð¾": 4342,
      "ĠÐ¸Ð¼ÐµÐ½Ð¸": 4343,
      "ĠÐ¸ÑģÑĩÐµ": 4344,
      "Ġbl": 4345,
      "ĠÐ¼ÐµÑģÑıÑĨ": 4346,
      "ĠÑģÑĤÑĢÐµÐ¼": 4347,
      "ĠÐ¤ÐµÐ´ÐµÑĢÐ°ÑĨÐ¸Ð¸": 4348,
      "ĠÑĢÐ°Ð±Ð¾": 4349,
      "ath": 4350,
      "ÑģÑĤÐ¾Ð¸ÑĤ": 4351,
      "Ð¸ÑĤÐ¸": 4352,
      "ĠÐķÑīÐµ": 4353,
      "ĠÑĦÑĥÑĤ": 4354,
      "ood": 4355,
      "ĠÐ¿Ð¾Ð²ÑĤÐ¾": 4356,
      "ĠÑĤÐµÐ»Ð°": 4357,
      "ĠÐ²Ð¾ÑģÐº": 4358,
      "Ð¿Ð°ÑĢ": 4359,
      "ĠÑģÐ¸Ð»Ñĥ": 4360,
      "ĠÐĳÐ¾Ð»ÑĮÑĪ": 4361,
      "ĠÐ²ÑĭÐ´Ð°": 4362,
      "ĠÑģÐ¸Ð»Ð°": 4363,
      "ĠÑģÐ¸Ð½": 4364,
      "ĠÐ¸Ð½Ð¾": 4365,
      "Ð¾Ð²Ð¾ÑĢÐ°": 4366,
      "ĠÑĥÐ²Ð°": 4367,
      "ock": 4368,
      "ÐľÐĺ": 4369,
      "Ð¼ÐµÐ½Ð°": 4370,
      "ĠÐ³Ð¾ÑĢÑı": 4371,
      "Ð¾Ð´Ð°ÑĤÐµÐ»ÑĮ": 4372,
      "ĠÐ¿ÑĢÐ¾Ð³ÑĢÐ°Ð¼Ð¼Ñĭ": 4373,
      "ĠÑĢÐµÐ°Ð»Ð¸": 4374,
      "ÑĨÐ¸Ð¾Ð½Ð½ÑĭÑħ": 4375,
      "ĠÑĦÐµÐ²ÑĢÐ°Ð»Ñı": 4376,
      "ÐºÐ»Ð°Ð´Ñĭ": 4377,
      "Ð¾Ð²Ð°Ð½Ð¸Ð¸": 4378,
      "Ìģ": 4379,
      "ĠÐ»Ð¾Ð¶": 4380,
      "ĠÑģÑĩÐ°ÑģÑĤ": 4381,
      "ĠÐ¿ÐµÑĢÐ²Ð¾Ð¹": 4382,
      "ĠÑĥÑģÐ¿ÐµÑĪ": 4383,
      "ÐµÑĢÐºÐ¾Ð²": 4384,
      "80": 4385,
      "ĠÐ¿ÑĢÐ¾Ð¸ÑģÑħÐ¾Ð´": 4386,
      "ĠÑĢÐ¾Ð»ÑĮ": 4387,
      "--------": 4388,
      "ĠÐ¿ÐµÑĢÐµÑħÐ¾Ð´": 4389,
      "ĠÑįÐ»ÐµÐºÑĤÑĢÐ¾Ð½": 4390,
      "Ð»ÑıÐµÑĤÑģÑı": 4391,
      "ĠÐ¿ÑĢÐ¸ÑıÑĤ": 4392,
      "ĠÑģÐ»ÑĥÑĩ": 4393,
      "Ġunder": 4394,
      "ĠÐ²Ð·Ð°Ð¸Ð¼": 4395,
      "ĠÐ¿Ð¾Ñį": 4396,
      "ĠÑģÑİÐ´Ð°": 4397,
      "Ġam": 4398,
      "ĠÑĩÑĥÐ¶": 4399,
      "ĠÐ±Ð»Ð°Ð³Ð¾Ð´Ð°ÑĢÑı": 4400,
      "ĠÑģÐ¾ÑģÑĤÐ°Ð²Ð»Ñı": 4401,
      "ĠÐ¿ÑĢÐ¸Ð²Ð¾Ð´": 4402,
      "Ð»Ð°Ð²Ð°": 4403,
      "ĠÑĥÑģÐ»ÑĥÐ³": 4404,
      "ied": 4405,
      "ĠÐ²ÐµÑīÐ¸": 4406,
      "ÑıÐ»ÑģÑı": 4407,
      "ÑĩÐ½ÑĥÑİ": 4408,
      "ĠÑĤÑĥÑĢ": 4409,
      "ĠÐ½ÐµÐ½Ð°": 4410,
      "ĠÐºÐ°ÐºÐ¸Ñħ": 4411,
      "ĠÐ½ÐµÐ´Ð°": 4412,
      "ĠÐ´Ð¸Ð·Ð°": 4413,
      "Ð°Ð»ÑĮÐ½Ð¾Ð¼": 4414,
      "io": 4415,
      "ĠÐŀÑĩÐµÐ½ÑĮ": 4416,
      "ĠÐ¿ÑĢÐ¸ÑĪÐ»Ð¾ÑģÑĮ": 4417,
      "ĠÐ·Ð°Ð²Ð¾Ð´": 4418,
      "ĠÐ±Ñĥ": 4419,
      "ÑĩÐ½Ð¾ÑģÑĤÐ¸": 4420,
      "Ð¼ÐµÑĨ": 4421,
      "ĠÐ¡Ðº": 4422,
      "'t": 4423,
      "ÑĤÑģÑı": 4424,
      "ĠÐºÐ¸Ð½Ð¾": 4425,
      "ÐµÑĤÐµÑģÑĮ": 4426,
      "ĠÐºÑĢÐµÐ´Ð¸ÑĤ": 4427,
      "ĠÐºÐ°ÑĤÐµÐ³Ð¾": 4428,
      "ĠÐ¿ÑĢÐ¸Ñģ": 4429,
      "ĠÐ½Ð°ÑĩÐ°Ð»Ðµ": 4430,
      "ĠÑĦÐ¸ÑĢ": 4431,
      "ĠÑĦÐ¾ÑĢÐ¼Ð¸": 4432,
      "ÑĥÑİÑīÐ¸Ðµ": 4433,
      "ĠÑĥÑĩÐµÐ±": 4434,
      "Ġcons": 4435,
      "ĠÐ¾ÑĤÐµÑĨ": 4436,
      "Ġhow": 4437,
      "ÐŁÐµÑĤ": 4438,
      "rib": 4439,
      "ĠÐ·Ð°Ð²ÑĤÑĢÐ°": 4440,
      "ĠÑģÐµÐ»ÑĮ": 4441,
      "ĠÐ°Ð±ÑģÐ¾Ð»ÑİÑĤ": 4442,
      "Ġcould": 4443,
      "ÑĥÐ´Ð¸": 4444,
      "ĠÐ½ÑĢÐ°Ð²Ð¸ÑĤÑģÑı": 4445,
      "ĠÐ¿Ð¾Ð»ÑĮÐ·Ñĥ": 4446,
      "Ð³Ð¾Ð²Ð¾ÑĢ": 4447,
      "ĠÐ½ÐµÑĢ": 4448,
      "ĠÑĢÐ°Ð½": 4449,
      "ĠÐ°Ð²Ð¸": 4450,
      "ĠÐ¿Ð¾Ð»ÑĥÑĩÐ¸Ð»": 4451,
      "ĠÑĩÐ°ÑģÐ°": 4452,
      "ĠÐ²Ð¼ÐµÑģÑĤÐ¾": 4453,
      "Ġact": 4454,
      "1088": 4455,
      "ÑĪÐºÑĥ": 4456,
      "ÐŀÐ½Ð°": 4457,
      "Ġpo": 4458,
      "ĠÑģÐ²ÐµÑĢ": 4459,
      "ÑģÐ»Ñĥ": 4460,
      "Ð²Ð°Ð»Ð°ÑģÑĮ": 4461,
      "ĠÐĵÐµÑĢÐ¼Ð°": 4462,
      "ĠÐ¿Ð¾Ð²ÐµÐ´": 4463,
      "ĠÐ¿ÑĢÐ¸Ð³Ð»Ð°": 4464,
      "ÐŀÐ±": 4465,
      "Ð·Ðµ": 4466,
      "ĠÐ·Ð°Ð¿ÑĢÐµ": 4467,
      "Ġ27": 4468,
      "ĠÐ·Ð°Ð¼ÐµÑĩÐ°": 4469,
      "ĠÐ¿ÐµÑĢÐ²Ð¾Ð³Ð¾": 4470,
      "les": 4471,
      "ĠÐ¾ÑĤÐ²ÐµÑĤÑģÑĤÐ²ÐµÐ½": 4472,
      "ĠÐļÐ¾Ð½ÐµÑĩÐ½Ð¾": 4473,
      "ĠÑģÐ¸Ñħ": 4474,
      "ÑĢÐ¾Ð¿ÐµÐ¹": 4475,
      "ics": 4476,
      "ĠÐ¿ÑĢÐ°ÐºÑĤÐ¸": 4477,
      "Ġind": 4478,
      "ik": 4479,
      "ĠÐ¿ÑĥÑģÑĤÑĮ": 4480,
      "ĠÐĶÐ¸": 4481,
      "Ġfe": 4482,
      "ÐµÐ¼ÑĮ": 4483,
      "ĠÐ¡Ð¾Ð²ÐµÑĤ": 4484,
      "ĠÐ¿Ð»Ð¾ÑħÐ¾": 4485,
      "Ð°ÑĤÐµÐ»ÑĮÐ½Ð¾": 4486,
      "ĠÐºÐ¾Ð½ÑĦ": 4487,
      "ĠÐ¸Ð½ÑĦ": 4488,
      "ĠÐ°Ð½Ð°Ð»": 4489,
      "Ð¸Ð±Ð»Ð¸": 4490,
      "ĠÑĢÐµÑģÑĥÑĢ": 4491,
      "oup": 4492,
      "ĠÐºÐ°ÑĩÐµÑģÑĤÐ²Ð°": 4493,
      "ĠÐľÐ¾Ð¶Ð½Ð¾": 4494,
      "Ð°Ð½ÑĮ": 4495,
      "ĠÐ½ÐµÐ¼ÐµÑĨ": 4496,
      "27": 4497,
      "ÑĩÐ¸Ð»Ð¸": 4498,
      "ĠÑĢÐ°Ð·Ð½Ð¾": 4499,
      "ĠÐ¿ÑĢÐ¾Ð¸Ð·Ð²ÐµÐ´": 4500,
      "ÑĳÑĤÑģÑı": 4501,
      "ĠÐ¿ÑĢÐ¾ÑĨÐµÑģÑģ": 4502,
      "ĠÐĶÐ¾Ð±": 4503,
      "Ġmost": 4504,
      "ise": 4505,
      "ĠÐ´Ð²Ð¸Ð¶ÐµÐ½Ð¸Ñı": 4506,
      "ĠÐ¼Ð¾ÐµÐ³Ð¾": 4507,
      "ĠÐ²Ð½Ð¸Ð·": 4508,
      "ĠÐ¾Ð¿Ñĥ": 4509,
      "ning": 4510,
      "ĠÐ²Ð¸Ð´ÐµÐ¾": 4511,
      "ĠÑĢÐ°Ð¼ÐºÐ°Ñħ": 4512,
      "Ð¾Ð±Ð¾ÑĢÐ¾": 4513,
      "ĠÐ¿ÑĢÐ¸Ð¼ÐµÑĢÐ½Ð¾": 4514,
      "Ð°ÑĤÐµÐ»Ñı": 4515,
      "ÑİÐ±": 4516,
      "ĠÐ¿Ð¾ÑıÐ²Ð»Ñı": 4517,
      "ĠÐ´Ð°Ð½Ð½ÑĭÑħ": 4518,
      "ĠÐ¿Ð¾ÑģÐµ": 4519,
      "ÑĢÑĭÐ¼": 4520,
      "ĠÐ¿Ð¾Ð¼Ð¾ÑĩÑĮ": 4521,
      ".âĢĿ": 4522,
      "ĠÐ±Ð»Ð¸Ð¶Ð°Ð¹": 4523,
      "hing": 4524,
      "ĠÐ¾ÐºÑĢÑĥÐ¶Ð°": 4525,
      "ĠÐºÐ°ÑģÐ°": 4526,
      "ĠÐ³Ð¾ÑģÑĥÐ´Ð°ÑĢÑģÑĤÐ²Ð°": 4527,
      "Ð¶ÐµÐ¹": 4528,
      "ÑħÑĥ": 4529,
      "ĠÑĢÐµÐ»Ð¸": 4530,
      "ÑĦÐ¸ÑĨÐ¸": 4531,
      "ÑģÐ¸Ñİ": 4532,
      "ÑģÑĤÐ²ÐµÐ½Ð½Ð°Ñı": 4533,
      "ÑĢÐ¾ÑĤÐ¸Ð²": 4534,
      "ublic": 4535,
      "Ð°Ð½Ð½ÑĭÑħ": 4536,
      "33": 4537,
      "ĠÑĤÐ¾ÑĢÐ³Ð¾Ð²": 4538,
      "Ġ'": 4539,
      "ĠÐ¸Ð½Ð°ÑĩÐµ": 4540,
      "ĠÐ²Ð°Ð»": 4541,
      "Ð¹ÑĤÐµÑģÑĮ": 4542,
      "ĠÐ´Ð²Ð¾ÑĢ": 4543,
      "Ð¾Ð²ÑĭÐ¼Ð¸": 4544,
      "ĠÑĦÐ¾ÑĢÐ¼Ñĥ": 4545,
      "ĠÐ³ÑĢÑı": 4546,
      "Ð´ÑĢÐ°": 4547,
      "Ð³Ð°Ð¼Ð¸": 4548,
      "ÑĤÐµÐ»": 4549,
      "Ð³Ð¾Ð´Ð½Ð¾": 4550,
      "ĠÐĲÐ»ÐµÐºÑģÐ°Ð½Ð´ÑĢ": 4551,
      "ĠÑĥÐ±Ð¸Ð¹": 4552,
      "ased": 4553,
      "ĠÐľÐ¾ÑģÐºÐ²Ñĭ": 4554,
      "ĠÑĥÐ½Ð¸Ñĩ": 4555,
      "ĠÐ¾Ð±ÑĬÑıÐ²": 4556,
      "ĠÐ²Ð·ÑıÑĤÑĮ": 4557,
      "Ð°Ð½Ð½Ð¾Ð¹": 4558,
      "ĠÐ¿Ð¾ÑģÐ»ÐµÐ´Ð½Ð¸Ðµ": 4559,
      "ĠÐºÐ¾Ð½ÐºÑĢÐµÑĤ": 4560,
      "ĠÑģÐ°Ð¼Ð¾ÑģÑĤÐ¾ÑıÑĤÐµÐ»ÑĮ": 4561,
      "ener": 4562,
      "ĠÐ´Ð¾ÑģÑĤÐ°Ð²": 4563,
      "ÑĢÐ´": 4564,
      "ĠÐ½ÐµÐ²Ð¾Ð·Ð¼Ð¾Ð¶Ð½Ð¾": 4565,
      "ĠÐ·Ð°Ñģ": 4566,
      "ĠÐ§Ð°": 4567,
      "ĠÑģÐµÑĤ": 4568,
      "ĠÐŀÐ¿": 4569,
      "ĠÐ¸Ð½Ð´Ð¸Ð²Ð¸Ð´Ñĥ": 4570,
      "ĠRe": 4571,
      "Ð´Ð°Ð¼": 4572,
      "ĠÑĢÐ°ÑģÑħÐ¾Ð´": 4573,
      "ĠÐ·Ð°ÑıÐ²Ð¸Ð»": 4574,
      "Ð±ÑĥÑĢ": 4575,
      "ĠÑĥÐ·Ð½Ð°ÑĤÑĮ": 4576,
      "ĠÐ¼ÐµÐ´Ð¸ÑĨÐ¸Ð½": 4577,
      "ÐµÐ·Ð´Ðµ": 4578,
      "ĠÐ§ÐµÑĢ": 4579,
      "ÑĥÐºÐ¸": 4580,
      "ĠÑģÐµÐ·": 4581,
      "ĠÐ¼Ð°ÑĢÑĤÐ°": 4582,
      "ÑĩÐµÑĪÑĮ": 4583,
      "ĠÑĥÑģÐ»ÑĭÑĪ": 4584,
      "ÑĩÐ¸Ð¹": 4585,
      "Ð³Ð¸Ñı": 4586,
      "26": 4587,
      "ĠÑĪÐµÑģÑĤÑĮ": 4588,
      "Ġ26": 4589,
      "ĠÐ²Ð¾ÑģÐ¿ÑĢÐ¸": 4590,
      "Ð¾Ð»ÐµÐ²": 4591,
      "ms": 4592,
      "Ð¾ÑĤÑĢÐµÐ±": 4593,
      "ĠÐºÐ¾Ð½Ñģ": 4594,
      "ĠÐ¿ÑĢÐ¾Ð·": 4595,
      "ĠÐ½ÐµÐ¾Ð¶Ð¸Ð´Ð°Ð½": 4596,
      "ĠÐ´Ð¾Ð¿Ñĥ": 4597,
      "ĠÑĢÑĥÐº": 4598,
      "ĠÐ¿ÑĢÐ¾Ð¸Ð·Ð²Ð¾Ð´ÑģÑĤÐ²Ð°": 4599,
      "ĠÐ½Ð°ÑĪÐµÐ¼": 4600,
      "Ġpos": 4601,
      "Ð´Ð¸ÑĤÑĮ": 4602,
      "ĠÑģÐµÐ½ÑĤÑıÐ±ÑĢÑı": 4603,
      "ÑĢÐµÐ³Ð¸": 4604,
      "ĠÑģÐ²ÑıÐ·Ð°": 4605,
      "ÐµÐ½Ð½Ð¾ÑģÑĤÑĮ": 4606,
      "ĠÐ¿ÑĢÐ¾ÐµÐºÑĤÐ°": 4607,
      "ĠÑģÐµÐºÑĥÐ½": 4608,
      "ĠÑģÐ½Ñı": 4609,
      "ĠÐ´ÑĥÑĪÐµ": 4610,
      "Ð¸ÑĤÐµÐ»ÑĮÐ½ÑĭÐ¹": 4611,
      "Ġ2011": 4612,
      "ĠÐ´Ð²ÐµÑĢÐ¸": 4613,
      "ĠÐ³ÑĢÐ¸": 4614,
      "Ġ28": 4615,
      "ĠÐ¿ÑĢÐ¸Ñĩ": 4616,
      "ĠÐ´Ð°Ð»ÑĮÐ½ÐµÐ¹": 4617,
      "ÐµÑĤÐ¸ÑĩÐµÑģÐº": 4618,
      "hen": 4619,
      "ĠÑĥÑģÑĤÑĢÐ¾": 4620,
      "ĠÐĺÐ¼ÐµÐ½Ð½Ð¾": 4621,
      "ĠÑĥÐºÐ°": 4622,
      "ĠÐ²ÑĭÑģÑĤÐ°Ð²": 4623,
      "ĠÐ½Ð¸Ð¶Ðµ": 4624,
      "ĠÑĦÐ¸Ð»ÑĮÐ¼": 4625,
      "ĠÐ´ÑĢÑĥÐ³Ð¾Ð¼": 4626,
      "ĠÐ¦ÐµÐ½ÑĤ": 4627,
      "ĠÐļÐ¸": 4628,
      "Ð²ÑģÐµ": 4629,
      "ĠÐ¸Ð½ÑģÑĤÑĢÑĥ": 4630,
      "ĠÐ³Ð°ÑĢÐ°Ð½": 4631,
      "ĠÐ²Ð¾ÑģÑģÑĤÐ°Ð½Ð¾Ð²": 4632,
      "Ð³Ð°ÑĤÑĮ": 4633,
      "Ð¾Ð½Ð´": 4634,
      "ĠÐ¿ÑĢÐ¸ÑĩÐ¸Ð½": 4635,
      "ĠÑģÐ±": 4636,
      "ĠÑĢÐ°Ð·Ð½ÑĭÐµ": 4637,
      "ĠÐ½Ð¾Ñĩ": 4638,
      "Ġagain": 4639,
      "ĠÑĢÐ°ÑģÑĪÐ¸": 4640,
      "ĠÐ¶ÐµÐ½ÑīÐ¸Ð½": 4641,
      "ĠÑģÑĤÐ¾Ð»ÑĮÐºÐ¾": 4642,
      "Ð·ÑĭÐ²Ð°ÑİÑĤ": 4643,
      "Ð°Ð»Ð¾Ð²": 4644,
      "Ġback": 4645,
      "Ð¼Ð¸ÑĢÐ°": 4646,
      "Ð¶Ð½Ð¾Ð¹": 4647,
      "35": 4648,
      "ĠÐ¿ÑĢÐ¾ÑĤÐ¸": 4649,
      "ÐµÑħÐ°Ð»": 4650,
      "ĠÐ¿ÑĢÐ¸Ð´ÐµÑĤÑģÑı": 4651,
      "ĠÐĴÐ¾Ð»": 4652,
      "ĠÑĥÑĢÐ¾Ð²ÐµÐ½ÑĮ": 4653,
      "ĠÑģÐ²Ð°": 4654,
      "ĠÐºÐ¸Ð»": 4655,
      "ĠÐ¿ÑĢÐ¾ÐµÐºÑĤ": 4656,
      "Ð¶Ð°ÑĤÑĮ": 4657,
      "Ð°Ð½Ðµ": 4658,
      "ÑĩÐ¸ÐºÐ¾Ð²": 4659,
      "ty": 4660,
      "ĠÐ¿ÐµÑĢÐµÐ²Ð¾Ð´": 4661,
      "ÑĨÐ¸ÑıÑħ": 4662,
      "Ð½ÑĥÐ»Ð¸ÑģÑĮ": 4663,
      "ĠÐ¿ÑĢÐ¾Ð¼ÑĭÑĪÐ»ÐµÐ½": 4664,
      "ĠÐ¿ÐµÑĢÐ²ÑĥÑİ": 4665,
      "az": 4666,
      "ĠÐ¶ÐµÑģÑĤ": 4667,
      "ĠÑĨÐµÐ»Ð¸": 4668,
      "ĠÐ´ÑĢÑĥÐ³Ð¸Ð¼": 4669,
      "Ð½Ð¾Ð²ÑĢÐµÐ¼ÐµÐ½Ð½Ð¾": 4670,
      "Ð¾ÑĢÑĭ": 4671,
      "Ð½Ð¾ÑģÑĤÐµÐ¹": 4672,
      "ĠÐ¿Ð»Ð°ÑĤ": 4673,
      "ÑĩÐ¸ÐºÐ¸": 4674,
      "ĠÐ¼Ð»Ð½": 4675,
      "ĠÐ¾ÑħÑĢÐ°": 4676,
      "Ð·ÐµÐ¼": 4677,
      "Ð¾Ð»Ð¾Ð³Ð¸Ñı": 4678,
      "Ð»ÐµÐ½Ð½ÑĭÑħ": 4679,
      "Ð»ÐµÐ½Ð½ÑĭÐµ": 4680,
      "29": 4681,
      "ĠÐ´Ð¾Ð¼Ð°ÑĪ": 4682,
      "ĠÐŀÐŀ": 4683,
      "ĠÑĢÑĥÐºÐ°Ñħ": 4684,
      "ĠÐ¸Ð½Ð¾ÑģÑĤÑĢÐ°Ð½": 4685,
      "ĠÐºÐ¼": 4686,
      "ÑĢÐ°Ð·Ð´Ð¾": 4687,
      "ĠÐ±Ð»Ð°Ð³Ð¾": 4688,
      "ĠÑģÐ»Ð¾Ð²Ð°Ð¼": 4689,
      "ĠÐ´Ð°Ð»ÐµÐµ": 4690,
      "ĠÑģÑĤÐ°Ð½Ð´Ð°ÑĢ": 4691,
      "Ð¼ÐµÐ½ÑĮ": 4692,
      "ĠÐ¿ÑĢÐ¸Ð±Ð»Ð¸": 4693,
      "ĠÐ¼Ð³": 4694,
      "ex": 4695,
      "elf": 4696,
      "ĠÑĢÑĥÐºÐ°Ð¼Ð¸": 4697,
      "Ð´ÐµÐ¹": 4698,
      "ÑĦÐµÑĢÐµÐ½": 4699,
      "ĠÐ°Ð½Ð³Ð»Ð¸Ð¹": 4700,
      "ĠÐ´ÐµÐ»Ð°ÐµÑĤ": 4701,
      "ĠÑĩÐµÑģÑĤ": 4702,
      "Ð³Ð¾Ð¼": 4703,
      "ax": 4704,
      "ĠÐ¼Ð¾Ð½Ð°": 4705,
      "ÐµÑģÐ¿ÑĥÐ±Ð»Ð¸": 4706,
      "ĠÑģÑĩÐ°ÑģÑĤÑĮ": 4707,
      "ĠÐ²ÐµÑĢÐ¾": 4708,
      "39": 4709,
      "ĠÐ»ÑİÐ´ÑıÐ¼": 4710,
      "ÑģÑĤÐ¸Ð»": 4711,
      "ĠÐ¿ÑĢÐ¾Ð´Ð¾Ð»Ð¶Ð°": 4712,
      "ÑĨÐ¸Ð¾Ð½Ð½Ð¾Ð¹": 4713,
      "ĠÐ¿ÑĢÐ¾ÑĤÐµ": 4714,
      "ĠÑĢÐ°Ð±Ð¾Ñĩ": 4715,
      "28": 4716,
      "ject": 4717,
      "ĠÑįÐ¼Ð¾": 4718,
      "ĠÐĽÑİÐ±": 4719,
      "ĠÑģÐ¼Ð¾ÑĤÑĢÐµÑĤÑĮ": 4720,
      "ĠÑĩÑĤÐ¾Ð±": 4721,
      "ÑıÐµÑĤÑģÑı": 4722,
      "ĠÑģÐ¿ÑĢÐ°ÑĪÐ¸": 4723,
      "day": 4724,
      "Ð²ÑĪÐ°Ñı": 4725,
      "Ð°ÑĤÐµÐ»ÐµÐ¹": 4726,
      "ĠÐļÐ¾Ð»": 4727,
      "Ð±ÐµÐ»ÑĮ": 4728,
      "ĠÐĺÐ¼": 4729,
      "ĠÐ¾ÑħÐ¾ÑĤ": 4730,
      "ĠÐ¾Ð¿ÑĢÐµÐ´ÐµÐ»Ñı": 4731,
      "ĠNew": 4732,
      "ĠÐ¿Ð¾Ð¼Ð¾Ð³Ð°": 4733,
      "du": 4734,
      "Ð²ÐµÐ»": 4735,
      "ÐµÑĢÐ½Ð°": 4736,
      "ÑīÐ¸Ð¼Ð¸": 4737,
      "ool": 4738,
      "ÑĢÐ¾Ð²Ð°Ð»Ð¸": 4739,
      "ÑģÑĤÐ²Ð¸Ð¸": 4740,
      "ĠÐ¾ÐºÑĤÑıÐ±ÑĢÑı": 4741,
      "Ð½Ð°ÑĤ": 4742,
      "ĠÐ¿Ð¾Ð´Ð´ÐµÑĢÐ¶Ð¸": 4743,
      "ĠÑİÑĢÐ¸": 4744,
      "Ð¸ÑĤÐµÐ»ÑĮÐ½ÑĭÐµ": 4745,
      "ĠÑĢÐµÐ´Ð°Ðº": 4746,
      "ĠÐ³Ðµ": 4747,
      "ÑįÑĢ": 4748,
      "Ġinclud": 4749,
      "ĠÐ¡ÑĤÐ¾": 4750,
      "ĠÐ¶Ð¸Ð·Ð½": 4751,
      "ĠÐ¾ÑĤÐºÐ°Ð·": 4752,
      "ĠÑģÑħ": 4753,
      "ĠÐ±Ð¾Ð³Ð°ÑĤ": 4754,
      "ĠÐ¾ÑĢÐ³Ð°": 4755,
      "Ð»Ð¾ÑĤ": 4756,
      "ÑĤÑĥÑĢÐµ": 4757,
      "ÐĿÐĲ": 4758,
      "ĠÐ´ÐµÑģÑıÑĤ": 4759,
      "ĠÐ»ÑĮ": 4760,
      "Ġfl": 4761,
      "ÑĨÐ°Ð¼": 4762,
      "ĠÐ½ÑĭÐ½Ðµ": 4763,
      "ĠÐ²ÑģÑĤÑĢÐµÑĩÐ°": 4764,
      "Ġsec": 4765,
      "ft": 4766,
      "Ð´ÐµÑģÑıÑĤ": 4767,
      "ĠÐ¼ÐµÑģÑıÑĨÐµÐ²": 4768,
      "ĠÑģÐµÑĤÐ¸": 4769,
      "ĠÐ¿ÑĥÑĤÐµÑĪÐµ": 4770,
      "ÑĢÑĭÐµ": 4771,
      "ÑĤÐ¾Ðµ": 4772,
      "ĠÐ¸Ð´ÑĤÐ¸": 4773,
      "ÑģÐ¾ÑĤ": 4774,
      "ĠÐ¾ÑĦÐ¾ÑĢÐ¼": 4775,
      "ĠÐ³Ð»Ð°Ð·Ð°Ð¼Ð¸": 4776,
      "Ð»Ð°Ðº": 4777,
      "ĠÑĢÐ°Ð¹Ð¾Ð½Ðµ": 4778,
      "ĠÐ½ÐµÑģÐºÐ¾Ð»ÑĮÐºÐ¸Ñħ": 4779,
      "ĠÑģÐ¾ÑģÑĤÐ¾ÑıÐ½Ð¸Ð¸": 4780,
      "ĠÐ²Ð·ÑĢÐ¾ÑģÐ»": 4781,
      "ĠÐ±ÑĢÐ°ÑĤÑĮ": 4782,
      "ÐµÑĢÑĥ": 4783,
      "ows": 4784,
      "Ð¾Ð²Ð°Ð½Ð¸Ð¹": 4785,
      "ĠÐ¿Ð¾ÑģÐ¼Ð¾ÑĤÑĢÐµÑĤÑĮ": 4786,
      "Ġem": 4787,
      "Ð¸Ð¼ÑģÑı": 4788,
      "ĠÐ¾ÑģÐ²": 4789,
      "ĠÑĥÐ»Ð¸ÑĨÐµ": 4790,
      "ĠÐ±Ð¾Ð¹": 4791,
      "ĠÑĦÐ¾ÑĢÐ¼Ð°": 4792,
      "ĠÐ´ÑĢÑĥÐ³Ð¾Ðµ": 4793,
      "ĠÐ·Ð°Ð²Ð¸ÑģÐ¸ÑĤ": 4794,
      "ĠÐ²ÑģÐµÐ¼Ñĥ": 4795,
      "ĠÐ¾Ð±ÐµÑģÐ¿ÐµÑĩÐ¸": 4796,
      "ĠÐ¾Ð±Ð½Ð°ÑĢÑĥÐ¶": 4797,
      "Ð»ÑıÑĢ": 4798,
      "Ð´ÑĥÐ¼Ð°": 4799,
      "Ð³Ð¸Ð¼Ð¸": 4800,
      "ĠÐºÐ¾Ð¼Ð¿ÑĮÑİÑĤ": 4801,
      "Ð¶ÐµÐ½Ð¸Ð¸": 4802,
      "Ġinv": 4803,
      "ĠÐ·Ð°ÑīÐ¸": 4804,
      "ĠÑĥÑĩÑĢÐµÐ¶Ð´": 4805,
      "ĠÑģÐ½Ð°ÑĩÐ°Ð»Ð°": 4806,
      "ĠÐ¿Ð¾Ð´Ð¾Ð·": 4807,
      "ÐĴÐ¾": 4808,
      "ĠÐ±Ð°ÑĢ": 4809,
      "ĠÐĿÐ°Ð¿ÑĢÐ¸Ð¼ÐµÑĢ": 4810,
      "Ð¾ÑĢÐ¾ÑĪÐ¾": 4811,
      "Ð¼Ð¾Ð¹": 4812,
      "Ġwhere": 4813,
      "ÑģÐºÐ°ÑĤÑĮ": 4814,
      "???": 4815,
      "Ð¸ÑĪÑĮ": 4816,
      "Ð¾ÑĢÐµ": 4817,
      "ĠÐ½Ð¸ÐºÐ°ÐºÐ¸Ñħ": 4818,
      "ĠÐ²ÐµÐ»": 4819,
      "ĠÑĢÐ°Ð·Ð³Ð¾Ð²Ð¾ÑĢ": 4820,
      "fore": 4821,
      "Ð»ÐµÐ²": 4822,
      "ÑĪÐµÐ´": 4823,
      "ÑĪÑĤÐ°": 4824,
      "arg": 4825,
      "ĠÐ²ÑĭÐ±": 4826,
      "ĠÐ¿ÑĤÐ¸": 4827,
      "ĠÐŁÐ°Ð²": 4828,
      "ĠÐľÐ¾ÑģÐºÐ¾Ð²": 4829,
      "ĠÑħÐ°ÑĢÐ°ÐºÑĤÐµÑĢÐ¸": 4830,
      "ĠÐ´Ð½Ð¸": 4831,
      "Ð¾Ð¹Ð´ÐµÑĤ": 4832,
      "ĠÐ±Ð»Ð¾Ðº": 4833,
      "ÑĨÑĥÐ·": 4834,
      "ĠÑģÑĨ": 4835,
      "ĠÑģÐ²Ð¾ÐµÐ¼Ñĥ": 4836,
      "ĠÑĥÑĢÐ¾Ð²Ð½Ñı": 4837,
      "ĠÐ½Ð¾Ð²Ð¾Ð¹": 4838,
      "Ġyears": 4839,
      "ÑİÑīÐµÐµ": 4840,
      "ĠÐ½Ð°Ð²ÐµÑĢÐ½Ð¾Ðµ": 4841,
      "ĠÐ·Ð°Ð¿Ñĥ": 4842,
      "ĠÐłÐµÑģÐ¿ÑĥÐ±Ð»Ð¸": 4843,
      "ÐºÐ°Ð´ÐµÐ¼": 4844,
      "ĠÐ¸Ð·Ð³Ð¾ÑĤÐ¾Ð²": 4845,
      "Ġrel": 4846,
      "ĠÐ½ÐµÐºÐ¾ÑĤÐ¾ÑĢÑĭÑħ": 4847,
      "ĠÐŁÐ¾ÐºÐ°": 4848,
      "Ð¾Ð¿Ð°": 4849,
      "ĠÑĢÐµÐ¹": 4850,
      "ĠÑĥÐ²Ð¸Ð´ÐµÐ»": 4851,
      "ĠÐ²Ð°ÑĢÐ¸Ð°Ð½": 4852,
      "Ð±Ð¾Ð»": 4853,
      "ĠÑĤÑĭÑģÑıÑĩÐ¸": 4854,
      "ĠÐĲÐ´": 4855,
      "ÑĤÐ°Ð»": 4856,
      "ĠÐ¾ÑĨÐµÐ½Ð¸": 4857,
      "ĠÐ¾Ð±ÑĬÐµÐ¼": 4858,
      "ĠÑıÐ·ÑĭÐº": 4859,
      "uss": 4860,
      "ĠÐ·ÑĢÐµÐ½Ð¸Ñı": 4861,
      "ĠÑĩÐ°ÑīÐµ": 4862,
      "ĠÑģÐµÐ¼ÑĮÐ¸": 4863,
      "ĠÑĢÐµÐ³Ð¸ÑģÑĤÑĢÐ°": 4864,
      "Ġhttps": 4865,
      "ĠÑĢÐµÑĩÑĮ": 4866,
      "Ð¸Ð¼Ñĥ": 4867,
      "ĠÐ·ÐµÐ¼Ð»Ð¸": 4868,
      "ĠÐ¿ÑĢÐ°Ð²Ð¸Ð»Ð¾": 4869,
      "ĠÑĨÐ²ÐµÑĤÐ°": 4870,
      "ĠÐ½Ð¾ÑıÐ±ÑĢÑı": 4871,
      "Ð¾ÑĩÐºÐ¸": 4872,
      "ĠÐĳÐ°": 4873,
      "ĠÐ½ÐµÑĦ": 4874,
      "uring": 4875,
      "Ð²ÐµÐ¹": 4876,
      "ĠÐ¿Ð¾ÐµÐ·Ð´": 4877,
      "ĠÐ¿ÑıÑĤÐ¸": 4878,
      "ĠÐ¾ÑģÐ½Ð¾Ð²Ðµ": 4879,
      "ĠÐ½ÐµÐ´ÐµÐ»Ñİ": 4880,
      "ĠÑĥÐ´Ð°Ð»": 4881,
      "Ð¾Ð´Ñĭ": 4882,
      "Ð¸ÑĤÐµÑĤ": 4883,
      "ĠÐ³Ð¾Ð²Ð¾ÑĢÑı": 4884,
      "ĠÑĤÑĢÐ¾": 4885,
      "Ð²ÐµÐ½": 4886,
      "Ġatt": 4887,
      "Ð°Ð´Ð½Ð¾": 4888,
      "ĠÐ¸ÑĤÐ¾Ð³Ðµ": 4889,
      "Ð¾Ð¿ÑĢÐ¾Ñģ": 4890,
      "Ð¼Ð¾Ð¼": 4891,
      "))<|": 4892,
      "ÑıÑīÐ¸Ñħ": 4893,
      "ĠÐ´Ð°Ð»": 4894,
      "ode": 4895,
      "ÑģÑĤÐ²Ð¾Ð²Ð°ÑĤÑĮ": 4896,
      "ĠÑĦÐ¸Ð»": 4897,
      "iew": 4898,
      "ĠÐ¼Ð°ÑĪÐ¸Ð½Ñĭ": 4899,
      "ward": 4900,
      "1074": 4901,
      "ĠÑģÑĤÐ¾Ð»ÑĮ": 4902,
      "ÑģÑĤÐµÐ¿": 4903,
      "Ð¸ÑĤÑĥÑĤ": 4904,
      "ÑĥÑĤÑģÑı": 4905,
      "ĠÑĤÐ¾Ð±Ð¾Ð¹": 4906,
      "ÑĢÐ¾Ð²ÐºÐ¸": 4907,
      "ÑĤÐ½ÑĭÐ¹": 4908,
      "Ð·Ð°Ðº": 4909,
      "ÑĩÐºÐµ": 4910,
      "Ð¾ÑģÑĤ": 4911,
      "Ġ2010": 4912,
      "ÑĤÐ¸Ð²Ð½ÑĭÑħ": 4913,
      "ĠÐºÐ¾Ð¼Ð¸Ñģ": 4914,
      "ĠÑĢÐ¸Ñģ": 4915,
      "ĠÑģÑĥÑīÐµÑģÑĤÐ²ÑĥÐµÑĤ": 4916,
      "ĠÐºÐ»Ð°": 4917,
      "ĠÐ½Ð°ÑģÑĤÑĥÐ¿": 4918,
      "ĠÐºÐµÐ¼": 4919,
      "oth": 4920,
      "ĠÐ¼ÐµÑģÑıÑĨÐ°": 4921,
      "ÐĴÐĲ": 4922,
      "ÑĤÑĢÐ°Ðº": 4923,
      "ĠÐ¿Ð¾Ð»Ñı": 4924,
      "Ð¾Ð²Ð°Ð½Ð¸ÐµÐ¼": 4925,
      "ĠÐ¸Ð½ÑĤÐµÑĢÐµÑģÐ½Ð¾": 4926,
      "Ð°ÑĤÐµÐ¼": 4927,
      "ĠÐ¿Ð¾ÑģÐµÐ»": 4928,
      "ĠÐ´ÑĢÑĥÐ¶": 4929,
      "Ð½Ð°Ð·Ð½Ð°": 4930,
      "ĠÑģÐ¾Ð¾ÑĤÐ²ÐµÑĤÑģÑĤÐ²Ð¸Ð¸": 4931,
      "ĠÑĢÐ°ÑģÑģÐ¼Ð°ÑĤÑĢÐ¸": 4932,
      "rough": 4933,
      "ĠÐ·Ð°ÑħÐ²Ð°": 4934,
      "ĠÐłÐ¾Ð´": 4935,
      "land": 4936,
      "ĠÐ²Ð¸Ð´Ð½Ð¾": 4937,
      "ĠÑĤÐ°Ð±": 4938,
      "ative": 4939,
      "ĠÐ¡ÐµÑĢÐ³ÐµÐ¹": 4940,
      "ÑįÑĤÐ¾": 4941,
      "ĠÐ½ÐµÐ²": 4942,
      "ĠÑĥÐ½Ð¸ÑĩÑĤÐ¾Ð¶": 4943,
      "ÑīÑĥ": 4944,
      "ĠÐ³Ð¾ÑĢÐ°Ð·Ð´Ð¾": 4945,
      "ĠÐºÐ¾ÑĢÐ¸": 4946,
      "ĠÐ¿ÑĢÐµÐ´Ð¿Ð¾Ñĩ": 4947,
      "ĠÑĩÐµÐ¼Ð¿Ð¸": 4948,
      "Ġreg": 4949,
      "Ġpres": 4950,
      "ĠÐ²Ð·ÑıÑĤ": 4951,
      "37": 4952,
      "ĠÑģÑĥÑĤ": 4953,
      "ĠÐĶÐ¼Ð¸ÑĤ": 4954,
      "ÑĩÐµÑģÐºÑĥÑİ": 4955,
      "Ġ60": 4956,
      "ĠÐ¿Ð¾Ð½Ð¸Ð¼Ð°Ñİ": 4957,
      "45": 4958,
      "ĠÐĳÐµÐ»": 4959,
      "Ð½ÑıÐµÑĤÑģÑı": 4960,
      "uch": 4961,
      "Ġ196": 4962,
      "ĠAnd": 4963,
      ",\"": 4964,
      "ĠÑĥÐ»ÑĥÑĩ": 4965,
      "ĠÑĥÐ²Ð¸Ð´ÐµÑĤÑĮ": 4966,
      "ĠÐºÐ»Ð°ÑģÑģÐ¸": 4967,
      "ily": 4968,
      "ĠÐ¼ÑĭÑĪ": 4969,
      "ĠÐ»Ð¸ÑĩÐ½Ð¾": 4970,
      "ĠÑĤÑĢÑĥÐ´Ð°": 4971,
      "ĠÐ´Ð°ÑĤÑĮ": 4972,
      "ĠÐĳÑĥÐ´": 4973,
      "ĠÐ°Ñģ": 4974,
      "ĠÐ¶ÐµÑĢÑĤ": 4975,
      "ÑģÐ¾Ð½Ð°": 4976,
      "Ð´ÐµÐ¹ÑģÑĤÐ²": 4977,
      "ml": 4978,
      "ÑĤÐµÑħ": 4979,
      "Ġadd": 4980,
      "ĠÐºÐ°ÐºÑĥÑİ": 4981,
      "Ð°Ð¿": 4982,
      "ĠÐĴÐ»Ð°Ð´Ð¸Ð¼Ð¸ÑĢ": 4983,
      "ÑĤÑĥÑĢÑĥ": 4984,
      "Ð¾Ð»Ð³Ð¾": 4985,
      "ert": 4986,
      "ĠÐ¾ÑĤÐºÐ°": 4987,
      "Ġdid": 4988,
      "Ð¸ÑĤÐµÐ»ÑĮÐ½Ð¾Ð¹": 4989,
      "ĠÐ»ÑİÐ±Ð»Ñİ": 4990,
      "ĠÐ¿Ð»Ð¾Ñħ": 4991,
      "ating": 4992,
      "ĠÑħÐ¾ÑĤÐ¸ÑĤÐµ": 4993,
      "lect": 4994,
      "ĠÐ°Ð²ÑĤÐ¾ÑĢ": 4995,
      "ÑīÐ°ÑĤÑĮ": 4996,
      "ÂłÂłÂłÂł": 4997,
      "olog": 4998,
      "ĠÑĤÑĭÑģ": 4999,
      "Ð¸ÑĩÐ°": 5000,
      "pr": 5001,
      "ĠÐºÐ°Ð·Ð°Ð»Ð¾ÑģÑĮ": 5002,
      "ower": 5003,
      "Ġ29": 5004,
      "ĠÑĩÐµÐ¼Ñĥ": 5005,
      "ĠÐ·Ð°ÑĢÐ°Ð±Ð¾ÑĤ": 5006,
      "ĠÐ¼Ð¾ÑĢÐµ": 5007,
      "Ġ@": 5008,
      "Ð¸ÑģÑĭ": 5009,
      "ĠÐºÐ¾Ð¼Ð°Ð½Ð´": 5010,
      "ĠÑĤÐ°ÐºÑĥÑİ": 5011,
      "________": 5012,
      "ĠÐĳÐµÐ·": 5013,
      "Ð¶Ð°Ð»": 5014,
      "ÑİÑīÐ¸Ð¼Ð¸": 5015,
      "ĠÐ¿ÑĢÐ¸Ð½Ð°Ð´Ð»ÐµÐ¶": 5016,
      "Ð¶Ð½ÑĭÑħ": 5017,
      "ĠÐ²Ð¾Ð²ÑģÐµ": 5018,
      "ĠÐ½Ð°Ð»Ð¾Ð³": 5019,
      "ĠÐ´Ð°Ð½Ð½ÑĭÐµ": 5020,
      "ĠÐ¡Ð»": 5021,
      "49": 5022,
      "Ð°ÐºÑĥ": 5023,
      "ĠÐ²Ð¾Ð´Ñĥ": 5024,
      "ĠÐ²ÑĭÐ±Ð¸ÑĢÐ°": 5025,
      "1083": 5026,
      "ĠÑĢÑĥÐºÐ¾Ð¹": 5027,
      "ĠÐ²Ð¿ÐµÑĢÐ²ÑĭÐµ": 5028,
      "ÐµÐ¼ÑĭÐ¹": 5029,
      "ĠÑĤÐ¾ÑĩÐºÐ¸": 5030,
      "ĠÐ²ÑĩÐµÑĢÐ°": 5031,
      "ÑĩÐ°Ð»Ð¸": 5032,
      "Ð»Ð°Ð´Ñĭ": 5033,
      "ĠÑħÐ»Ðµ": 5034,
      "ĠÐ³Ð°ÑĢ": 5035,
      "ĠÑħÐ¾Ð»": 5036,
      "ĠÐ´ÑĢÑĥÐ³Ð¾Ð³Ð¾": 5037,
      "ÑĤÐµÑĢÐµ": 5038,
      "ÐµÐ½ÐºÐ¾": 5039,
      "ĠÐ½ÐµÐ¾Ð±Ñĭ": 5040,
      "ĠÑĤÑĢÑĥÐ´Ð½Ð¾": 5041,
      "21": 5042,
      "Ð¿ÐµÑĤ": 5043,
      "ĠÐ²ÑĭÑıÑģ": 5044,
      "ĠÐĴÐ¸": 5045,
      "Ð¼Ð¾ÑĢ": 5046,
      "ĠÐ¾Ð¿ÑĥÐ±Ð»Ð¸": 5047,
      "ĠÐ¼Ð°ÑĤÑĮ": 5048,
      "ther": 5049,
      "ments": 5050,
      "ĠÐºÐ½Ñı": 5051,
      "ÑĨÐµÐ»": 5052,
      "ĠÐĺÐ½ÑĤÐµÑĢ": 5053,
      "Ð½Ð¾Ð·": 5054,
      "ĠÐ°Ð¿ÑĢÐµÐ»Ñı": 5055,
      "ater": 5056,
      "ork": 5057,
      "Ġph": 5058,
      "ĠAr": 5059,
      "ÑĤÐµÐ»ÑĮÐ½ÑĭÐ¹": 5060,
      "ĠÐ¿ÑĢÑıÐ¼": 5061,
      "ĠÑģÑĤÐ¾ÑĢÐ¾Ð½": 5062,
      "ĠÐ¼ÑĥÐ¶ÑĩÐ¸Ð½": 5063,
      "ĠÑĤÐ°ÐºÐ¾Ð¼": 5064,
      "ĠÑĥÐºÐ°Ð·Ð°": 5065,
      "ĠÐ·Ð°Ð¿Ð¾Ð»": 5066,
      "ĠÐ²ÑĭÐ²Ð¾Ð´": 5067,
      "ix": 5068,
      "ĠÑģÐ¾Ð¶Ð°Ð»": 5069,
      "ĠÑĢÐµÐ²Ð¾Ð»Ñİ": 5070,
      "ÑĩÐ½Ð¾ÑģÑĤÑĮ": 5071,
      "ĠÑĢÐµÐ°Ðº": 5072,
      "ĠDe": 5073,
      "ÐŁÐµÑĤÐµÑĢÐ±ÑĥÑĢ": 5074,
      "ĠÑĢÐµÑģÐ¿": 5075,
      "ÑĤÐ¸ÑĤ": 5076,
      "Ð°Ð½ÐºÑĤ": 5077,
      "ĠÐ½Ð°ÑģÐ»ÐµÐ´": 5078,
      "ĠÐ¿Ð¾Ð´ÑĬ": 5079,
      "ĠÐ¿ÑĢÐ°Ð²Ð¸Ð»Ð°": 5080,
      "Ð¾Ð±Ð¸Ð»ÑĮ": 5081,
      "meric": 5082,
      "Ġthese": 5083,
      "ĠÐºÑĥÐ»ÑĮÑĤÑĥÑĢÑĭ": 5084,
      "ĠÑĢÐµÐ·ÑĥÐ»ÑĮÑĤÐ°ÑĤ": 5085,
      "Ġdif": 5086,
      "Ð»ÑıÐµÑĤ": 5087,
      "ĠÐ½Ð°Ð·Ð²Ð°Ð½Ð¸Ðµ": 5088,
      "ĠÐ²Ð½Ð¸Ð¼Ð°Ð½Ð¸Ñı": 5089,
      "ĠÐĺÑħ": 5090,
      "ĠÐºÐ¸Ð²": 5091,
      "Ð»Ð¸ÑĤ": 5092,
      "ĠÐ¿Ð¾ÑĢÑıÐ´ÐºÐµ": 5093,
      "ĠÐºÐ°Ð±Ð¸Ð½": 5094,
      "ĠÐ¿Ð¾Ð¿ÑĢÐ¾Ð±": 5095,
      "ĠÐ¾Ð±ÑıÐ·Ð°Ð½": 5096,
      "ĠÐ·Ð°ÐºÐ¾Ð½Ð¾Ð´Ð°ÑĤÐµÐ»ÑĮ": 5097,
      "ÑģÑĤÑĢÐ°Ð¸": 5098,
      "Ð»ÐµÐ½Ð½ÑĭÐ¹": 5099,
      "ĠÑģÐ¾Ð±ÑĭÑĤÐ¸Ñı": 5100,
      "ĠÐĴÐ¸Ðº": 5101,
      "ystem": 5102,
      "Ð³Ð°ÑĢ": 5103,
      "ÐµÑĤÑĥ": 5104,
      "Ġsupp": 5105,
      "ful": 5106,
      "ĠÐ¿ÑĢÐ¸Ðº": 5107,
      "ĠÐ²Ð»Ð°Ð´": 5108,
      "Ġnow": 5109,
      "ÑĢÐ°ÑĤÑĮ": 5110,
      "ars": 5111,
      "Ð¾Ð³Ð»Ð°Ñģ": 5112,
      "ĠÐ¸ÑİÐ½Ñı": 5113,
      "ĠÑĤÐ¾Ð²Ð°ÑĢÐ¸": 5114,
      "ĠÐ²Ð¸Ð´ÐµÑĤÑĮ": 5115,
      "ĠThis": 5116,
      "ĠÐ¾ÐºÐ°Ð·Ð°Ð»ÑģÑı": 5117,
      ",âĢĿ": 5118,
      "ĠÐ´ÑĥÑĪÐ¸": 5119,
      "ĠÐ¾Ð±ÑīÐµÑģÑĤÐ²Ð°": 5120,
      "ĠÐ²Ð°ÑĢÐ¸Ð°Ð½ÑĤ": 5121,
      "ĠÐľÐ¾ÑģÐºÐ²Ð°": 5122,
      "02": 5123,
      "ÑĨÐ¸Ð°": 5124,
      ")))<|": 5125,
      "05": 5126,
      "tle": 5127,
      "ĠÐĿÐ¸ÐºÐ¾Ð»": 5128,
      "Ġthen": 5129,
      "ĠÐ¼Ð°Ð¼Ð°": 5130,
      "Ġrem": 5131,
      "ĠÐ¸ÑģÑĤÐ¾ÑĢÐ¸Ñı": 5132,
      "ĠÐ¸ÑģÑĩÐµÐ·": 5133,
      "ĠÐµÐ´Ð¸": 5134,
      "ĠÐļÐ¸Ðµ": 5135,
      "Ð»ÑİÐ´": 5136,
      "Ð²Ð°Ð»Ð¾": 5137,
      "ting": 5138,
      "ular": 5139,
      "ĠUni": 5140,
      "Ð²Ð°Ð½Ð¸ÐµÐ¼": 5141,
      "ĠÐ½ÐµÐ¿Ð¾Ñģ": 5142,
      "ÐķÐł": 5143,
      "ĠÑĢÐ°Ð¹Ð¾Ð½": 5144,
      "ĠÐĶÐµ": 5145,
      "ĠÐ½Ð°ÑĢ": 5146,
      "ĠÑģÐ¾Ðº": 5147,
      "ĠÐµÐ²ÑĢÐ¾Ð¿ÐµÐ¹": 5148,
      "ĠÑĢÑĭÐ±": 5149,
      "Ð´Ð°Ð¼Ð¸": 5150,
      "ĠÐ·Ð¾Ð»Ð¾ÑĤ": 5151,
      "ĠAl": 5152,
      "ÐļÑĤÐ¾": 5153,
      "ĠÐ¿Ð¾ÑĢÐ°": 5154,
      "ĠÑĢÐ¾Ð¶Ð´ÐµÐ½Ð¸Ñı": 5155,
      "ĠÑĤÐµÐ»ÐµÑĦ": 5156,
      "ĠÐ½Ð°ÑģÑĤÐ¾Ð»ÑĮÐºÐ¾": 5157,
      "Ð¸Ð³ÑĢÐ°": 5158,
      "ĠÐ¸ÑİÐ»Ñı": 5159,
      "ĠÐ¸Ð·Ð¼ÐµÐ½ÐµÐ½Ð¸Ñı": 5160,
      "ĠÑĢÐ°ÑģÐ¿ÑĢÐ¾ÑģÑĤÑĢÐ°Ð½": 5161,
      "ĠÐ²Ð¾Ð·Ð½Ð¸ÐºÐ°": 5162,
      "ĠÑģÐ¾ÑģÑĤÐ°Ð²Ð»ÑıÐµÑĤ": 5163,
      "ĠÑĥÑĢÐ¾Ð²Ð½Ðµ": 5164,
      "ĠÐ¿Ð¾Ð³Ð¸Ð±": 5165,
      "ĠÑĪÐºÐ¾Ð»Ñĭ": 5166,
      "ific": 5167,
      "Ð¾Ð¶Ð´ÐµÐ½Ð¸Ðµ": 5168,
      "ĠÐºÐ»Ñİ": 5169,
      "ĠÐ¿Ð»Ñİ": 5170,
      "ĠÐ´ÐµÐ¿ÑĥÑĤÐ°": 5171,
      "Ð¸Ð»Ñı": 5172,
      "the": 5173,
      "ÑĩÐµÐ½Ð¸Ð¸": 5174,
      "ĠÐ°Ñį": 5175,
      "Ġob": 5176,
      "ĠÐºÐ°ÑĢÑĤÐ¸Ð½": 5177,
      "ĠÑĦÐ¸Ð½Ð°Ð½Ñģ": 5178,
      "ÑİÑīÑĥÑİ": 5179,
      "ÑĨÐ°ÑĤÐ¸": 5180,
      "ĠÐ²Ð¾Ð»Ð¾ÑģÑĭ": 5181,
      "ÑĢÐ°Ð¹": 5182,
      "ĠÐºÐ¾Ð½ÑĤÐ°Ðº": 5183,
      "Ġ000": 5184,
      "Ð¸Ð¼Ð°": 5185,
      "als": 5186,
      "38": 5187,
      "Ġacc": 5188,
      "ÐµÑĢÐºÐ²Ð¸": 5189,
      "ĠÐºÐ¾Ð½ÑĨ": 5190,
      "ĠÑĥÑģÐ¸Ð»Ð¸": 5191,
      "ĠÐĿÐĲ": 5192,
      "ĠÐ²ÑģÐµÐ¼Ð¸": 5193,
      "ourn": 5194,
      "ĠÐ´Ð¾Ð³Ð¾Ð²Ð¾ÑĢ": 5195,
      "ÑģÐ°Ð¼Ð¸": 5196,
      "ÑĩÐµÐ½Ð¾": 5197,
      "ĠÐºÑĢÐ¾Ð²Ð¸": 5198,
      "55": 5199,
      "ĠÐºÐ°ÑĢÑĤÐ¸": 5200,
      "ĠÑĤÑİ": 5201,
      "Ð¿Ð°Ð½Ð¸Ñı": 5202,
      "ÑĤÑĭÐ¼": 5203,
      "Ġdec": 5204,
      "ĠÑĤÑĢÑĥÐ±": 5205,
      "ason": 5206,
      "ĠÐ¿Ð¾Ð²Ð¾Ð´Ñĥ": 5207,
      "Ð¿Ð¾Ñģ": 5208,
      "Ð´Ð°ÑĤÐµÐ»ÑĮ": 5209,
      "ĠÐ±ÑĢÐ¾": 5210,
      "ins": 5211,
      "Ð·Ð°Ð¿": 5212,
      "ĠÐ¿ÑĢÐµÐ´Ð½Ð°Ð·Ð½Ð°": 5213,
      "ÐłÐ°Ð·": 5214,
      "ĠÑģÐ¾Ð²ÐµÑĢÑĪÐµÐ½": 5215,
      "Ð°Ð½Ñģ": 5216,
      "ĠÐ°ÑĢÐ¼Ð¸Ð¸": 5217,
      "ĠÑĨÐµÐ»Ð¾Ð¼": 5218,
      "ÐµÑĢÐ¾Ð¼": 5219,
      "ĠÐ¿Ð¾ÑģÐ»ÐµÐ´Ð½Ð¸Ð¹": 5220,
      "Ð°Ð³Ð¸": 5221,
      "ÑĪÑĥÑİ": 5222,
      "ĠÐ¸Ð·ÑĥÑĩ": 5223,
      "ĠÐ¾ÑĩÐ¸": 5224,
      "ĠÑģÐ¼ÑĭÑģÐ»": 5225,
      "Ġbr": 5226,
      "ÑīÐ¸Ðº": 5227,
      "ĠÑģÐ²Ð¸Ð´ÐµÑĤÐµÐ»ÑĮ": 5228,
      "Ð·Ð°Ñħ": 5229,
      "ĠÑĥÑģÐ»ÑĥÐ³Ð¸": 5230,
      "Ð¾ÑĤÑĥ": 5231,
      "ĠÑģÑĤÐµÐ¿ÐµÐ½Ð¸": 5232,
      "ĠÐ¿ÑĢÐ¾Ð¸Ð·Ð¾ÑĪÐ»Ð¾": 5233,
      "ank": 5234,
      "ĠÐ»Ð¾Ð²": 5235,
      "ek": 5236,
      "ÑįÐ¹": 5237,
      "ĠÐ½Ð°ÑģÑĤÐ¾ÑıÑīÐµÐµ": 5238,
      "ĠÐľÐ°ÑĢÐ¸": 5239,
      "ÐºÐ¾ÑĤÐ¾ÑĢÑĭ": 5240,
      "ĠÐ¼Ð³Ð½Ð¾Ð²": 5241,
      "ities": 5242,
      "ĠÐ´Ð²ÑĥÐ¼": 5243,
      "ĠÐ¿ÐµÑĢÑģÐ¾Ð½": 5244,
      "ĠÐµÐ´Ð²Ð°": 5245,
      "ĠÐ¿ÑĢÐµÐ´Ð¿ÑĢÐ¸ÑıÑĤÐ¸": 5246,
      "ĠÐ°Ð²Ð³ÑĥÑģÑĤÐ°": 5247,
      "ĠÐ¾Ð´Ð½Ð¾Ð²ÑĢÐµÐ¼ÐµÐ½Ð½Ð¾": 5248,
      "ĠÐ½Ð¾Ð¶": 5249,
      "ĠÐ´Ð¾Ð»Ð»Ð°ÑĢÐ¾Ð²": 5250,
      "Ġstud": 5251,
      "ĠÐĳÐ»Ð°": 5252,
      "ĠCom": 5253,
      "ĠÐ³Ð»ÑĥÐ¿": 5254,
      "ĠÐľÐ°Ðº": 5255,
      "ĠÐ·Ð°Ð¿Ð°Ð´": 5256,
      "ĠÐĵÐ¾ÑĢ": 5257,
      "ĠÐ¼ÐµÑĤÑĢÐ¾Ð²": 5258,
      "ĠÐ¿ÑĢÐ¾ÑĤÐ¸Ð²Ð¾": 5259,
      "Ð¾ÑĤÐ½Ð¾": 5260,
      "Ð½Ð¸Ð¼Ð°Ð»": 5261,
      "ĠÑģÑĤÐ°ÑĤÑĮÐ¸": 5262,
      "ĠÐŁÑĢÐ¾ÑģÑĤÐ¾": 5263,
      "ĠÐ½ÐµÐ·Ð°Ð²Ð¸Ñģ": 5264,
      "ĠÑģÐ²ÐµÑĢÑħ": 5265,
      "36": 5266,
      "ĠÐŃÑĤÐ¸": 5267,
      "Ð¸ÑĤÐµÐº": 5268,
      "ĠÑĥÐ±Ðµ": 5269,
      "Ð¾Ð¿ÑĭÑĤ": 5270,
      "ĠÐ³Ð¸": 5271,
      "www": 5272,
      "ĠÐ¿Ð¾ÑģÐ²ÑıÑī": 5273,
      "ĠÐ¾Ð±ÑģÐ»ÑĥÐ¶Ð¸": 5274,
      "Ġ|": 5275,
      "Ð¼ÐµÐ½ÑĤÑĭ": 5276,
      "Ð²Ð¸Ð²": 5277,
      "pos": 5278,
      "ĠÐľÐµÐ¶Ð´Ñĥ": 5279,
      "ÑĤÐ¸Ð»Ð°": 5280,
      "ĠÑģÐ¾Ð¾Ð±ÑīÐ°ÐµÑĤ": 5281,
      "ĠÑģÐ¼Ð¾ÑĤ": 5282,
      "ĠÑģÐ²ÑıÑĤ": 5283,
      "Ð¼Ð¾ÑĤÑĢÐµÐ»Ð°": 5284,
      "ĠÑĥÐ½Ð¸Ðº": 5285,
      "ĠÐŁÐ¾ÑĤÐ¾Ð¼Ñĥ": 5286,
      "34": 5287,
      "Ġthrough": 5288,
      "Ġmod": 5289,
      "ĠÐ´ÑĢÑĥÐ³Ð¸Ð¼Ð¸": 5290,
      "ÑĢÐµÐ´ÐµÐ»": 5291,
      "ĠÐ·Ð»": 5292,
      "ĠÐ²Ð¸Ð´Ñĥ": 5293,
      "ÑģÐºÐ¾ÑĢÐµ": 5294,
      "ĠÐ³ÑĢÐ°Ð¶Ð´Ð°": 5295,
      "ange": 5296,
      "ÑİÑīÐ¸ÑħÑģÑı": 5297,
      "ĠÑħÑĥÐ´Ð¾Ð¶": 5298,
      "ĠÐ²Ð¿ÐµÑĢÐµÐ´": 5299,
      "ĠÐ¼ÑĥÐ¶ÑĩÐ¸Ð½Ñĭ": 5300,
      "ĠÑģÐ¾ÑģÑĤÐ¾ÑıÐ½Ð¸Ðµ": 5301,
      "ÑĳÐ·": 5302,
      "Ð½ÐµÑģÑĤÐ¸": 5303,
      "ĠÐ·Ð½Ð°ÐµÑĤÐµ": 5304,
      "ĠÐ´Ð¾Ð¶Ð´": 5305,
      "ĠÐŀÑģÐ¾Ð±": 5306,
      "ĠÐ¾ÑĤÐºÑĥÐ´Ð°": 5307,
      "ĠÐ¿Ð°Ð»": 5308,
      "ĠÐ½Ð°Ð¿Ð¸ÑģÐ°": 5309,
      "ah": 5310,
      "ÐºÑģ": 5311,
      "ĠÐ²ÑĭÑĪÐµÐ»": 5312,
      "ĠÐ¿Ð¾ÑĩÑĥÐ²ÑģÑĤÐ²": 5313,
      "iel": 5314,
      "ÑĢÐ¸ÐºÐ°": 5315,
      "ÐļÐ°": 5316,
      "Ġeven": 5317,
      "ĠÐŃÑĤÐ°": 5318,
      "ĠÑĨÐ¸ÑĦ": 5319,
      "ĠÐļÑĥ": 5320,
      "ĠÐ¶ÑĥÑĢÐ½Ð°Ð»Ð¸": 5321,
      "ÑĩÐ°Ð»Ð°": 5322,
      "ĠÐ¼Ð½Ð¾Ð¶ÐµÑģÑĤÐ²Ð¾": 5323,
      "ĠÐ³Ð¾Ð»Ð¾Ð²Ðµ": 5324,
      "ĠÐ¿ÑĢÐµÐ´ÑĥÑģ": 5325,
      "ĠÐ±ÑĥÑĢ": 5326,
      "Ð½ÑıÐµÑĤ": 5327,
      "ÐķÐĿ": 5328,
      "Ġcall": 5329,
      "ĠÐ·Ð°Ð²ÐµÐ´": 5330,
      "Ð¸ÑĤÐµÐ»ÐµÐ¼": 5331,
      "ĠÐ¿ÑĢÐ¸ÐºÐ°Ð·": 5332,
      "Ð¾ÑģÐ¸": 5333,
      "ĠÐ¶Ð¸Ð»Ð¸": 5334,
      "ĠÑĤÑĢÐµÐ±Ð¾Ð²Ð°Ð½Ð¸Ñı": 5335,
      "ĠÐ¿Ð¾Ð´Ð¿Ð¸Ñģ": 5336,
      "Ð°ÑĢÐ¾Ð²": 5337,
      "ven": 5338,
      "ife": 5339,
      "ĠÐ¿Ñĭ": 5340,
      "ĠÐłÑĥÑģ": 5341,
      "Ð´ÑĥÐ¼Ñĭ": 5342,
      "Ð°Ð½Ð½Ð°Ñı": 5343,
      "Ġbu": 5344,
      "ĠÐ¾ÑĤÑĨÐ°": 5345,
      "ÐµÑħÐ°ÑĤÑĮ": 5346,
      "ĠÑģÐ°Ð¼Ð¾Ð»": 5347,
      "ÑĤÐµÐ¿": 5348,
      "ĠÐ´Ð°Ð½Ð½ÑĭÐ¼": 5349,
      "ÑĩÐµÐ½Ñĭ": 5350,
      "ÐºÐ¾ÑģÑĤÑĮ": 5351,
      "ĠÐ¾ÑģÐ½Ð¾Ð²Ð½Ð¾Ð¼": 5352,
      "Ġdef": 5353,
      "ÑģÑĤÐ²Ð¸ÐµÐ¼": 5354,
      "ĠÑĥÑĩÐ¸ÑĤ": 5355,
      "ÑıÑīÐ¸Ðµ": 5356,
      "Ð¾Ð´Ð¸": 5357,
      "ĠÐ±Ð»Ðµ": 5358,
      "ĠÑĢÐ°Ð·Ð²Ðµ": 5359,
      "ĠÐ¡Ð¿Ð°ÑģÐ¸Ð±Ð¾": 5360,
      "ÑĨÐ¾": 5361,
      "ĠÑĥÑģÐ¿ÐµÑħ": 5362,
      "ĠÑģÐ¾Ð¿ÑĢÐ¾Ð²": 5363,
      "Th": 5364,
      "ĠÐ³Ð¾ÑģÐ¿Ð¾Ð´": 5365,
      "ĠÐ½Ð°ÑĩÐ°Ð»Ð¸": 5366,
      "ble": 5367,
      "ĠÑĢÐ°Ð·Ð±": 5368,
      "ÑĪÐ¸ÑĤÑĮ": 5369,
      "Ġrep": 5370,
      "ÐľÐ½Ðµ": 5371,
      "Ġwell": 5372,
      "ĠÐ²ÑģÑĤÑĥÐ¿": 5373,
      "Ð´Ð°Ð»Ð°": 5374,
      "ĠÐ²Ð¾Ð¾ÑĢÑĥÐ¶": 5375,
      "ĠÐ°Ð²ÑĤÐ¾Ð¼Ð¾Ð±Ð¸Ð»ÑĮ": 5376,
      "ÑĤÐ¸Ð²Ð½Ð¾": 5377,
      "04": 5378,
      "ĠÐ·Ð²Ð¾Ð½": 5379,
      "ĠÑĢÑĭÐ½ÐºÐµ": 5380,
      "ĠÐ´Ð¾Ñģ": 5381,
      "ĠÑĤÐºÐ°": 5382,
      "ÑĤÐ°ÐµÑĤ": 5383,
      "ĠÑĨÐµÐ½ÑĤÑĢÐµ": 5384,
      "Ġass": 5385,
      "ĠÑĦÐ¾ÑĢÐ¼Ðµ": 5386,
      "ĠÑĩÐ°Ð¹": 5387,
      "Ð°ÑĤÑĥ": 5388,
      "ĠÐ¿Ð¾ÑħÐ¾Ð¶": 5389,
      "ĠÐŁÐ°ÑĢ": 5390,
      "ĠÐ´Ð°ÐµÑĤ": 5391,
      "ÑĤÐ¸ÐºÐ°": 5392,
      "ĠÐ¾Ð¿ÑĢÐµÐ´ÐµÐ»ÐµÐ½": 5393,
      "Ġbecause": 5394,
      "Ð¸ÑĤÐµÐ»ÑĮÐ½ÑĭÑħ": 5395,
      "ĠÑĦÐµÐ´ÐµÑĢÐ°": 5396,
      "ĠÐºÐ¾Ð¼Ð°Ð½Ð´Ð¸": 5397,
      "ĠÑĢÐ°Ð½ÐµÐµ": 5398,
      "ĠÑģÐ¾ÐºÑĢÐ°": 5399,
      "ÑĥÑİÑīÐ¸Ð¹": 5400,
      "ĠÐ¼Ð°ÑģÑģ": 5401,
      "ĠÐ¡Ð²": 5402,
      "ÑĢÐ°Ð²Ð¸ÑĤÑĮ": 5403,
      "ÑīÐµÑģÑĤÐ²Ð¾": 5404,
      "ĠÐ¼Ð¼": 5405,
      "ÑĥÐ»ÑĮÑĤ": 5406,
      "ĠÐ·Ð°Ð¼ÐµÑĤÐ¸Ð»": 5407,
      "ĠÑĨÐµÐ»ÑĮÑİ": 5408,
      "ĠÐ³ÑĢÑĥÐ¿Ð¿Ð°": 5409,
      "ĠÑĥÑģÑĤ": 5410,
      "ince": 5411,
      "Ð¸ÑĤÐµÐ»ÑıÐ¼Ð¸": 5412,
      "ĠÐĹÐ°ÑĤÐµÐ¼": 5413,
      "Ð½ÑĥÐ¶Ð´": 5414,
      "ÐµÐ½Ð½ÑĥÑİ": 5415,
      "Ġmay": 5416,
      "ĠÐºÐ¾Ð¼Ð¿Ð»ÐµÐºÑģ": 5417,
      "Ġmany": 5418,
      "ĠÐ´ÐµÑĢ": 5419,
      "ĠÐ¿Ð¾Ð»Ðµ": 5420,
      "ĠÐ´ÑĢ": 5421,
      "ÐµÐ´Ð¶": 5422,
      "ĠÐ³ÑĢÑĥÐ´": 5423,
      "ÑĢÐ¾ÑģÑĤ": 5424,
      "ĠÑĨÐµÐ½ÑĤÑĢ": 5425,
      "Ð»ÑıÐ½": 5426,
      "ĠÑģÐ¿Ð¾ÐºÐ¾Ð¹Ð½Ð¾": 5427,
      "ĠÐ½ÐµÐ´ÐµÐ»Ð¸": 5428,
      "Ġfin": 5429,
      "overn": 5430,
      "09": 5431,
      "ÑĬÐµÐº": 5432,
      "ĠÐ±ÑĥÑĤ": 5433,
      "ĠÑıÐ²Ð½Ð¾": 5434,
      "ÑĥÐ¼Ð°Ð»Ð°": 5435,
      "ĠÐ¡Ð»ÐµÐ´": 5436,
      "Ð»Ð¸Ð¼": 5437,
      "ĠÐ·Ð°Ñī": 5438,
      "ĠÐºÐ°ÐºÐ¾Ð³Ð¾": 5439,
      "ĠÐ½ÑĥÐ¶ÐµÐ½": 5440,
      "ĠÐ¾ÑĩÐµÐ²Ð¸Ð´": 5441,
      "Ġsub": 5442,
      "Ð³Ð¾Ð½": 5443,
      "its": 5444,
      "ĠÐ²Ð¾ÑģÐµÐ¼ÑĮ": 5445,
      "ĠÐ¿ÐµÑĢÐµÐ¶Ð¸": 5446,
      "ÐµÑĪÑĮÑģÑı": 5447,
      "ĠÑįÐºÑģÐ¿Ð»Ñĥ": 5448,
      "Ð¾ÑģÑĤÑĮ": 5449,
      "Ġbeing": 5450,
      "ĠÐ·Ð°Ð²Ð¸ÑģÐ¸Ð¼Ð¾ÑģÑĤÐ¸": 5451,
      "ute": 5452,
      "Ġsuch": 5453,
      "ÑĢÐµÐ³Ð¸ÑģÑĤÑĢÐ¸": 5454,
      "Ġi": 5455,
      "ĠÐºÐ¾ÑģÑĤ": 5456,
      "ĠÑĢÐ¾Ð´Ð°": 5457,
      "ĠÐ¿Ð¾Ð·Ð²Ð¾": 5458,
      "ÑĩÐ°Ð¼Ð¸": 5459,
      "ÐµÐ¼Ð¾Ð¹": 5460,
      "ĠÐ¾Ð±ÑĬÐµÐ´Ð¸Ð½": 5461,
      "ÑģÐºÐ°Ð¶Ð¸ÑĤÐµ": 5462,
      "ÐķÐ¢": 5463,
      "ĠÐľÐ¸ÑħÐ°": 5464,
      "ĠÑĩÐµÐ»Ð¾Ð²ÐµÐºÐ¾Ð¼": 5465,
      "ĠÑģÐ¼ÐµÑĪ": 5466,
      "ĠÑĪÐºÐ¾Ð»ÑĮ": 5467,
      "html": 5468,
      "ĠAmeric": 5469,
      "Ð½Ð¾Ð²Ð°Ð½Ð¸Ñı": 5470,
      "Ġinc": 5471,
      "ĠÑĤÐµÐ¼Ñĥ": 5472,
      "Ð¾Ð±Ð¾ÑĢÐ¾ÑĤ": 5473,
      "ĠÑģÐ»ÑĥÐ¶Ð±Ñĭ": 5474,
      "Ġneed": 5475,
      "gan": 5476,
      "ĠÑģÑĤÐ¾Ð¸Ð¼Ð¾ÑģÑĤÑĮ": 5477,
      "ĠÐ¼Ð¾Ð´ÐµÐ»Ð¸": 5478,
      "ĠÑĢÐµÑģÐ¿ÑĥÐ±Ð»Ð¸": 5479,
      "ÑĨÐ¸Ð¾Ð½Ð½ÑĭÐµ": 5480,
      "ĠÑĢÐ¾Ð»Ð¸": 5481,
      "Ġ:)": 5482,
      "ĠÐ¾ÑĤÐ½Ð¾ÑĪÐµÐ½Ð¸Ð¸": 5483,
      "07": 5484,
      "ÑģÐ¿Ð¾ÑģÐ¾Ð±": 5485,
      "!..": 5486,
      "aw": 5487,
      "ĠÐ¾ÑĦ": 5488,
      "ĠÐ·ÐµÐ¼Ð»Ðµ": 5489,
      "ĠÐ¸ÑģÑħÐ¾Ð´": 5490,
      "ĠÑĨÐµÐ½Ñĭ": 5491,
      "ĠÐºÐ°Ð¶Ð´Ð¾Ð¹": 5492,
      "ĠÐŁÐŀ": 5493,
      "ĠEn": 5494,
      "ÑĤÐ¸ÑĩÐµÑģÐºÐ¸Ñħ": 5495,
      "ĠÐ½ÐµÑĳ": 5496,
      "ĠÐ½Ð°ÑĢÐ¾Ð´Ð°": 5497,
      "ĠÑħÐ¾Ð´Ðµ": 5498,
      "ÑĥÑİÑīÐµÐ³Ð¾": 5499,
      "ĠÑģÐ¿Ð¸": 5500,
      "ĠÐ²Ð°ÑĪÐµÐ¹": 5501,
      "ĠÑĩÐµÐ»Ð¾Ð²ÐµÐºÑĥ": 5502,
      "Ð·ÑĭÐ²Ð°Ð»": 5503,
      "Ð¾Ð¿ÑĢÐ¸": 5504,
      "ĠÐ¼ÐµÐ´Ð»ÐµÐ½Ð½Ð¾": 5505,
      "ween": 5506,
      "ĠÐĲÐ»ÑĮ": 5507,
      "Ð¾Ð²Ð°Ð»Ð¾": 5508,
      "ĠÑģÐ´Ð°": 5509,
      "ric": 5510,
      "ĠLe": 5511,
      "ÑĨÐ¸ÑıÐ¼Ð¸": 5512,
      "ĠÐ¡Ð¾Ð±": 5513,
      "Ð½Ð¸ÑĨÐ¸Ð¿": 5514,
      "ull": 5515,
      "ÑıÑīÐ¸Ð¹": 5516,
      "ÐµÐ²Ð¸Ñĩ": 5517,
      "ĠÐ¿ÑĢÐµÐ´ÑĥÐ¿": 5518,
      "Ð½Ð¾Ð³Ð¸Ðµ": 5519,
      "ĠÐ¡Ð°Ð½ÐºÑĤ": 5520,
      "ution": 5521,
      "ĠÐ¿ÑĢÐ¸Ð»Ð¾Ð¶": 5522,
      "Ð¾Ð²Ð¸": 5523,
      "mp": 5524,
      "und": 5525,
      "ĠÑĤÐ¾ÑĢÐ³": 5526,
      "ĠÐ¸Ð±Ð¾": 5527,
      "ĠÐ²Ð¾Ð·Ð´ÐµÐ¹ÑģÑĤÐ²": 5528,
      "orn": 5529,
      "ĠÐ¿Ð°Ð¼ÑıÑĤ": 5530,
      "ĠÐ¸Ð½ÑĦÐ¾ÑĢÐ¼Ð°ÑĨÐ¸Ñı": 5531,
      "Ð¾Ñĥ": 5532,
      "ĠÐµÐ·": 5533,
      "ĠÐ¿Ð¾Ð´Ñģ": 5534,
      "Ð²Ð¾Ð·ÑĮ": 5535,
      "Ħĸ": 5536,
      "Ġevery": 5537,
      "ĠÑģÑĤÐ°ÑĤÑĥ": 5538,
      "ĠÐ¡Ð²ÐµÑĤ": 5539,
      "ĠÐĵÐ´Ðµ": 5540,
      "ĠÐĴÐµ": 5541,
      "Ð³ÐµÐ½": 5542,
      "ĠÐ·ÐµÐ¼Ð»Ñİ": 5543,
      "ĠÑĤÐµÑĢÐ¿": 5544,
      "ĠÐ·Ð½Ð°ÐµÑĪÑĮ": 5545,
      "ĠÐ¡Ð¾Ð»": 5546,
      "ton": 5547,
      "ĠÐ¿Ð°Ð»Ð°": 5548,
      "ĠÐ½Ð°ÑĪÐ°": 5549,
      "ĠÑĢÐµÐ¿": 5550,
      "ĠÐ¾Ð±ÑģÑĤÐ¾ÑıÑĤÐµÐ»ÑĮ": 5551,
      "06": 5552,
      "ĠÐ»Ð¾Ð³Ð¸": 5553,
      "ĠÐ²Ð·ÑıÐ»": 5554,
      "ĠÐ¼Ð°ÑĤÐµÑĢÐ¸Ð°Ð»Ñĭ": 5555,
      "Ð¾Ñħ": 5556,
      "Ð»Ð°Ð±": 5557,
      "Ð¢Ðµ": 5558,
      "ĠÐ²Ð°ÑĪÐµÐ³Ð¾": 5559,
      "ÐŀÐ´": 5560,
      "ĠÐ´ÐµÐ¼Ð¾Ð½": 5561,
      "ĠÑĦÑĢÐ¾Ð½": 5562,
      "ÐµÐ½Ð½ÑĭÐ¼Ð¸": 5563,
      "ÐĲÐŀ": 5564,
      "Ð³ÑĢÐ°Ð´": 5565,
      "ĠÑĥÐ±ÐµÐ´": 5566,
      "ĠÐ´Ð°Ð½Ð½ÑĭÐ¹": 5567,
      "ĠÐĽÐ°": 5568,
      "Ð¸ÑĤÐµÐ»ÑıÐ¼": 5569,
      "ĠÐ¼Ð¾Ð¸Ñħ": 5570,
      "ĠÐ¿Ð¾ÑıÑģ": 5571,
      "ĠÑĩÑĥÐ²ÑģÑĤÐ²Ð°": 5572,
      "ÑĢÐµÐ»Ð¸": 5573,
      "ÑĨÐ¸Ð¾Ð½Ð½Ð¾Ð³Ð¾": 5574,
      "ĠÑĥÑĤÐ²ÐµÑĢÐ¶Ð´": 5575,
      "ĠÐ¿Ð¾ÑħÐ¾Ð´": 5576,
      "Ð°ÑĢÑĮ": 5577,
      "ĠÐ¾ÑĤÐ²ÐµÑĢ": 5578,
      "Ð¾ÑĢÑĤÐ¸": 5579,
      "ĠÑįÐºÑģÐ¿ÐµÑĢ": 5580,
      "ĠÐ°Ð±ÑģÐ¾Ð»ÑİÑĤÐ½Ð¾": 5581,
      "Ð¼Ñı": 5582,
      "ĠÐ¿Ð¾Ð»Ð½Ð¾": 5583,
      "ĠÐ³Ð°Ð»": 5584,
      "ĠÐ²ÑĢÐµÐ´": 5585,
      "ĠÐ²Ð°ÑĪÐ¸": 5586,
      "Ġ//": 5587,
      "ĠÐ¼Ð°Ð³Ð°Ð·Ð¸": 5588,
      "ĠÐ¿ÑĢÐ¾Ð²ÐµÐ´ÐµÐ½Ð¸Ñı": 5589,
      "ier": 5590,
      "ĠÐ³Ð¸Ð±": 5591,
      "ren": 5592,
      "ĠÐ»ÑİÐ´ÑĮÐ¼Ð¸": 5593,
      "ĠÐ¢Ð°": 5594,
      "Ġmake": 5595,
      "ĠÐ²Ð¾Ð´Ð°": 5596,
      "Ð³Ð°Ð½Ð¾Ð²": 5597,
      "ĠÐ¾ÑģÑĤÐ°Ð½": 5598,
      "ĠÑĢÐ°Ð·Ð²Ð¸ÑĤÐ¸Ðµ": 5599,
      "ĠÑģÐ¾ÑĤÑĢÑĥÐ´Ð½Ð¸": 5600,
      "ĠÐ´Ñĭ": 5601,
      "ĠÑģÐºÐ¸": 5602,
      "ts": 5603,
      "ĠÐ½ÐµÐ·Ð½Ð°": 5604,
      "Ð¸ÑĤÐµÐ»ÑĮÐ½Ð¾Ðµ": 5605,
      "ĠÐĿÐ°Ð´Ð¾": 5606,
      "ĠÐ¼Ð¾Ð¶ÐµÐ¼": 5607,
      "ÑĩÐ¸ÑĤÑĮÑģÑı": 5608,
      "ÑģÑĤÐ°Ñı": 5609,
      "ÑĩÐµÑģÐºÐ¾Ð¼": 5610,
      "03": 5611,
      "ÑĤÐ½Ð¾Ð¹": 5612,
      "Ġstate": 5613,
      "ÑĤÐ°Ð¶": 5614,
      "Ġend": 5615,
      "ĠÐ½Ð°ÑĪÐµ": 5616,
      "ĠÐ½ÐµÑģÐ¼Ð¾ÑĤÑĢÑı": 5617,
      "ĠÐ¿ÑĢÐ¾Ð³ÑĢÐ°Ð¼Ð¼": 5618,
      "ĠÐ¿ÑĢÐ¾Ð¸Ð·Ð½ÐµÑģ": 5619,
      "ĠÑĩÐ°ÑģÑĤÐ½Ð¾ÑģÑĤÐ¸": 5620,
      "ÐºÐ¾Ð³": 5621,
      "ĠÐ¾Ð±Ð¸": 5622,
      "ÐĽÐĲ": 5623,
      "Ð²Ð°Ð»Ð¾ÑģÑĮ": 5624,
      "ĠÐ±Ð¸Ð·Ð½Ðµ": 5625,
      "ĠÐ¸Ð·Ð±Ð°": 5626,
      "ÑĤÐ¸Ð²Ð½ÑĭÐµ": 5627,
      "ĠÐ½ÐµÐ´Ð°Ð²Ð½Ð¾": 5628,
      "imes": 5629,
      "ĠÐºÐ¾ÑĤÐ¾ÑĢÐ¾Ð¼Ñĥ": 5630,
      "1082": 5631,
      "ĠÑĥÑĤÑĢÐ¾Ð¼": 5632,
      "Ð³Ð°ÐµÑĤ": 5633,
      "ĠWh": 5634,
      "ĠÐ´Ð¸ÑģÐº": 5635,
      "ĠÑģÐµÐ³Ð¾Ð´Ð½ÑıÑĪ": 5636,
      "ĠÑĢÐµÐ³Ð¸Ð¾Ð½": 5637,
      "ĠÐ½ÑĥÐ¶Ð½Ð°": 5638,
      "ĠÐŀÐ´Ð¸Ð½": 5639,
      "Ġinter": 5640,
      "ĠÐ¾ÐºÐ°Ð·Ð°": 5641,
      "Ġvery": 5642,
      "ÑģÑĤÐ¾ÑĢ": 5643,
      "Ð»Ð°Ð¹Ð½": 5644,
      "ĠÐŃÐº": 5645,
      "ĠÐ¾ÑģÑĤÑĢÐ¾Ð²": 5646,
      "ĠÑĤÐµÐ½": 5647,
      "ĠÐ¿ÑĢÐµÐ´Ð¾ÑģÑĤÐ°Ð²": 5648,
      "Ð¾ÑĩÐºÐ°": 5649,
      "ĠÐ´ÐµÐ¹": 5650,
      "====": 5651,
      "ĠÑĦÑĢÐ°Ð½ÑĨÑĥÐ·": 5652,
      "ĠÑģÑĥÑħ": 5653,
      "hes": 5654,
      "ÐµÑħÐ°Ð»Ð¸": 5655,
      "ĠÐ¿ÑĢÐµÐ´Ð¿ÑĢÐ¸ÑıÑĤÐ¸Ñı": 5656,
      "ĠÐ¿Ð¾Ð½ÑĢÐ°Ð²": 5657,
      "ĠÐºÐ¾Ð¼ÑĦÐ¾ÑĢ": 5658,
      "ĠÐ¸ÑģÐºÐ»Ñİ": 5659,
      "ĠÐ½ÐµÐ¸Ð·Ð²ÐµÑģÑĤ": 5660,
      "ÑĩÐ°ÑİÑĤ": 5661,
      "ĠÐ¼Ð°ÑĢÑĪ": 5662,
      "ĠÑĤÐ²ÐµÑĢ": 5663,
      "ĠÑĦÐ¾ÑĢÐ¼Ñĭ": 5664,
      "ĠÐ´ÐµÑģÑıÑĤÑĮ": 5665,
      "ĠÐ°Ð³ÐµÐ½ÑĤ": 5666,
      "ĠÐ½Ð°ÑĢÑĥÑĪ": 5667,
      "ĠÐ¸Ð·Ð´ÐµÐ»": 5668,
      "ĠÐ¡Ñĥ": 5669,
      "ĠÐ¸ÑģÐ¿Ð¾Ð»ÑĮÐ·Ð¾Ð²Ð°Ð½Ð¸Ñı": 5670,
      "ĠÐ¼Ð¸Ñģ": 5671,
      "ĠÐºÐ»ÐµÑĤ": 5672,
      "ĠÑĥÑĩÐµÐ½": 5673,
      "ĠÑĦÐ¾ÑĢÑĥ": 5674,
      "Ð½ÑĥÐ²ÑĪÐ¸ÑģÑĮ": 5675,
      "ĠÑĨÐµÑĢÐºÐ¾Ð²": 5676,
      "ÐĴÐŀ": 5677,
      "ĠâĢ¢": 5678,
      "08": 5679,
      "Ð±Ð¾Ð¼": 5680,
      "Ġret": 5681,
      "ĠÐ±Ð¸Ð±Ð»Ð¸": 5682,
      "air": 5683,
      "ĠÐºÐ¾Ð»Ðµ": 5684,
      "ĠÑģÑĤÐ¾ÑıÐ»": 5685,
      "ĠÐ¿ÐµÑĢÐ²ÑĭÐµ": 5686,
      "ĠÐ¿ÑĢÐ¸Ð²Ð»ÐµÐºÐ°": 5687,
      "aking": 5688,
      "ÑĢÐ¸Ð¿": 5689,
      "Ð´Ð°Ñħ": 5690,
      "Ð¸ÐºÐµ": 5691,
      "ÑĢÐµÐ½Ð¸Ðµ": 5692,
      "ible": 5693,
      "Ġmade": 5694,
      "ĠÐµÑħ": 5695,
      "Ð´Ð°Ñı": 5696,
      "Ð·ÑĭÐ²Ð°Ð»Ð¸": 5697,
      "ĠÐ§ÐµÐ¼": 5698,
      "ÑıÐ·": 5699,
      "ÑĤÐ°ÑĤÑĮ": 5700,
      "ĠÐ¼Ð½ÐµÐ½Ð¸Ñİ": 5701,
      "ĠÐ³Ñĥ": 5702,
      "ĠÐ¿Ð°ÑĨÐ¸": 5703,
      "ĠÐ¿ÑĢÐµÑģÑģ": 5704,
      "Ð´Ð¸Ñı": 5705,
      "ĠÐĽÑĥ": 5706,
      "Ġsm": 5707,
      "ÐĵÐŀ": 5708,
      "ĠÐ¿ÑĢÐµÐ´ÑģÐµÐ´Ð°": 5709,
      "ĠÑĢÐµÑĪÐ¸Ð»Ð¸": 5710,
      "ĠÐ²ÐµÑģÑĤÐ¸": 5711,
      "ÑĢÐ°ÑĩÐ¸": 5712,
      "Ð¼ÑĭÑĪ": 5713,
      "Ġset": 5714,
      "ĠÑħÐ¸": 5715,
      "44": 5716,
      "ĠÐ¿ÑĢÐ¾Ð´ÑĥÐºÑĨÐ¸Ð¸": 5717,
      "arch": 5718,
      "ÑĤÐ¸Ð²Ð¸": 5719,
      "ĠÑģÑĩÐ°ÑģÑĤÐ»Ð¸": 5720,
      "Ð°Ð»ÑĮÐ½Ð¾ÑģÑĤÑĮ": 5721,
      "ĠÐ¿ÑĢÐ¸Ð½ÑıÑĤÑĮ": 5722,
      "ĠÑĤÑĢÐ°Ð½ÑģÐ¿Ð¾ÑĢÑĤ": 5723,
      "ĠÐ·Ð½Ð°Ð¼ÐµÐ½Ð¸": 5724,
      "ĠÐ¼Ð»Ð°Ð´": 5725,
      "ÑİÐ·Ð°": 5726,
      "ĠÐ¼Ð°Ð¹": 5727,
      "ale": 5728,
      "ĠÐŀÑģÐ½Ð¾Ð²": 5729,
      "?\"": 5730,
      "ĠÐ¾Ð¿Ð¸ÑģÐ°": 5731,
      "ĠÐ¼ÑĥÑģ": 5732,
      "ÑĮÐµÐ²": 5733,
      "ÑĭÑĤÑĭ": 5734,
      "ĠÐ½ÐµÐ¿Ð¾ÑģÑĢÐµÐ´": 5735,
      "ĠÑĤÐµÐ¿Ð»": 5736,
      "ÐºÐ½Ð¾Ð²": 5737,
      "ĠÐ¾ÐºÐ°Ð·Ð°Ð»Ð¾ÑģÑĮ": 5738,
      "ĠÐ´ÑĥÐ¼Ð°Ð»": 5739,
      "ĠÑĦÐ¸Ð»Ð¾Ñģ": 5740,
      "ÑĨÐ¸Ð¾Ð½Ð½ÑĭÐ¹": 5741,
      "ĠÐ¼Ð°ÑĪÐ¸Ð½": 5742,
      "ĠÐ¿ÑĢÐ¾Ð¶Ð¸": 5743,
      "ĠÐ·Ð°Ñħ": 5744,
      "Ġbetween": 5745,
      "ĠÐ·ÐµÐ»ÐµÐ½": 5746,
      "ĠÐºÑĥÐ»ÑĮÑĤÑĥÑĢ": 5747,
      "ĠÐ¿Ð»Ð°ÑĤÑĮ": 5748,
      "Ġknow": 5749,
      "ĠÐ¸Ð¼Ñĥ": 5750,
      "ĠÐ¿Ð°Ð¼ÑıÑĤÐ¸": 5751,
      "ata": 5752,
      "ĠÐ´ÑĥÐ¼Ð°ÑĤÑĮ": 5753,
      "ĠÐ³Ð»Ð°Ð·Ð°Ñħ": 5754,
      "ĠÐ±Ð¾Ð»ÑĮÑĪÐ¾Ðµ": 5755,
      "ĠÐ²ÑĢÐµÐ¼ÐµÐ½ÐµÐ¼": 5756,
      "ĠÐºÐ°ÑģÐ°ÐµÑĤÑģÑı": 5757,
      "ĠÐľÐ°Ð¹": 5758,
      "ĠSh": 5759,
      "ÑĩÐµÑģÑĤÐ²Ðµ": 5760,
      "ĠÐ¿Ð°Ðº": 5761,
      "ÑĢÐ¸Ð³Ð¸Ð½Ð°Ð»": 5762,
      "ĠÑįÐ»ÐµÐºÑĤÑĢÐ¸": 5763,
      "ĠÑģÐ¿ÐµÐº": 5764,
      "99": 5765,
      "ĠÑĦÐ°ÐºÑĤ": 5766,
      "Ġeff": 5767,
      "Ġco": 5768,
      "Ġlong": 5769,
      "ĠÐ¿Ð¾ÐºÐ¾Ð»": 5770,
      "ĠÐ²ÑģÐº": 5771,
      "ĠÐ¾Ð±ÑĢÐ°ÑĤÐ½Ð¾": 5772,
      "Ġnum": 5773,
      "ĠÐ½Ð°Ð¹Ð´": 5774,
      "ĠÐ¿Ð¾Ð½ÑıÑĤÐ½Ð¾": 5775,
      "ĠÑĦÐ¸Ð³Ñĥ": 5776,
      "ĠÐ¸Ð¼ÐµÐ½": 5777,
      "ĠÑĢÐµÑģÑĤÐ¾": 5778,
      "Ġdown": 5779,
      "ĠÐ»Ð¾ÑĪÐ°": 5780,
      "ĠÐ¿Ð°Ð½": 5781,
      "ĠZ": 5782,
      "Ð½ÐµÐ´": 5783,
      "ÑīÐµÐ½Ð¸Ð¸": 5784,
      "Ġ2009": 5785,
      "ĠÑģÐ¼Ð¾Ð¶ÐµÑĤ": 5786,
      "ĠÐ¼ÑĭÑģÐ»ÑĮ": 5787,
      "ĠÐĵÑĢÐ¸": 5788,
      "ĠÑģÐ»ÐµÐ´ÑĥÑİÑīÐ¸Ð¹": 5789,
      "Ġtrans": 5790,
      "ournal": 5791,
      "xb": 5792,
      "ĠÐ²ÑĭÐ±ÑĢÐ°ÑĤÑĮ": 5793,
      "Ġown": 5794,
      "ĠÐ¼Ð½ÐµÐ½Ð¸Ðµ": 5795,
      "ĠÑģÐ¾Ð¶Ð°Ð»ÐµÐ½Ð¸Ñİ": 5796,
      "ĠÑĢÐ°Ð·Ð½Ð¾Ð¾Ð±ÑĢÐ°Ð·": 5797,
      "ĠÐ³Ð»ÑĥÐ±Ð¾Ðº": 5798,
      "ility": 5799,
      "ash": 5800,
      "ÑģÑĤÐ°Ð¼Ð¸": 5801,
      "ĠÐľÐ¸Ð½Ð¸": 5802,
      "ÂŃ": 5803,
      "ĠÐ¿Ð»Ð°ÑģÑĤÐ¸": 5804,
      "ĠÐ¾ÑģÑĤÐ°Ð»Ð¾ÑģÑĮ": 5805,
      "Ð³Ð»ÑıÐ´Ñĭ": 5806,
      "Ð¿Ð¾ÑĢÐ°": 5807,
      "Ġlook": 5808,
      "ĠÑģÑħÐ¾Ð´": 5809,
      "Ð°Ð»ÑĮÐ½ÑĭÐ¼Ð¸": 5810,
      "ĠÐ¿ÑĢÐ¸ÑĩÐ¸Ð½Ð°": 5811,
      "ÑĤÐ°Ð»Ð¸": 5812,
      "ĠÐ½Ð°ÑĩÐ¸Ð½Ð°ÐµÑĤ": 5813,
      "ĠÐ¿ÑĢÐ¾ÑĪÐ»Ð¾": 5814,
      "ÑĤÐ¸Ð²Ð½Ð¾Ð¹": 5815,
      "ÑĤÐ¾ÑĢÐ¾Ðµ": 5816,
      "ÑĢÑĥÐ±": 5817,
      "ĠÑĥÐ¼ÐµÐ½ÑĮ": 5818,
      "ÑĢÐ¸Ñģ": 5819,
      "ĠÐ´Ð¸Ð·Ð°Ð¹": 5820,
      "ĠÐ²Ð»Ð°ÑģÑĤÑĮ": 5821,
      "Ġway": 5822,
      "ĠÐ¿ÐµÑĢÐ²ÑĭÑħ": 5823,
      "ĠÐĲÐ¼ÐµÑĢÐ¸": 5824,
      "ĠÐ¶ÐµÐ»Ð°Ð½Ð¸Ðµ": 5825,
      "ĠÑĤÐµÐ¼Ð½Ð¾": 5826,
      "ÐµÐ½Ð¸ÑıÑħ": 5827,
      "ĠÐ¿ÑĢÐµÐ´Ð¿ÑĢÐ¸Ð½Ð¸Ð¼Ð°": 5828,
      "ÑĢÐµÑģÑĤ": 5829,
      "ĠÐ¢ÑĥÑĤ": 5830,
      "ĠÑĨÐµÐ½ÑĤÑĢÐ°": 5831,
      "ÐĶÐ»Ñı": 5832,
      "Ġuse": 5833,
      "ĠÑģÐ¸Ð³": 5834,
      "ĠÐ½ÑĥÐ¶Ð½Ñĭ": 5835,
      "Ð¾Ð»Ð¾Ñģ": 5836,
      "Ð½Ð¸Ð»ÑģÑı": 5837,
      "ĠÐ¿Ð¾Ð»ÑĥÑĩÐ°ÐµÑĤÑģÑı": 5838,
      "ĠÑģÐ¼ÐµÑĢÑĤÑĮ": 5839,
      "ĠÐ½Ð°Ð·ÑĭÐ²Ð°ÐµÑĤÑģÑı": 5840,
      "ÐĽÐ¬": 5841,
      "ÑĪÐµÐº": 5842,
      "Ð¸Ð»ÑĮÐ½Ð¾": 5843,
      "ĠÐ½Ð¾ÑĩÑĮÑİ": 5844,
      "ĠÐ±ÑĥÐºÐ²": 5845,
      "ÑģÑĤÐ¾Ñĩ": 5846,
      "ĠÑģÐ¾Ð·Ð´Ð°ÑĤÑĮ": 5847,
      "ĠÐ§ÐµÑĢÐµÐ·": 5848,
      "Ġcol": 5849,
      "ĠÑģÐµÐ»": 5850,
      "ĠÐ¿ÑĢÐµÐ´ÑģÑĤÐ°Ð²Ð»ÑıÐµÑĤ": 5851,
      "ĠÐ¶Ð¸Ð»ÑĮ": 5852,
      "ĠÑĢÐµÐ±ÐµÐ½Ð¾Ðº": 5853,
      "ĠÐ¾ÑĢÑĥÐ¶Ð¸": 5854,
      "ĠÐłÐ°Ñģ": 5855,
      "ĠÐ°Ð²ÑĤÐ¾Ð¼Ð°": 5856,
      "ĠÐºÐ°ÐºÐ¾Ð¼": 5857,
      "ĠÐ½Ð°Ð¼ÐµÑĢ": 5858,
      "ÐµÐ½Ð¸ÑıÐ¼Ð¸": 5859,
      "ĠÐ°ÑĢÐµÐ½": 5860,
      "Ġright": 5861,
      "ÑĤÐ½ÑĭÐµ": 5862,
      "ĠÐ¼Ð°ÑĤÐµÑĢÐ¸Ð°Ð»Ð°": 5863,
      "ĠÑĢÐ¾Ð²": 5864,
      "ĠÐ£ÐºÑĢÐ°Ð¸Ð½Ðµ": 5865,
      "Ð¾ÑĢÐ¾Ð¼": 5866,
      "ĠÐ¾ÑĤÐ´Ð°": 5867,
      "ÑĢÐ¾Ð²Ð°ÑĤÑĮÑģÑı": 5868,
      "Ġprov": 5869,
      "Ð¼Ð¾ÑĤÑĢÐ¸ÑĤÐµ": 5870,
      "ÑĢÐ¾Ð²Ð°Ð½Ð½ÑĭÑħ": 5871,
      "ĠÐ¿ÐµÑĢÐ²ÑĭÐ¼": 5872,
      "ĠÐ¿Ð¾Ð´ÑĥÐ¼Ð°Ð»": 5873,
      "ĠÐ±Ð¸Ð»": 5874,
      "ĠÐľÐ¾ÑĢ": 5875,
      "ĠÑĩÐµ": 5876,
      "ĠÑģÐ¾Ð·Ð´Ð°Ð½Ð¸Ñı": 5877,
      "Ð°Ð»ÐµÐ½": 5878,
      "ĠÑĤÐ¸ÑħÐ¾": 5879,
      "ures": 5880,
      "ĠÑģÐ»Ð°Ð²": 5881,
      "Ð½ÐµÐ½Ð¸Ñİ": 5882,
      "ouse": 5883,
      "ÑģÑĤÐ½Ð¾Ð¹": 5884,
      "ĠÑģÐ¾Ð½": 5885,
      "ÑīÐµÐ¼": 5886,
      "ĠÑģÐ¸Ð´": 5887,
      "ĠÐĺÐ²Ð°Ð½Ð¾Ð²": 5888,
      "hip": 5889,
      "ĠÑĩÐ¸ÑĤÐ°ÑĤÑĮ": 5890,
      "ĠÐŁÑĢÐ°Ð²Ð´Ð°": 5891,
      "ĠÐ±ÐµÑģÐº": 5892,
      "ĠÐºÑĢÐ¾Ð²Ð°": 5893,
      "ĠÑĤÐµÐ¿Ð»Ð¾": 5894,
      "ĠÑĥÑĩÐµÑĤ": 5895,
      "ÑıÑĢ": 5896,
      "Ġbefore": 5897,
      "Ð¸ÑĤÐµÐ»ÑĮÐ½Ð¾Ð³Ð¾": 5898,
      "ÑĦÑĭ": 5899,
      "Ġsur": 5900,
      "ĠÐ¸Ð½ÑĤÐµÐ»": 5901,
      "ĠÑĢÐ°Ð·Ð²ÐµÐ´": 5902,
      "Ġins": 5903,
      "ÐłÐĺ": 5904,
      "ÑģÐ»Ñı": 5905,
      "ĠÐ¿Ð¾Ð´ÑĥÐ¼Ð°": 5906,
      "ĠÐ½Ð°Ð»Ð¸ÑĩÐ¸": 5907,
      "ĠÐ¿ÑĢÐ¾Ð±Ð»ÐµÐ¼Ð°": 5908,
      "ĠÐ¸Ð¼Ð¿": 5909,
      "ĠÐ»ÑİÐ±Ð¾Ð¼": 5910,
      "ĠÐ¿Ð¾Ð»Ð½Ð¾Ð¼": 5911,
      "ĠÐ²ÐµÐ´ÑĥÑī": 5912,
      "ĠÐĲÐº": 5913,
      "Ġ2008": 5914,
      "ĠÑģÐ²ÐµÐ´": 5915,
      "ĠÐ°ÐºÐºÑĥ": 5916,
      "ÑĤÐ¾Ð½Ð°": 5917,
      "Ġ(\"": 5918,
      "ĠÐ´ÐµÐ»Ð°ÑİÑĤ": 5919,
      "ĠÑĪÐºÐ¾Ð»Ðµ": 5920,
      "ĠÑģÑĤÑĢÐ°ÑĤÐµ": 5921,
      "Ð¸ÑģÑĤ": 5922,
      "ĠÐ´ÐµÐ²ÑĥÑĪÐºÐ¸": 5923,
      "ĠÑħÐ¾ÑĩÐµÑĪÑĮ": 5924,
      "ĠÑĤÐµÐºÑģÑĤ": 5925,
      "ĠÐ¸ÑģÑĤÐ¾ÑĢÐ¸Ñİ": 5926,
      "ĠÐ¿Ð¾ÑģÐ¼Ð¾ÑĤÑĢÐµÐ»": 5927,
      "ĠÐ¼Ð¸Ð¼Ð¾": 5928,
      "ĠÐ±ÑĢÐ°ÑĤ": 5929,
      "ues": 5930,
      "):": 5931,
      "ÑĤÐµÐ»ÑĮÐ½Ð¾Ð¹": 5932,
      "ÑģÑĤÐ¸ÐºÐ¸": 5933,
      "ĠÐ¢Ð°ÐºÐ¸Ð¼": 5934,
      "ĠÐ±Ð¾ÐµÐ²": 5935,
      "ĠÑģÑĭÐ½": 5936,
      "ox": 5937,
      "ÑģÐ°Ð¼": 5938,
      "ĠÐºÐ°ÑĤÐ°": 5939,
      "min": 5940,
      "Ġimp": 5941,
      "ĠÐ¿ÑĢÐµÐºÑĢÐ°ÑģÐ½Ð¾": 5942,
      "ÑģÑĤÐµÐ¿ÐµÐ½Ð½Ð¾": 5943,
      "ĠÑģÐ¸ÑģÑĤÐµÐ¼Ñĥ": 5944,
      "ĠÐ¾ÐºÐ½Ð°": 5945,
      "Ġbel": 5946,
      "ĠÐ²ÐµÑĩÐµÑĢÐ¾Ð¼": 5947,
      "ĠÐ½ÐµÐ²ÐµÑĢ": 5948,
      "ĠÐ¾ÑĤÐ´ÑĭÑħÐ°": 5949,
      "Ð²ÐµÐ´Ð¾Ð¼": 5950,
      "ĠÑģÐ¿Ð°ÑģÐ¸Ð±Ð¾": 5951,
      "ĠÐ¼Ð¾Ñİ": 5952,
      "ĠÐ°ÑĢÑħÐ¸ÑĤÐµÐº": 5953,
      "Ð½Ð¸Ð½Ð°": 5954,
      "Ġsee": 5955,
      "Ð¾Ð²Ð°Ð»ÑģÑı": 5956,
      "ĠÑħÑĢÐ¸ÑģÑĤÐ¸": 5957,
      "Ġcount": 5958,
      "ĠÐ¿Ð¾ÑħÐ¾Ð¶Ðµ": 5959,
      "ĠÐ¿ÑĢÐ¸ÑħÐ¾Ð´Ð¸ÑĤÑģÑı": 5960,
      "ÑĩÐ¸ÑĤÐ°ÑĤÑĮ": 5961,
      "ÑİÑīÐ¸ÐµÑģÑı": 5962,
      "ĠÐ²Ð·Ð´Ð¾Ñħ": 5963,
      "ĠÐ¼ÑĥÐ½Ð¸ÑĨÐ¸Ð¿": 5964,
      "ĠÐŀÑĤÐµ": 5965,
      "ĠÐ¸ÑģÐ¿ÑĭÑĤÐ°": 5966,
      "ĠÑģÐ²ÐµÑĤÐ°": 5967,
      "ÐµÐºÑĥ": 5968,
      "ĠÐ²Ð¾ÑĢÐ¾": 5969,
      "ĠÐ²Ð¸ÑĤ": 5970,
      "Ġ195": 5971,
      "ĠÑģÐ¿ÑĢÐ¾ÑģÐ¸Ð»Ð°": 5972,
      "ÐµÑĢÐ¸ÑĤÑĮ": 5973,
      "ĠÑģÐ¾ÐµÐ´Ð¸Ð½": 5974,
      "ĠÐ¢ÑĥÑĢ": 5975,
      "ĠÐºÐ¸ÑĤÐ°Ð¹": 5976,
      "ĠÑĢÐ¾Ð´Ð¸ÑĤÐµÐ»ÐµÐ¹": 5977,
      "ĠÐ¾Ð±Ð²Ð¸Ð½": 5978,
      "ĠÐ»ÑİÐ±Ð¸ÑĤ": 5979,
      "ÑīÐ¸ÐºÐ¾Ð²": 5980,
      "way": 5981,
      "ÑĢÐ°Ð²Ð¾": 5982,
      "ĠÐ¿Ð°ÑĢÑĤÐ¸Ð¸": 5983,
      "Ð¾ÑģÐ»Ð°Ð²": 5984,
      "ÑĤÐ¾ÑĢÐ¾Ð¹": 5985,
      "ĠÐ·Ð°Ð¹": 5986,
      "Ð½Ð¸Ð¼Ð¸": 5987,
      "Ð½ÑıÐºÐ°": 5988,
      "ĠÐ²Ð¾Ð´Ð¾Ð¹": 5989,
      "ĠÐ´Ð¾ÑĢÐ¾Ð³Ð¸": 5990,
      "ĠÐ¾ÑģÑĤÐ°ÐµÑĤÑģÑı": 5991,
      "ĠÐ¿ÐµÑĢÐµÐ½": 5992,
      "ÐµÐ½ÑĮÐµ": 5993,
      "ĠÐ¶Ð¸ÑĤÐµÐ»ÐµÐ¹": 5994,
      "ÐµÑħÐ°": 5995,
      "Ð½Ð°Ð´ÑĨÐ°ÑĤÑĮ": 5996,
      "ÐĽÐŀ": 5997,
      "ÐµÐºÑģ": 5998,
      "ave": 5999,
      "ĠÐ¿ÑĢÐ¾ÑĨÐµÐ´Ñĥ": 6000,
      "ÑģÑĤÐ¸ÑĤÑĥ": 6001,
      "ĠÐ±ÐµÑĢÐµÐ¼ÐµÐ½": 6002,
      "ĠÐ¼Ð¾ÑĢÑı": 6003,
      "ĠÐ¾Ð±ÑĢÐ°Ð±Ð¾ÑĤ": 6004,
      "ÑĤÐ¸ÑĩÐµÑģÐºÐ¸Ðµ": 6005,
      "ÑģÐºÐ¾ÑĢ": 6006,
      "ÑģÑĤÑĥÐ¿Ð°ÐµÑĤ": 6007,
      "ĠÐ¼Ð°Ð³Ð¸": 6008,
      "ĠÐ·Ð°ÑĢ": 6009,
      "Ġtra": 6010,
      "Ð³Ð°Ð´": 6011,
      "Ġshould": 6012,
      "ÑģÑİÐ´Ð°": 6013,
      "any": 6014,
      "ĠÐŁÐ¾ÑģÐ»ÐµÐ´": 6015,
      "ĠÑĥÑĩÐµÐ½Ð¸": 6016,
      "ÑĢÐ°ÑĤÐ½Ð¾": 6017,
      "ĠÑĩÐ¸ÑģÐ»Ð¾": 6018,
      "ĠÐĳÐµÑĢ": 6019,
      "ĠÐ·Ð½Ð°ÑĩÐµÐ½Ð¸Ðµ": 6020,
      "ĠÑģÐ»ÑĥÑĩÐ°ÑıÑħ": 6021,
      "Ġmuch": 6022,
      "ĠÐ´Ð²Ð°Ð´ÑĨÐ°ÑĤÑĮ": 6023,
      "Ġform": 6024,
      "ĠÐ¾ÑĤÐ¿ÑĢÐ°Ð²Ð¸": 6025,
      "Ð°Ð»ÑĮÐ½Ð¾ÑģÑĤÐ¸": 6026,
      "ĠÐ¿Ð¾Ð¼Ð¾Ð¶ÐµÑĤ": 6027,
      "Ġ90": 6028,
      "ĠÑĥÑħ": 6029,
      "atch": 6030,
      "ĠÐ¿ÑĢÐ¸ÑĪÐµÐ»": 6031,
      "ĠÑįÐºÑģÐ¿Ð»ÑĥÐ°ÑĤÐ°": 6032,
      "ĠBut": 6033,
      "ĠÐ±ÑĥÐ´ÐµÑĤÐµ": 6034,
      "ĠÑĢÐ¾Ð¼Ð°Ð½": 6035,
      "ĠÐ¿ÑĢÐ¾Ñħ": 6036,
      "Ð½ÐµÑĤÐµ": 6037,
      "ĠÐ°Ð²ÑĤÐ¾Ð±": 6038,
      "Ġteam": 6039,
      "Ð´Ð½Ð¾": 6040,
      "Ð»ÑĥÑĪ": 6041,
      "ently": 6042,
      "ĠÑģÑĤÑĥÐ¿": 6043,
      "ÑĢÑĭÑħ": 6044,
      "ten": 6045,
      "ĠÐ¾ÑĦÐ¸ÑĨ": 6046,
      "ĠÐ·Ð°ÐºÐ¾Ð½Ð°": 6047,
      "ĠÐ½Ð°ÐºÐ°": 6048,
      "100": 6049,
      "ĠÑĢÐµÐ·ÐºÐ¾": 6050,
      "ĠÐºÐ¾ÑĦÐµ": 6051,
      "ĠÐ´Ð¾ÑĢÐ¾Ð¶": 6052,
      "ĠÑģÐ¿Ð¸Ñģ": 6053,
      "ÑĤÐ¸ÑĩÐµÑģÐºÐ¾Ð¹": 6054,
      "ĠÐ¸ÑģÑģÐ»ÐµÐ´Ð¾Ð²Ð°Ð½Ð¸Ñı": 6055,
      "ĠÐ²Ð¾Ð·ÑĢÐ°ÑģÑĤÐ°": 6056,
      "ĠÑģÑĦÐµÑĢÐµ": 6057,
      "ĠÐºÐ°Ð´": 6058,
      "ĠÐ½ÐµÐ¾Ð±ÑħÐ¾Ð´Ð¸Ð¼Ð¾ÑģÑĤÐ¸": 6059,
      "ĠÑĤÐ°Ð»": 6060,
      "ĠÐ¸ÑģÐºÐ°ÑĤÑĮ": 6061,
      "ĠÐºÐ¸ÑģÐ»": 6062,
      "Ġsim": 6063,
      "ĠÑģÐµÑĢÐµÐ´": 6064,
      "Ġthose": 6065,
      "Ġra": 6066,
      "ĠÑĥÐ´Ð¾Ð²Ð»ÐµÑĤ": 6067,
      "Ð¸Ð»ÐµÐ¹": 6068,
      "1084": 6069,
      "ĠÐ³Ð¾Ð´Ð¾Ð²": 6070,
      "Ð°ÑģÑģÐ°Ð¶Ð¸": 6071,
      "ĠÐ´Ð¾ÐºÑĥÐ¼ÐµÐ½ÑĤÐ¾Ð²": 6072,
      "Ð¾Ð¿Ð¸": 6073,
      "ĠÐ¾ÑģÐ²Ðµ": 6074,
      "Ġear": 6075,
      "ĠÐ¾Ð±Ð½Ð¾Ð²": 6076,
      "Ð¾Ð±Ðµ": 6077,
      "ĠÐºÐ¾Ð»ÑĮ": 6078,
      "!Â»": 6079,
      "ĠÑģÐ¸Ð¼Ð²Ð¾Ð»": 6080,
      "ÑĥÑģÐ»Ð¾Ð²": 6081,
      "ĠÐ±ÐµÑģÑģ": 6082,
      "ĠâĦĸ": 6083,
      "ĠÑģÐ»ÑĥÑĩÐ¸Ð»Ð¾ÑģÑĮ": 6084,
      "ĠÐ½Ð°Ð¿Ð¾Ð¼Ð¸Ð½Ð°": 6085,
      "ĠÑĦÐ°Ð½ÑĤÐ°": 6086,
      "ĠÐ¿Ð¾ÑĢÑĥ": 6087,
      "ĠÐ¸Ð½Ð¸": 6088,
      "Ð²ÑıÐ·": 6089,
      "ĠÐ¼ÑıÑģ": 6090,
      "ĠÐĳÐ°ÑĢ": 6091,
      "Ð²Ð¾Ñģ": 6092,
      "ĠÐ·Ð°ÑīÐ¸ÑĤÑĭ": 6093,
      "ĠÑĦÐ¾ÑĤÐ¾Ð³ÑĢÐ°ÑĦ": 6094,
      "Ð¾Ð½Ñĥ": 6095,
      "Ġ70": 6096,
      "ĠÐ±Ð¾Ð»ÑĮÑĪÐ°Ñı": 6097,
      "ĠÐ´Ð¾ÐºÑĥÐ¼ÐµÐ½ÑĤÐ°": 6098,
      "ĠÐºÑĥÑģ": 6099,
      "Ġsystem": 6100,
      "ÑĢÐµÑĤÑĮ": 6101,
      "ĠÐ¸Ð³ÑĢÐ¾Ðº": 6102,
      "omet": 6103,
      "ÐĴÐĶ": 6104,
      "Ð±Ð¸ÑĢ": 6105,
      "ĠÐºÐ°ÑĩÐµÑģÑĤÐ²Ð¾": 6106,
      "Ð¢ÐĲ": 6107,
      "Ð¼ÐµÐ¹": 6108,
      "Ġdon": 6109,
      "Ð²Ð¾Ð»ÑĮ": 6110,
      "ĠÑĪÑĤÑĥ": 6111,
      "ÑīÐ¸Ð¼": 6112,
      "ĠÐ¶ÐµÐ½Ð°": 6113,
      "ĠÐºÐ¾Ð½ÑĦÐ»Ð¸Ðº": 6114,
      "ĠÐ¿ÑĢÐ¸Ð²ÐµÑĤ": 6115,
      "ĠÐĲÐ½Ð´ÑĢÐµÐ¹": 6116,
      "ÑģÑĤÑĢÐµÐµ": 6117,
      "ĠÐ¿ÑĢÐ¾Ð¿Ñĥ": 6118,
      "ĠÐºÐ¾Ð´": 6119,
      "ÑĪÐ¸Ð½Ð°": 6120,
      "ĠÑĪÐµÐ»": 6121,
      "ĠÐŁÐ¾Ð·": 6122,
      "ĠÐŀÐº": 6123,
      "ĠÑģÐ¾Ð¾Ð±ÑīÐ¸Ð»": 6124,
      "ĠÐ´ÐµÐ¹ÑģÑĤÐ²Ð¸Ð¹": 6125,
      "Ð¾ÐºÑĥ": 6126,
      "ĠÑĢÐ°ÑģÐºÑĢÑĭ": 6127,
      "Ġlast": 6128,
      "ĠÐŀÐŀÐŀ": 6129,
      "ÑĢÐµÑģÑģ": 6130,
      "ĠÐ¸Ð¼Ð¸": 6131,
      "ĠÐ¿Ð¾ÑĤÐµÐ½": 6132,
      "ĠÐ±Ð¾Ð»ÑĮÑĪÐ¸Ð½ÑģÑĤÐ²Ð¾": 6133,
      "ĠÐ¿Ð¾Ð´Ð½Ð¸Ð¼Ð°": 6134,
      "%.": 6135,
      "ĠÐ½Ð°Ð¿Ð¾Ð»": 6136,
      "Ġshow": 6137,
      "ĠÐ¿ÑĥÑģÑĤ": 6138,
      "Ð¸Ð·Ð²Ð¾Ð´": 6139,
      "ĠÐ´ÐµÑĢÐµÐ²ÑıÐ½": 6140,
      "ĠÑģÐ»Ð¾": 6141,
      "Ð´ÑĢÐ°Ð²ÑģÑĤÐ²Ñĥ": 6142,
      "ÑģÐºÐ¾Ð¿": 6143,
      "ĠÐ¼Ð°ÑĪÐ¸Ð½Ñĥ": 6144,
      "Ð±Ð¾ÑĤÐ°": 6145,
      "ÑīÐ°ÑİÑĤ": 6146,
      "ĠÑģÑĤÐµÐ½Ñĭ": 6147,
      "ĠÑĥÑĢÐ¾Ðº": 6148,
      "cted": 6149,
      "ĠCl": 6150,
      "ĠÐ²ÑĭÑĢÐ°Ð¶": 6151,
      "ÑĪÑĳÐ»": 6152,
      "ĠÐ½ÐµÑĥ": 6153,
      "ĠÐ´Ð¸Ð°Ð³": 6154,
      "ĠÐ¿ÐµÑĤ": 6155,
      "ĠÐ½Ð¾ÑĩÐ¸": 6156,
      "ĠÐ²Ð¸Ð¶Ñĥ": 6157,
      "ĠÐ¿ÐµÑĢÐ²Ð¾Ð¼": 6158,
      "ÑĭÑħÐ°": 6159,
      "ĠÐ´Ð²ÑĥÐ¼Ñı": 6160,
      "ĠÐ¶Ð´Ð°ÑĤÑĮ": 6161,
      "ĠÐ´ÑĢÑĥÐ·ÐµÐ¹": 6162,
      "ÑĨÐ²ÐµÑĤ": 6163,
      "ĠÐºÐ°Ð½Ð´Ð¸": 6164,
      "Ð¾Ð½ÑĤ": 6165,
      "ames": 6166,
      "Ð·Ð°ÑĤÐµÐ»ÑĮ": 6167,
      "ĠÑĥÐ²ÐµÑĢÐµÐ½": 6168,
      "Ġmon": 6169,
      "ĠÐ¸Ð³ÑĢÑĥ": 6170,
      "ÑĢÐµÑģÑĤÐ¸": 6171,
      "ĠÐ´Ð¾ÑĢÐ¾Ð³Ðµ": 6172,
      "ĠÐ¸Ð½Ð²ÐµÑģÑĤÐ¸": 6173,
      "ĠÐ·Ð»Ð¾": 6174,
      "ĠÑİÑĢÐ¸Ð´Ð¸": 6175,
      ";;": 6176,
      "Ġfound": 6177,
      "ote": 6178,
      "riv": 6179,
      "ĠÐ¡ÐµÑĢÐ³Ðµ": 6180,
      "ĠÑģÐ¼ÑĭÑģÐ»Ðµ": 6181,
      "ĠÐ¡ÐµÐ²ÐµÑĢ": 6182,
      "ĠÐ¡ÐµÐ¼": 6183,
      "ĠÐ¡ÐľÐĺ": 6184,
      "ÐµÑģÐ»Ð¸": 6185,
      "ollow": 6186,
      "ĠÐ¿Ð»ÐµÐ½": 6187,
      "ĠÐ²ÑĭÐ±Ð¾": 6188,
      "ever": 6189,
      "ĠÐ´Ð¾ÐºÑĥÐ¼ÐµÐ½ÑĤÑĭ": 6190,
      "ĠÐ½Ð°Ð¿Ð¾Ð¼": 6191,
      "ĠÐĵÐ¾ÑģÐ¿Ð¾Ð´": 6192,
      "ĠÐ±ÑĢÐ¾ÑģÐ¸": 6193,
      "ĠÐ¼Ð¸Ð»Ð»Ð¸Ð¾Ð½Ð¾Ð²": 6194,
      "ĠÑĢÐ°Ð·ÑĥÐ¼": 6195,
      "ĠÐ»ÐµÑģÑĤ": 6196,
      "ĠÐ¿ÑĢÑĭ": 6197,
      "ĠÐ¶Ð°ÑĢ": 6198,
      "ĠÑģÐµÐ²ÐµÑĢ": 6199,
      "ĠÐĵÐµÑĢÐ¼Ð°Ð½Ð¸Ð¸": 6200,
      "ĠÑģÐ°Ð¼Ð°Ñı": 6201,
      "Ð°Ð½Ð½Ð¾Ðµ": 6202,
      "Ġmin": 6203,
      "Ð´ÑĢÑĥÐ³": 6204,
      "Ð¸Ð»Ðµ": 6205,
      "ĠÑĢÐ¾ÑģÑĤ": 6206,
      "Ġ80": 6207,
      "ĠÐ·Ð°ÑĢÐµÐ³Ð¸ÑģÑĤÑĢÐ¸": 6208,
      "=\"": 6209,
      "ĠÑįÐ»ÐµÐºÑĤÑĢÐ¾": 6210,
      "Ð»Ð¸Ð·": 6211,
      "ĠÑĩÑĥÐ²ÑģÑĤÐ²Ð¾": 6212,
      "ĠÐ·Ð½Ð°ÑİÑĤ": 6213,
      "ĠÐ´ÐµÑģÑıÑĤÐ¸": 6214,
      "ÐŁÐ¾Ð¼": 6215,
      "ism": 6216,
      "ĠÐ¿Ð¾Ð·Ð°": 6217,
      "Ġhigh": 6218,
      "Ð³Ð°Ñħ": 6219,
      "ĠÑģÐ¿Ð°ÑĤÑĮ": 6220,
      "oh": 6221,
      "ĠÐ³ÑĢÑĥÐ¿Ð¿": 6222,
      "ĠÐ¼ÑĥÐ´": 6223,
      "ĠÑĨÐµÐ½Ð°": 6224,
      "ÑĤÐ¸Ð²Ð½ÑĭÐ¹": 6225,
      "ĠÐ¿Ð¾Ð´ÑĩÐµÑĢ": 6226,
      "ĠÐ·ÐµÑĢÐº": 6227,
      "ĠÐ»Ð¸Ð´ÐµÑĢ": 6228,
      "Ð´Ð°Ð³": 6229,
      "ĠÐ´Ð¶": 6230,
      "pect": 6231,
      "ÐµÑĤÐ¾Ð²": 6232,
      "ĠÐ»Ð°Ð³": 6233,
      "ĠÑħÑĥÐ¶Ðµ": 6234,
      "ĠÑħÐ¾ÑĤÑıÑĤ": 6235,
      "ĠÐ¾Ð±Ð¾ÑĢÑĥÐ´Ð¾Ð²Ð°Ð½Ð¸Ñı": 6236,
      "ĠÐ¿Ð¾ÑĤÐ¾Ð»": 6237,
      "ĠÐºÐ¾Ð¼Ð½Ð°ÑĤÑĥ": 6238,
      "Ð¾Ð²Ð°Ð½Ð¸Ñİ": 6239,
      "ĠÐ´ÐµÑıÑĤÐµÐ»ÑĮÐ½Ð¾ÑģÑĤÑĮ": 6240,
      "Ð½Ð¸Ð»Ð¾ÑģÑĮ": 6241,
      "Ð½Ð¸ÐµÐ¹": 6242,
      "ĠÐĴÐ¾Ð·Ð¼Ð¾Ð¶Ð½Ð¾": 6243,
      "ĠÑģÐ¾Ð·Ð´Ð°Ð½": 6244,
      "ĠÐ¿ÑĢÐµÐ¿Ð¾Ð´Ð°": 6245,
      "Ġke": 6246,
      "32": 6247,
      "ĠÐ´ÐµÑĪÐµ": 6248,
      "ĠÑģÐ°Ð´": 6249,
      "ĠÐ¾Ð·Ð½Ð°ÑĩÐ°ÐµÑĤ": 6250,
      "ÑĢÐ¸ÑĤÐ°": 6251,
      "Ð²Ð¸Ð½Ñĥ": 6252,
      "ĠÑħÐ¸Ð¼Ð¸": 6253,
      "Ġsay": 6254,
      "ĠÐ²Ð¾Ð¿ÑĢÐ¾ÑģÐ°": 6255,
      "ĠÐ±Ð°ÑĪ": 6256,
      "ĠÑĢÐ°ÑģÑģÑĤÐ¾Ñı": 6257,
      "ÐµÐ¼Ð¾Ð³Ð¾": 6258,
      "ÐºÐ°ÑĤÐµÑĢÐ¸": 6259,
      "ĠÐ¿Ð¾Ð´Ð¿Ð¸": 6260,
      "ĠÐ¿Ð°ÑĢÐµÐ½ÑĮ": 6261,
      "Ð½Ð¸ÑĨÐµÐ¹": 6262,
      "ield": 6263,
      "ÑĤÐµÐ»ÐµÐ¹": 6264,
      "ĠÐ²Ð¾Ð·Ð»Ðµ": 6265,
      "Ð°ÐºÐ°Ð½": 6266,
      "Ġthink": 6267,
      "Ð¾Ð¿ÑĢÐ¾": 6268,
      "ĠÐ³Ð¾Ð»Ð¾Ð²Ñĭ": 6269,
      "ĠÑĤÑĢÐµÐ½Ð¸": 6270,
      "ĠÐĴÐ¿ÑĢÐ¾ÑĩÐµÐ¼": 6271,
      "ĠÐ¿Ð¾ÑģÑĤÐ°Ð½Ð¾Ð²": 6272,
      "ĠÐ½Ð¸ÐºÐ°ÐºÐ¾Ð³Ð¾": 6273,
      "ĠÑģÐ½Ð¸Ð¼Ð°": 6274,
      "ĠÑĥÐ¿Ð¾ÑĤÑĢÐµÐ±": 6275,
      "ĠÑģÑħÐ²Ð°": 6276,
      "ina": 6277,
      "ann": 6278,
      "Ð½Ð¾Ð¶": 6279,
      "ĠÐĳÐ¾Ð³Ð°": 6280,
      "Ġ500": 6281,
      "Ð¿Ð¾ÑĤ": 6282,
      "ĠÐ¿ÑĢÐ¸Ð²ÐµÐ´": 6283,
      "Ð´Ð¸ÑĪÑĮ": 6284,
      "ists": 6285,
      "ĠÐ¿Ð¾Ð»Ð¾Ð¶ÐµÐ½Ð¸Ðµ": 6286,
      "ĠÑĢÐ¾Ð´ÑģÑĤÐ²ÐµÐ½": 6287,
      "Ð¾Ð´ÐµÐ¹ÑģÑĤÐ²": 6288,
      "ĠÐºÐ¾Ð¼Ð¿Ð°Ð½Ð¸Ð¹": 6289,
      "ck": 6290,
      "Ð¸ÑĤÑĭ": 6291,
      "ĠÐ¾ÑĢÐ³Ð°Ð½Ð¾Ð²": 6292,
      "ĠÐ½Ð¾Ð²ÑĥÑİ": 6293,
      "ĠÑģÐ»Ð¾Ð¶Ð½Ð¾": 6294,
      "ÑĪÐ°ÐµÑĤÑģÑı": 6295,
      "ÐĽÐĺ": 6296,
      "Ð¿Ð»Ð¾Ð¼": 6297,
      "ĠÑĤÑī": 6298,
      "Ð²Ð°ÑĤÐµÐ»ÑĮ": 6299,
      "ĠÐ¿ÐµÑĢÑģÐ¿ÐµÐº": 6300,
      "ĠÑĪÑĥÐ¼": 6301,
      "ĠÐºÐ¸Ð»Ð¾Ð¼ÐµÑĤ": 6302,
      "ĠÐ½ÑĭÐ½ÐµÑĪ": 6303,
      "con": 6304,
      "ĠÐºÐ¾Ð¶Ð¸": 6305,
      "ĠÐ¼ÐµÑĪ": 6306,
      "get": 6307,
      "ĠÐ¼Ð¸Ð½Ð¸Ð¼Ñĥ": 6308,
      "ĠÑĦÐ¸Ð½": 6309,
      "ÑıÐ»Ð°ÑģÑĮ": 6310,
      "ĠÐĿÐ¾Ð²Ð¾": 6311,
      "ÑģÑĤÐµÑĢÐ°": 6312,
      "ÑĭÐ´Ñĥ": 6313,
      "ÐłÐ°": 6314,
      "Ġdiffer": 6315,
      "ĠÐ¾ÐºÑĢÑĥÐ¶": 6316,
      "ÑĥÐ¹": 6317,
      "ĠÐ¿ÑĢÐ¾Ð²ÐµÑģÑĤÐ¸": 6318,
      "ÑĤÐ½ÑĭÑħ": 6319,
      "ĠÑįÐ½ÐµÑĢÐ³": 6320,
      "Ð²Ð¾Ð³Ð¾": 6321,
      "ĠÐķÐµ": 6322,
      "ĠÐ¿Ð¸ÑĪÐµÑĤ": 6323,
      "Ð¡ÑĤ": 6324,
      "chool": 6325,
      "ĠÐ¼Ð¾Ð»ÑĩÐ°": 6326,
      "ĠÐĲÑĦ": 6327,
      "Ġwhile": 6328,
      "ĠÐ³Ð¾Ð»ÑĥÐ±": 6329,
      "Ġthree": 6330,
      "ÑĤÐ¸Ð²Ð½Ð¾Ð³Ð¾": 6331,
      "ĠII": 6332,
      "ĠÑĢÐµÐ³Ð¸Ð¾Ð½Ð°": 6333,
      "Ð»ÑĮÐ½Ð¾Ð³Ð¾": 6334,
      "ÐµÐ»Ð¾Ð²ÐµÐº": 6335,
      "Ġmem": 6336,
      "ÑĩÐ¸ÑĤÐ°": 6337,
      "ÑĨÐ¾Ð¼": 6338,
      "ĠÐ½Ð°Ð¾Ð±Ð¾ÑĢÐ¾ÑĤ": 6339,
      "ĠÐ¾ÑģÐ¾Ð·Ð½Ð°": 6340,
      "ĠÐ½Ð°ÑģÐºÐ¾Ð»ÑĮÐºÐ¾": 6341,
      "ĠÐ½ÐµÐ´Ð²Ð¸Ð¶": 6342,
      "ĠÐ¼Ð¾Ð±Ð¸Ð»ÑĮ": 6343,
      "ĠQ": 6344,
      "ĠÐ¿Ð¾ÑģÐ»ÐµÐ´Ð½ÐµÐµ": 6345,
      "Ġ!": 6346,
      "ĠÐºÐ¾Ð¼Ð¿ÑĮÑİÑĤÐµÑĢ": 6347,
      "ÑĢÐ¸ÐºÐ¸": 6348,
      "Ġgovern": 6349,
      "ÐºÐ¾ÑĤÐ¾ÑĢÑĭÐµ": 6350,
      "ĠÐ½Ð°ÑĩÐ°ÑĤÑĮ": 6351,
      "ĠÐ²ÑĢÐµÐ¼ÐµÐ½Ð°": 6352,
      "ĠÐ¿ÑĢÐµÐ·Ð¸Ð´ÐµÐ½ÑĤ": 6353,
      "ĠÐ¿Ð°ÑĢÑĤÐ½ÐµÑĢ": 6354,
      "ĠÐ²Ð²ÐµÐ´": 6355,
      "48": 6356,
      "ĠÐ¾ÑĢÐ¸Ð³Ð¸Ð½": 6357,
      "erson": 6358,
      "ĠÐĵÐµÐ½": 6359,
      "ĠÐ·Ð½Ð°ÑĩÐ¸ÑĤÐµÐ»ÑĮÐ½Ð¾": 6360,
      "Ð¶Ð½ÑĭÐ¹": 6361,
      "ĠÑĥÑĩÐ°ÑģÑĤÐ½Ð¸ÐºÐ¾Ð²": 6362,
      "Ð¶Ð½ÑĭÐµ": 6363,
      "ĠÑĢÑĥÐºÐ°": 6364,
      "ĠBl": 6365,
      "ĠÐ¾ÑĤÐ´ÑĭÑħ": 6366,
      "ÑģÑĤÑĮÑı": 6367,
      "Ð¼ÐµÐ½Ñĭ": 6368,
      "ĠÐ¿Ð¾Ð´Ð²ÐµÑĢ": 6369,
      "Ġloc": 6370,
      "ÑĪÐµÐ±": 6371,
      "ĠÐ¿Ð°Ð¼ÑıÑĤÑĮ": 6372,
      "Ð²ÑĪÐ¸Ð¹ÑģÑı": 6373,
      "ĠÑħÐ¾ÑĤÐµÐ»Ð°": 6374,
      "ĠÑĥÐ³Ð¾Ð»Ð¾Ð²": 6375,
      "Ġstr": 6376,
      "ĠÐ²Ð²ÐµÑĢÑħ": 6377,
      "Ġused": 6378,
      "ĠÐ¸ÑģÐ¿ÑĭÑĤÑĭ": 6379,
      "ĠÐ½ÐµÐ±Ð¾Ð»ÑĮÑĪÐ¾Ð¹": 6380,
      "ĠÐ¿ÐµÑĢÐµÐ¼Ðµ": 6381,
      "ĠÐ¿Ð¾Ð»ÑĮÐ·Ð¾Ð²Ð°ÑĤ": 6382,
      "ĠÐ¿Ð¾Ð·Ð¶Ðµ": 6383,
      "ÑģÑĤÑıÐ¼": 6384,
      "Ð²ÐµÐ·": 6385,
      "ĠÐ¿ÑĢÐ¸ÑĩÐµÐ¼": 6386,
      "ĠÐ§Ð¸ÑĤ": 6387,
      "ĠÐ»ÑİÐ±Ð¾Ð³Ð¾": 6388,
      "Ð±ÑĢÐ°ÑĤÑĮ": 6389,
      "Ġlead": 6390,
      "velop": 6391,
      "ÑģÐµÐº": 6392,
      "ĠÐ»Ñĥ": 6393,
      "Ġsign": 6394,
      "ĠÐ·Ð°Ð½Ð¸Ð¼": 6395,
      "ĠÐ±Ð¾Ð»ÑĮÑĪÐ¸Ð¼": 6396,
      "ather": 6397,
      "ĠÐ¼Ð¾Ð´ÐµÐ»ÑĮ": 6398,
      "ĠÑĥÑĩÐ¸ÑĤÑĭ": 6399,
      "ĠÐ·Ð°Ð´ÑĥÐ¼": 6400,
      "Ð¼Ð¼": 6401,
      "ĠÐºÐ»Ð°ÑģÑģ": 6402,
      "ĠÐ»Ð¸Ð½Ð¸Ð¸": 6403,
      "Ð¾Ð³Ð¾Ð´": 6404,
      "2015": 6405,
      "ĠÐ³Ð¾ÑĤÐ¾Ð²Ñĭ": 6406,
      "ĠÐ·Ð°Ð´ÐµÑĢÐ¶": 6407,
      "ĠÐ¿Ð¾Ð¼Ð½Ñİ": 6408,
      "ĠÑĥÐ³ÑĢÐ¾Ð·": 6409,
      "ĠÐºÐ²Ð°ÑĢÑĤÐ¸ÑĢÑĭ": 6410,
      "Ð¾Ð»Ñİ": 6411,
      "Ð¾ÑĩÐ½Ð¾": 6412,
      "Ð°ÑĤÐ°Ð»ÑĮ": 6413,
      "ĠÑıÑģÐ½Ð¾": 6414,
      "led": 6415,
      "ĠÐ¿Ð¸ÑģÐ°ÑĤÑĮ": 6416,
      "ĠÐ½Ð¸ÐºÐ¾Ð³Ð¾": 6417,
      "ÑıÐ»Ð¸ÑģÑĮ": 6418,
      "ĠÐ¡ÐºÐ°": 6419,
      "ĠÐ£Ð¶Ðµ": 6420,
      "ari": 6421,
      "Ġ31": 6422,
      "ĠÐºÐ¾Ð¼Ð½Ð°ÑĤÐµ": 6423,
      "ĠÑĢÐ°Ð·Ð»Ð¸ÑĩÐ½ÑĭÐµ": 6424,
      "ÐĿÐ¸": 6425,
      "ĠÐºÑĥÑĢÑģ": 6426,
      "ĠÑģÐµÐ¼ÑĮÐµ": 6427,
      "ĠÐ²Ð¾ÑģÐ¿Ð¸ÑĤ": 6428,
      "Ð°Ð°": 6429,
      "ÑĤÐµÐ»Ð¸": 6430,
      "ĠÐĶÐ¾Ð¼": 6431,
      "ĠÑģÐµÑĢÐµ": 6432,
      "read": 6433,
      "Ð»Ð°ÑģÑģ": 6434,
      "ĠÐ¿ÑĢÐµÐ¸Ð¼Ñĥ": 6435,
      "ĠÐ¼Ð°Ð³Ð°Ð·": 6436,
      "ÑĢÐ¾Ð²Ð°Ð½Ð½ÑĭÐµ": 6437,
      "Ġinte": 6438,
      "Ð´Ð¸Ð½Ð¾": 6439,
      "Ð¸ÑģÐ¿": 6440,
      "Ġagainst": 6441,
      "Ġser": 6442,
      "ÑģÐµÐ½": 6443,
      "ÑĢÐ°Ð½ÐµÐµ": 6444,
      "Ð½ÐµÐ½Ð¸Ð¹": 6445,
      "ĠAs": 6446,
      "ĠÐ´Ð¾ÑģÑĤÐ¸Ð³": 6447,
      "ÐµÑĢÑĮ": 6448,
      "ĠÐĲÐ»ÐµÐº": 6449,
      "ĠÑĦÐ°Ð¼Ð¸": 6450,
      "cial": 6451,
      "Ð·ÐµÐ¹": 6452,
      "ĠÑıÐ·ÑĭÐºÐ°": 6453,
      "Ð¿ÑıÑĤ": 6454,
      "ĠÐ½ÐµÐ±Ð¾": 6455,
      "aj": 6456,
      "Ð¸ÑĤÐµÐ»ÑĮÐ½ÑĭÐ¼": 6457,
      "Ð¸ÑĤÐµÐ»ÑĮÐ½Ð¾ÑģÑĤÐ¸": 6458,
      "ĠÐŁÐ¾Ð¿": 6459,
      "ÑĤÐ¸ÑĢÐ¾Ð²Ð°ÑĤÑĮ": 6460,
      "ĠÑģÐ¿Ð¾ÑĢÑĤ": 6461,
      "ĠÐ¾Ð±Ð»Ð°ÑģÑĤÑĮ": 6462,
      "Ð¾ÑĢÑıÐ´": 6463,
      "ĠÑħÐ²Ð°ÑĤÐ°ÐµÑĤ": 6464,
      "ĠÐ¼Ð¾Ð¼ÐµÐ½ÑĤÐ°": 6465,
      "ĠÑģÐ»Ð¾Ð²Ð°Ð¼Ð¸": 6466,
      "ĠÐ½Ð°ÑĥÑĩÐ¸": 6467,
      "ually": 6468,
      "ÑĨÐµÑģ": 6469,
      "ĠÐ¼Ð¸ÐºÑĢÐ¾": 6470,
      "ÑĨÐ¸Ð¾Ð½Ð¸": 6471,
      "ĠÑĢÐµÑĨÐµÐ¿": 6472,
      "31": 6473,
      "Ġed": 6474,
      "ĠÑģÐ¾ÑģÑĤÐ¾Ð¸ÑĤ": 6475,
      "ÑĤÐµÐº": 6476,
      "de": 6477,
      "Ð»ÑĮÑı": 6478,
      "ĠÐ·Ð½Ð°Ð½Ð¸Ñı": 6479,
      "ÑģÐ¾Ðº": 6480,
      "ĠÐ¡ÑĤÑĢÐ°": 6481,
      "ĠÑģÐ²Ð¾Ñĳ": 6482,
      "me": 6483,
      "Ð°Ð½Ð½Ð¾Ð³Ð¾": 6484,
      "ĠÐ²Ð¾Ð¿ÑĢÐ¾ÑģÐ¾Ð²": 6485,
      "ĠÐ¾ÑĢÑĥÐ¶": 6486,
      "duc": 6487,
      "47": 6488,
      "ÑĢÑĥÑĤ": 6489,
      "ĠÐ±Ð¾Ð¼": 6490,
      "ĠÐ¾ÑģÑĤÐ°Ð²Ð»Ñı": 6491,
      "ĠÐ¾ÑĤÑĩÐµÑĤ": 6492,
      "1076": 6493,
      "ĠÐ´Ð°Ð½Ð½Ð¾Ð¹": 6494,
      "ĠÑģÑĩÐ¸ÑĤÐ°ÐµÑĤ": 6495,
      "ĠÐ³Ð¾Ð²Ð¾ÑĢÑİ": 6496,
      "ĠÐ·Ð´Ð¾ÑĢÐ¾Ð²ÑĮÑı": 6497,
      "ĠÐ¿Ð¾Ð·Ð½Ð°ÐºÐ¾Ð¼": 6498,
      "ĠÐĵÐ¾ÑģÑĥÐ´Ð°ÑĢ": 6499,
      "ought": 6500,
      "ÑģÑĤÑĢÐµÐ±": 6501,
      "ĠÐļÐ°Ð¶Ð´ÑĭÐ¹": 6502,
      "Ġext": 6503,
      "ĠÐ½Ð¸Ð¶": 6504,
      "Ð´ÐµÐ²": 6505,
      "ĠÐĿÐ¸ÐºÐ¾Ð»Ð°": 6506,
      "ĠÐ·Ð°Ð½Ð¸Ð¼Ð°ÑĤÑĮÑģÑı": 6507,
      "Ġserv": 6508,
      "ĠÐ´Ð¾Ð±ÑĢÐ°": 6509,
      "ĠÐºÐ¾ÑĤÐ¾ÑĢÑĭÐ¼Ð¸": 6510,
      "ĠÐ¿ÐµÑĩ": 6511,
      "ÑĥÑİÑĤ": 6512,
      "ĠÐ½Ð°Ñħ": 6513,
      "alk": 6514,
      "Ð¾Ð²Ð¾ÑĢÐ¸ÑĤÑĮ": 6515,
      "ÑģÑĭÐ¿": 6516,
      "ĠÐĿÐµÑģ": 6517,
      "ĠÐ»Ð¸ÑĨÐµ": 6518,
      "Ð¸ÑĪ": 6519,
      "Ġworld": 6520,
      "ision": 6521,
      "ĠÐ²ÐµÐ»Ð¸Ðº": 6522,
      "ĠÐ´Ð¸Ñģ": 6523,
      "ÑĩÐµÑģÐºÐ¸Ð¼Ð¸": 6524,
      "Ġdoes": 6525,
      "Ð´ÐµÑĢÐ¶Ð°": 6526,
      "ĠÐ·Ð°Ð¿Ð»Ð°": 6527,
      "ĠÐ¿Ð»Ð¾ÑīÐ°Ð´Ð¸": 6528,
      "ÑĤÐ¸Ð»Ð¸ÑģÑĮ": 6529,
      "ĠÑģÑĥÐ´Ð°": 6530,
      "Ð°ÑıÑģÑĮ": 6531,
      "Ġ{": 6532,
      "ĠÐ·Ð°Ð¸Ð½ÑĤÐµÑĢÐµÑģ": 6533,
      "ĠÐ±Ð¾Ð»ÑĮÑĪÐ¸Ðµ": 6534,
      "ÐºÐ¾ÑģÑĤÐ¸": 6535,
      "ĠÐ½ÐµÐ¿ÑĢÐ°Ð²": 6536,
      "ĠÐ¼Ð°ÑģÑģÐ°": 6537,
      "Ġter": 6538,
      "ĠÑĦÐ¾ÑĤÐ¾Ð³ÑĢÐ°ÑĦÐ¸Ð¸": 6539,
      "ĠÐºÐ¾Ðµ": 6540,
      "ĠÑģÐ¸ÑĤÑĥÐ°ÑĨÐ¸Ñı": 6541,
      "ĠÐ¿Ð°ÑģÑģÐ°Ð¶Ð¸": 6542,
      "ĠÐ½Ð°ÑĩÐ°Ð»Ð¾": 6543,
      "ĠÐĴÑģÑĳ": 6544,
      "ĠÐļÑģÑĤÐ°ÑĤÐ¸": 6545,
      "ĠÐ¿ÑĢÐ¸Ð²Ð»Ðµ": 6546,
      "ĠÑģÐ¼Ð¾Ð¶ÐµÑĤÐµ": 6547,
      "Ġgener": 6548,
      "br": 6549,
      "We": 6550,
      "ĠÐ¼ÐµÐ¶": 6551,
      "ÐµÐ´Ñĭ": 6552,
      "ĠÐ½Ð¾Ð²Ð¾Ðµ": 6553,
      "ĠÐ¸Ð¼ÐµÐ»": 6554,
      "ĠÐ¶Ð¸Ð²Ð¾ÑĤÐ½ÑĭÑħ": 6555,
      "yn": 6556,
      "Ġ35": 6557,
      "ĠÐļÑĥÑĢ": 6558,
      "****": 6559,
      "ÑĤÐ¾Ð»": 6560,
      "ĠÐ¼Ð°Ð³": 6561,
      "ĠÐ²ÑĭÐ¿Ð»Ð°": 6562,
      "ĠÐ±Ð¸Ð·Ð½ÐµÑģÐ°": 6563,
      "ÑĩÐ½ÑĭÐ¼Ð¸": 6564,
      "ĠÐ»ÐµÐºÐ°ÑĢ": 6565,
      "ĠÑģÐ¾Ð³Ð»Ð°ÑģÐ½Ð¾": 6566,
      "ĠÐ°Ð½Ð³": 6567,
      "ĠÐľÐ°Ð»": 6568,
      "ÑĢÑĥÐ³Ð°": 6569,
      "ĠÑĢÐ°ÑģÑģÐºÐ°Ð·Ð°Ð»": 6570,
      "Ð¾Ð¹Ð´": 6571,
      "ĠÐ¼ÐµÑĢÑĤ": 6572,
      "Ð¾Ð²Ð°Ð½Ñĭ": 6573,
      "ĠÐ·ÐµÐ¼Ð»Ñı": 6574,
      "ÐµÐ·Ð¶Ð°": 6575,
      "ĠÐ½Ð°ÑĩÐ¸Ð½": 6576,
      "ÑĥÐ¼ÐµÐµÑĤÑģÑı": 6577,
      "ĠÑĥÐºÑĢÐµÐ¿": 6578,
      "ĠÑģÐ¾Ð±ÑĭÑĤÐ¸Ð¹": 6579,
      "ĠÐ¼ÐµÑħÐ°Ð½Ð¸Ð·": 6580,
      "ĠÐĹÐ°Ð¼": 6581,
      "ĠÑģÐ¾ÑģÑĤÐ°Ð²Ðµ": 6582,
      "ĠÐ¿Ð¾Ð»ÑĥÑĩÐµÐ½Ð¸Ñı": 6583,
      "ĠÑĦÐ¾ÑĢÐ¼": 6584,
      "Ġdist": 6585,
      "ÑĤÑıÐ³Ð¸": 6586,
      "ÐŁÐµÑĢ": 6587,
      "ĠÐ¼Ð¾Ð»Ð¾Ð´Ð¾Ð¹": 6588,
      "ÑĨÐ°Ñħ": 6589,
      "ĠÐ²ÑĭÐ½ÑĥÐ¶Ð´": 6590,
      "Ð±ÑıÑĤÐ°": 6591,
      "ĠÐ¾ÑĤÐ½Ð¾ÑĪÐµÐ½Ð¸Ð¹": 6592,
      "ĠÐ´Ð¾Ð±Ñĭ": 6593,
      "ĠÑħÐ¾ÑĢÐ¾ÑĪÐ¸Ð¹": 6594,
      "ÑĢÑĭÐ²Ð°": 6595,
      "ĠÐ²Ð¸Ð´Ð¾Ð²": 6596,
      "ĠÐ¿ÑĢÐµÐ·Ð¸Ð´ÐµÐ½ÑĤÐ°": 6597,
      "ĠÑĤÑĢÐµÐ²": 6598,
      "ĠÐºÐ¾Ð¼Ð°Ð½Ð´Ñĭ": 6599,
      "ĠÐ¿Ð¾Ð´ÐºÐ»Ñİ": 6600,
      "ÑĤÐµÐ»ÑĮÐ½Ð¾Ð³Ð¾": 6601,
      "ĠÑģÑĤÑĢÐ¾Ð¸ÑĤÐµÐ»ÑĮÑģÑĤÐ²Ð°": 6602,
      "ÑĩÐ¸Ð»Ð°": 6603,
      "ĠÑģÐ¼Ð¾ÑĤÑĢÐµÐ»": 6604,
      "ĠÑģÐ»ÐµÐ³": 6605,
      "ĠÑģÐµÐ¼ÑĮÑı": 6606,
      "ĠÐ¸ÑģÐºÐ»ÑİÑĩÐ¸ÑĤÐµÐ»ÑĮÐ½Ð¾": 6607,
      "ĠÐ¿ÑĢÐ¾ÑĪÐ»Ð¾Ð¼": 6608,
      "mail": 6609,
      "Ð¸ÑĤÐ¸ÑĩÐµÑģÐº": 6610,
      "Ð¼ÑĭÑģÐ»": 6611,
      "Ð¾Ð²Ð¾Ðµ": 6612,
      "ĠÐ³ÑĢÐ¾Ð·": 6613,
      "ĠÐºÐ½Ð¾Ð¿": 6614,
      "ĠÐ¿ÑĢÐ¾ÑĨÐµÑģÑģÐµ": 6615,
      "ÑĩÑĳÑĤ": 6616,
      "ĠÑģÐ¿Ð¸ÑģÐ¾Ðº": 6617,
      "Ġwant": 6618,
      "ĠÑĢÐµÐ³ÑĥÐ»ÑıÑĢ": 6619,
      "ÑĥÑħÐ°": 6620,
      "ĠÐ¿ÑĢÐµÐ²Ñĭ": 6621,
      "ron": 6622,
      "ĠÐºÑĢÐ°Ñı": 6623,
      "urr": 6624,
      "ĠÐĴÐ¸Ð´": 6625,
      "ĠÐ²ÑĭÑĢÐ°": 6626,
      "ĠPro": 6627,
      "ĠÐ¿ÑĢÐ¾Ð¶": 6628,
      "ĠÐ¾ÑĤÐ½Ð¾ÑĪÐµÐ½Ð¸Ðµ": 6629,
      "Ġmet": 6630,
      "ÐļÐ¾Ð¼": 6631,
      "ĠÑĦÐ°": 6632,
      "ÑīÐ°ÑĤÑĮÑģÑı": 6633,
      "ĠÐ¾ÑĢÐ¸": 6634,
      "ÑĥÐ¶Ð½Ð¾": 6635,
      "ĠÑĢÐ¾ÑģÑģÐ¸Ð¹ÑģÐºÐ¸Ñħ": 6636,
      "ĠÐ»ÐµÐ²": 6637,
      "ÑĦÐ¸Ðº": 6638,
      "ĠÑģÐ´ÐµÐ»Ð°Ð»Ð¸": 6639,
      "ĠÐºÑģÑĤÐ°ÑĤÐ¸": 6640,
      "ĠÐºÐ½Ð¸Ð³Ñĥ": 6641,
      "ĠÑĤÐµÑħÐ½Ð¾Ð»Ð¾Ð³Ð¸Ð¸": 6642,
      "ĠÐ¶Ð¸Ð´": 6643,
      "ĠÐļÑĢÑĭ": 6644,
      "ĠÐºÐ°ÑĢÑĤÐ¾": 6645,
      "ern": 6646,
      "ÐºÐ¾Ð²Ð¾Ð¹": 6647,
      "ĠÐĶÐ¾Ð½": 6648,
      "ĠÐ°Ð²ÑĤÐ¾Ð¼Ð¾Ð±Ð¸Ð»Ñı": 6649,
      "ĠÐ·Ð´Ð°Ð½Ð¸Ñı": 6650,
      "Ð±ÑĢÑĮ": 6651,
      "ĠÑĢÐµÐ»Ð¸Ð³Ð¸": 6652,
      "ĠÑĥÑĤÐ¾Ñĩ": 6653,
      "ĠÐºÐ²Ð°": 6654,
      "Ġfam": 6655,
      "ĠÑĤÐµÑħÐ½Ð¸ÐºÐ¸": 6656,
      "ĠÐ¸ÑģÑĤÐ¸Ð½": 6657,
      "ĠÐ¾Ð¿ÑĢÐ°Ð²": 6658,
      "ÑīÐ°Ð»": 6659,
      "ĠÐ¿ÑĢÐµÐ·": 6660,
      "ÑĢÐ°Ð·Ð´ÐµÐ»": 6661,
      "Ð¼ÐµÐ½Ð¸ÑĤÑĮ": 6662,
      "ĠÐ¿Ð¸ÑĤ": 6663,
      "ĠÐ´Ð¾Ð¼Ð¾Ð²": 6664,
      "ĠÐ·Ð°Ð¼ÐµÑģÑĤ": 6665,
      "Ġgu": 6666,
      "ĠÐºÐ¾ÑĢÐ¾Ð±": 6667,
      "ĠÐ°ÑĥÐ´Ð¸": 6668,
      "ĠÑĩÐµÐ¼Ð¿Ð¸Ð¾Ð½Ð°": 6669,
      "ĠÐ¿Ð¾Ð»Ð½Ð¾Ð¹": 6670,
      "ĠÑģÐ»ÐµÐ³ÐºÐ°": 6671,
      "ÑĢÐ¾Ð²Ð°Ð½Ñĭ": 6672,
      "Ð»ÐµÐ½Ð½Ð¾Ð¹": 6673,
      "\")": 6674,
      "ĠÐ¸Ð³ÑĢÐ°ÑĤÑĮ": 6675,
      "ĠÑĤÑĢÐµÐ½": 6676,
      "ĠÐ¾ÑģÐ¾Ð±Ñĭ": 6677,
      "ĠÐ³Ð¾Ð»Ð¾Ð²Ð°": 6678,
      "ĠÐ´Ñı": 6679,
      "ĠÐ¾ÑĤÑĢÐ¸": 6680,
      "ĠÑģÐ²ÐµÑĤÐµ": 6681,
      "Ð·Ð¼Ð°": 6682,
      "ĠÐ¿Ð¸ÑģÑĮÐ¼Ð¾": 6683,
      "ĠÐ¼Ð¾Ð½Ð°ÑģÑĤÑĭ": 6684,
      "ĠÑĢÐ°Ð´": 6685,
      "ĠÑĤÑĢÐµÐ±ÑĥÐµÑĤ": 6686,
      "ĠÐ¾Ð±Ð°": 6687,
      "oot": 6688,
      "ĠÑĨÐµÐ½ÑĤÑĢÐ°Ð»ÑĮ": 6689,
      "ĠÐ°Ð²Ð¸Ð°": 6690,
      "!!!!": 6691,
      "ĠÐ¿Ð¾Ð´ÐµÐ»": 6692,
      "Ð¿ÐµÑĢÐµ": 6693,
      "ÐļÐĺ": 6694,
      "ĠÐ²Ð¾Ð·Ð±": 6695,
      "ĠÐ¼ÐµÑģÑĤÐ°Ñħ": 6696,
      "Ð¼Ð¾Ð»": 6697,
      "ĠÐĽÑĥÑĩ": 6698,
      "ĠÐļÐ°Ð¼": 6699,
      "?..": 6700,
      "ines": 6701,
      "ĠÑĩÐ¸Ñģ": 6702,
      "ĠÑģÐ¾Ð»Ð½ÑĨÐµ": 6703,
      "77": 6704,
      "Ð³Ð¾ÑĤ": 6705,
      "ÑģÐ¸Ð»Ð¸Ñı": 6706,
      "ĠÐ¢Ð¾Ð¼": 6707,
      "ĠÐ±Ð¾Ð»ÑĮÑĪÑĥÑİ": 6708,
      "Ð»Ð»": 6709,
      "ÑĤÐ¸ÑĩÐµÑģÐºÐ¾Ð³Ð¾": 6710,
      "ĠÐ´Ð¸Ð¿Ð»Ð¾Ð¼": 6711,
      "Ð²Ð¾Ð´Ð°": 6712,
      "Ġhel": 6713,
      "ĠÑģÑĩÐ¸ÑĤÐ°ÑĤÑĮ": 6714,
      "ĠÐ½ÐµÐ¿Ð¾Ð´": 6715,
      "ĠÑģÐ°Ð¼Ð¾ÑģÑĤÐ¾ÑıÑĤÐµÐ»ÑĮÐ½Ð¾": 6716,
      "ÑĢÐ¾Ð²Ð¾Ð´": 6717,
      "Ġ2017": 6718,
      "ĠÐ¿Ð¾Ð»ÑĥÑĩÐ¸Ð»Ð¸": 6719,
      "ĠÐ´Ð¾Ð²ÐµÑĢ": 6720,
      "ĠÐ·Ð°Ñı": 6721,
      "ĠÐ·Ð°Ð¿Ð°Ñģ": 6722,
      "ĠÐ´Ð¸ÑĢÐµÐºÑĤÐ¾ÑĢ": 6723,
      "ĠÐĽÐµÐ½Ð¸Ð½": 6724,
      "ĠÐ¾ÑĤÐ·Ñĭ": 6725,
      "ĠÐµÐ¶": 6726,
      "ÑĩÐ¸Ð²Ð°ÐµÑĤÑģÑı": 6727,
      "ĠÑĤÐ¾Ñĩ": 6728,
      "Ġsame": 6729,
      "ÑĤÐ¾ÑĢÐ¸Ð¸": 6730,
      "ĠÐºÐ¾Ð½ÑĤÑĢÐ¾Ð»ÑĮ": 6731,
      "ĠÐ·Ð¾Ð²": 6732,
      "ĠÑĩÑĳÐ¼": 6733,
      "Ð¶Ð´Ð°Ñı": 6734,
      "ĠÐ²Ð»Ð°Ð´ÐµÐ»ÑĮ": 6735,
      "ĠÐ¿ÑĢÐ¸Ð½ÐµÑģ": 6736,
      "ĠÐ¾Ð±Ð½Ð°ÑĢÑĥÐ¶Ð¸": 6737,
      "ĠÑģÑĭÐ½Ð°": 6738,
      "Ġgood": 6739,
      "ĠÑģÐ¾Ð¾Ð±ÑīÐ¸": 6740,
      "Ð¾Ð¶Ð´Ðµ": 6741,
      "ÑĢÐ¾Ð²Ð¾Ð¹": 6742,
      "ĠÑĥÐ´Ð°ÑĢ": 6743,
      "ĠÐ¾ÑĤÐ½Ð¾ÑģÐ¸ÑĤÐµÐ»ÑĮÐ½Ð¾": 6744,
      "ĠÑĤÐ¾Ð²Ð°ÑĢÐ¾Ð²": 6745,
      "ĠÐºÐ¾Ð½ÑĨÐ¾Ð²": 6746,
      "ĠÐºÑĢÐ¾": 6747,
      "ÑıÑı": 6748,
      "ient": 6749,
      "ĠÐ¾ÑĤÐ»Ð¸ÑĩÐ¸Ðµ": 6750,
      "ĠÐ³Ð¾Ð²Ð¾ÑĢÐ¸Ð»Ð¸": 6751,
      "ĠÑıÐ·ÑĭÐºÐµ": 6752,
      "ĠÐ»Ð¾Ð´": 6753,
      "ĠÐ·Ð°ÑĤÑĢÐ°": 6754,
      "ÑĪÐµÐ¼Ñĥ": 6755,
      ".-": 6756,
      "ĠÐ±Ð¾Ðµ": 6757,
      "Ð¸ÐºÑĥ": 6758,
      "ĠÐ²ÑĢÐ°Ñĩ": 6759,
      "Ð°Ð»ÐµÐµ": 6760,
      "Ð·Ñĥ": 6761,
      "ĠÐķÐ²ÑĢÐ¾Ð¿Ñĭ": 6762,
      "ĠÐ¿Ð»Ð¾ÑĤ": 6763,
      "ĠÐºÐ½Ð¸Ð³": 6764,
      "ĠÐ¿ÑĢÐµÐ´ÑĭÐ´Ñĥ": 6765,
      "Ð³Ð´Ðµ": 6766,
      "Ð»Ð»Ñİ": 6767,
      "ĠÐ±Ð¸ÑĤ": 6768,
      "ĠÐ±ÑİÐ´Ð¶ÐµÑĤ": 6769,
      "ĠÐ¼Ð°Ð³Ð°Ð·Ð¸Ð½": 6770,
      "ĠÑĤÐ¾ÑĢÐ¶Ðµ": 6771,
      "ĠÐ½ÐµÐ¿ÑĢÐ¸ÑıÑĤ": 6772,
      "ĠÐĳÐ¾ÑĢÐ¸": 6773,
      "Ġgroup": 6774,
      "ĠÐ¾Ð±ÑģÑĥÐ¶Ð´": 6775,
      "ĠÐ½Ð¾ÑĢÐ¼Ð°Ð»ÑĮÐ½Ð¾": 6776,
      "ĠÑģÐ¸ÑģÑĤÐµÐ¼Ðµ": 6777,
      "ĠÑĢÑĭÐ½ÐºÐ°": 6778,
      "ĠFr": 6779,
      "ĠÐ²Ð°ÑĪÐµ": 6780,
      "ĠÑĢÐ°Ð·Ð»Ð¸": 6781,
      "arge": 6782,
      "ĠÐ¿ÑĢÐ¾Ð³Ñĥ": 6783,
      "ĠÂ": 6784,
      "ĠÐ´ÑĢÑĥÐ³ÑĥÑİ": 6785,
      "ĠÐ¿ÑĢÐµÐ´Ð¿Ð¾Ð»Ð¾Ð¶": 6786,
      "ÑģÑĤÐ¸Ð»Ð¸": 6787,
      "ÑĥÑģÐ°": 6788,
      "cept": 6789,
      "Ġint": 6790,
      "ĠÐ´ÑĢÑĥÐ³Ñĥ": 6791,
      "ĠÐļÐ°Ð·": 6792,
      "ĠÐ¾Ð½Ð»Ð°Ð¹Ð½": 6793,
      "ÑĪÐ°ÑİÑĤ": 6794,
      "ĠÐ²Ð¾ÑģÐ¿Ð¾Ð»ÑĮÐ·": 6795,
      "ral": 6796,
      "ets": 6797,
      "Ð½ÑıÐ»": 6798,
      "ĠÐ¿Ð¾ÑģÑĤÐµÐ¿ÐµÐ½Ð½Ð¾": 6799,
      "Ð¾ÑĩÑĥ": 6800,
      "ĠÐ¿ÑĢÐµÐ´ÐµÐ»Ð°": 6801,
      "ĠÐ²Ð¸Ð´Ð°": 6802,
      "It": 6803,
      "ĠÐºÐ³": 6804,
      "ĠÐ³ÑĢÑĥÐ´Ð¸": 6805,
      "ĠÐłÐµÑģÐ¿ÑĥÐ±Ð»Ð¸ÐºÐ¸": 6806,
      "ĠÑĪÑĥÑĤ": 6807,
      "ĠÐ»ÐµÑĩÐµÐ½Ð¸Ñı": 6808,
      "ĠÑĢÐ¾Ð´Ð¸ÑĤÐµÐ»Ð¸": 6809,
      "ĠÑĩÐ¸Ð½Ð¾Ð²": 6810,
      "ĠÑĥÐ³Ð¾Ð»": 6811,
      "ĠÐ¶Ð¸Ð²ÐµÑĤ": 6812,
      "ĠÐ±Ð»Ñİ": 6813,
      "ĠÐ´Ð°Ð½Ð½Ð¾Ð¼": 6814,
      "ÑģÑĤÐ¾ÑĢÐ¾Ð½": 6815,
      "ÐŁÐ¾ÑĤ": 6816,
      "Ð°Ð»Ð¾Ð¼": 6817,
      "ĠÐ¿ÑĢÐ¸Ð³": 6818,
      "ÑĤÐ¸Ð²Ñĭ": 6819,
      "ĠÐ¿ÐµÑĢÐµÑģ": 6820,
      "ĠÐ°Ð»ÐºÐ¾Ð³": 6821,
      "ĠÐºÐ¾Ð½ÐµÑĨ": 6822,
      "ĠÐ¾Ð´Ð¸Ð½Ð°": 6823,
      "ÐµÑĢÐµÐ¹": 6824,
      "Ġfil": 6825,
      "ÑĤÐ¾ÑĢÐ¸": 6826,
      "ĠÐ´Ð²Ð¸Ð¶ÐµÐ½Ð¸Ðµ": 6827,
      "ĠÐŁÐ»Ð°": 6828,
      "ĠÐ°ÐºÐ°Ð´ÐµÐ¼": 6829,
      "ĠÐ³Ð¾Ð½": 6830,
      "Ġpoint": 6831,
      "ĠÑģÐ¿ÐµÑĨ": 6832,
      "ĠÐ½Ð°ÑĪÑĥ": 6833,
      "ĠÐ±ÑĭÑģÑĤÑĢÐµÐµ": 6834,
      "ĠÐ¸Ð½Ð¶ÐµÐ½": 6835,
      "ÑįÑĤ": 6836,
      "Ð°Ð½Ð³": 6837,
      "Ð·Ð¸Ð´ÐµÐ½": 6838,
      "Ġduring": 6839,
      "ĠÐ¿Ð¾ÑĢÑıÐ´Ð¾Ðº": 6840,
      "ĠÐ´Ð°Ð¼": 6841,
      "ĠÐ½ÐµÐ´Ð¾Ð²": 6842,
      "Ð¡Ð°Ð¼": 6843,
      "ĠUS": 6844,
      "ÑįÐºÐ¾Ð½Ð¾Ð¼": 6845,
      "ĠÐ¼Ð¾ÑģÐºÐ¾Ð²": 6846,
      "ÐľÐ¾": 6847,
      "ÑģÑĤÐ°Ð»Ð°": 6848,
      "ĠÐ¿Ð¸ÑĤÐ°Ð½Ð¸Ñı": 6849,
      "ÑĢÐ¾ÑĢ": 6850,
      "ĠÐłÐ¾Ð¼": 6851,
      "ĠÐ¿ÑĢÐµÐ´Ð²Ð°ÑĢÐ¸": 6852,
      "ĠÐ¾ÑģÐ¾Ð±Ð¾": 6853,
      "ĠÑģÐ¿ÐµÑĨÐ¸Ð°Ð»ÑĮÐ½Ð¾": 6854,
      "ĠÐ¿ÑĢÐ¾ÑıÐ²": 6855,
      "Ġ2007": 6856,
      "ĠÐķÐºÐ°ÑĤÐµÑĢÐ¸": 6857,
      "ĠÑĪÐ¾Ðº": 6858,
      "ÐµÐ½ÑĮÑİ": 6859,
      "ĠÑģÐºÐ²Ð¾Ð·ÑĮ": 6860,
      "ĠÐ°ÐºÑĤÑĥ": 6861,
      "ĠÐ±ÐµÑģÐ¿Ð»Ð°ÑĤÐ½Ð¾": 6862,
      "ÑīÐ¸Ð½Ð°": 6863,
      "ÐĲÐ½": 6864,
      "ĠÐ¸Ð¼Ð¿ÐµÑĢÐ°": 6865,
      "Ġmed": 6866,
      "Ð¿Ð°ÑĢÐ°ÑĤ": 6867,
      "Ð½ÐµÐ½Ð¸Ð¸": 6868,
      "ĠÐºÐ»Ð¸ÐµÐ½ÑĤÐ°": 6869,
      "Ð¾Ð³Ð»Ð°ÑģÐ½Ð¾": 6870,
      "Ð¸ÑĤÐµÐ»ÑĮÐ½Ð¾ÑģÑĤÑĮ": 6871,
      "66": 6872,
      "ÑĤÐ¸Ñİ": 6873,
      "ĠÐ¿Ð»Ñı": 6874,
      "ÑĤÐ¸Ð»Ð°ÑģÑĮ": 6875,
      "ÑĢÐ¸ÑĤÐ°Ð½": 6876,
      "ene": 6877,
      "ĠÐ½ÐµÐ·Ð°Ð¼": 6878,
      "ĠÑĦÐ°Ð¹": 6879,
      "ÑĥÑİÑīÐµÐµ": 6880,
      "ĠÑģÑĤÐ¾ÑĢÐ¾Ð½Ðµ": 6881,
      "ĠÐŀÐ»ÑĮ": 6882,
      "ĠÐ·Ð°ÑĢÐ¿Ð»Ð°": 6883,
      "Ð±Ð¸Ð½": 6884,
      "ĠÐķÐ¼Ñĥ": 6885,
      "ĠÐ¿ÑĢÐµÐ¿Ð°ÑĢÐ°": 6886,
      "Ð²ÑĭÐ¼Ð¸": 6887,
      "ÑĢÐ¾Ð²Ð°Ð½Ð½ÑĭÐ¹": 6888,
      "ĠÐ±Ð°Ð½ÐºÐ¾Ð²": 6889,
      "Ð°ÑĤÐµÐ»Ð¸": 6890,
      "oci": 6891,
      "ĠÐ°ÑĤÐ¼Ð¾Ñģ": 6892,
      "ize": 6893,
      "ÑģÑĤÐ²ÐµÐ½Ð½ÑĥÑİ": 6894,
      "ÑģÐ»Ð°Ð²": 6895,
      "ĠÑħÐ»Ð¾Ð¿": 6896,
      "ĠÑĢÐµÑĪÐ¸Ð»Ð°": 6897,
      "ĠÐ°Ð¿Ð¿Ð°ÑĢÐ°": 6898,
      "ĠÐŁÐ¾Ð²": 6899,
      "ĠÐ·Ð°Ð»Ð¸": 6900,
      "ĠÐ¢Ñĥ": 6901,
      "Ð¼ÐµÐ½ÑĤÐ¾Ð²": 6902,
      "ÐľÐĲ": 6903,
      "Ð¾Ð¼Ð¾": 6904,
      "ĠÑģÑĤÑĭ": 6905,
      "ĠÑĥÐ¿ÑĢÐ°Ð²Ð»Ñı": 6906,
      "Ð²Ð¾ÑĢÐ¸": 6907,
      "ĠÑĥÐ²Ð¸Ð´": 6908,
      "ĠÐ´Ð°ÑĢ": 6909,
      "Ð¶Ð¸Ñģ": 6910,
      "ÑģÑĤÐ¾Ð¸Ð½": 6911,
      "ĠÐ¿Ð¾Ð¼Ð¾Ð³Ð°ÐµÑĤ": 6912,
      "ĠÐ½Ð°Ð³ÑĢÑĥÐ·": 6913,
      "ĠÐ°Ð½Ð°Ð»Ð¸": 6914,
      "ĠÑįÐ½ÐµÑĢÐ³Ð¸Ð¸": 6915,
      "ÐŁÐ¾ÑģÐ»Ðµ": 6916,
      "43": 6917,
      "ĠÐ¿Ð¾ÑĪÐµÐ»": 6918,
      "ÑħÐ¾Ð¼": 6919,
      "ĠÐ¿ÑĢÐµÐ¶": 6920,
      "ĠÐ±ÑĭÑģÑĤ": 6921,
      "ÐµÐºÐ¾Ð¼": 6922,
      "ÑĪÑĮÑģÑı": 6923,
      "ĠÐºÐ°Ð¶Ð´Ñĭ": 6924,
      "Ġstill": 6925,
      "Ġboth": 6926,
      "ĠÐŁÑĥÑģÑĤÑĮ": 6927,
      "ĠÐ²ÑģÑĤÐ°": 6928,
      "ĠÐ¿ÑĢÐ¾Ð¹ÑĤÐ¸": 6929,
      "ĠÐľÐ½Ð¾Ð³Ð¸Ðµ": 6930,
      "ĠÐ²Ð½ÐµÐ·Ð°Ð¿": 6931,
      "ĠÐ¼ÑĥÐ¶Ð°": 6932,
      "Ð´Ð°Ð½Ð¸Ð¹": 6933,
      "ĠÐ²ÑģÑĤÑĢÐµÑĩÐ¸": 6934,
      "ĠÐ·Ð°ÐºÐ»ÑİÑĩ": 6935,
      "ĠÐŁÐµÑĢÐµÐ´": 6936,
      "ĠÐ¿Ð¾Ð²ÐµÑĢÑħÐ½Ð¾ÑģÑĤÐ¸": 6937,
      "ĠÐ¾Ð¿ÐµÑĢÐ°ÑĨÐ¸Ð¸": 6938,
      "Ð²ÑĪÐ¸Ð¼": 6939,
      "Ġpar": 6940,
      "ĠÑĢÐ°Ð±Ð¾ÑĤÐ°ÑİÑĤ": 6941,
      "ĠÑĩÐ¸ÑĤÐ°": 6942,
      "ĠÑĤÐ¾Ð²Ð°ÑĢ": 6943,
      "57": 6944,
      "ĠÐ¸ÑĤÐ¾Ð³": 6945,
      "ĠÐ¼Ð¸ÑĢÐ¾Ð²Ð¾Ð¹": 6946,
      "Ġgame": 6947,
      "ÑĥÐ¶ÐµÐ»Ð¸": 6948,
      "ĠÐ¿Ð¾Ð¼ÐµÑīÐµÐ½Ð¸Ñı": 6949,
      "Ð¼Ð°Ð½Ð°": 6950,
      "Ð¾Ð³Ð¸ÑĤÐµ": 6951,
      "ĠÐ¿ÑĢÐµÐ¼Ð¸": 6952,
      "ĠÐ¾ÑīÑĥ": 6953,
      "ĠÐ½Ð°ÑĪÐ»Ð¸": 6954,
      "ĠÐ²Ð¸Ð´Ð¸Ð¼Ð¾": 6955,
      "ĠÐ¼ÐµÑĢÐ¾Ð¿ÑĢÐ¸ÑıÑĤÐ¸Ñı": 6956,
      "ĠÐ²ÐµÑĢÐ½ÑĥÐ»ÑģÑı": 6957,
      "Ð¾Ð¶Ð´Ð°": 6958,
      "ĠÐºÐ»Ð°ÑģÑģÐ°": 6959,
      "ĠÐ¼Ð¾Ð¶ÐµÑĪÑĮ": 6960,
      "Ð»ÐµÐºÑĤ": 6961,
      "ER": 6962,
      "ĠÐ´Ð¾ÑģÑĤÐ¾Ð¹": 6963,
      "Ġ300": 6964,
      "ĠÑĥÑģÐ¿ÐµÐ»": 6965,
      "ĠÐ¼Ð»ÑĢÐ´": 6966,
      "sh": 6967,
      "Ð²ÑĪÑĥÑİ": 6968,
      "ĠÐĵÐ°": 6969,
      "ĠÐ¿ÑĢÐ¾ÑıÐ²Ð»Ñı": 6970,
      "ĠÐ²Ð¾Ð·ÑĢÐ°ÑģÑĤÐµ": 6971,
      "Ð²Ð¾Ð²": 6972,
      "ĠÑģÐ¾ÑİÐ·": 6973,
      "ĠÐľÐµÐ½Ñı": 6974,
      "ÑĩÐµÐ½Ð°": 6975,
      "ĠÐ·Ð°Ð¿Ð¸ÑģÐ¸": 6976,
      "Ġpublic": 6977,
      "ĠÑĥÑģÑĤÐ°Ð½Ð°Ð²Ð»Ð¸": 6978,
      "ĠÑĩÑĢÐµÐ·": 6979,
      "ĠÐŀÑģÑĤ": 6980,
      "ĠÐ·Ð½Ð°Ð»Ð°": 6981,
      "ÐľÐŀ": 6982,
      "Ð´ÑĢÐ°Ð²ÑģÑĤÐ²ÑĥÐ¹ÑĤÐµ": 6983,
      "ĠÐºÐ°Ð¶Ð´Ð¾Ð¼": 6984,
      "ĠÑįÐºÑģÐº": 6985,
      "ĠÐ¿Ð¸ÑĤÑĮ": 6986,
      "ĠÐ·Ð°Ð±Ð¾ÑĤ": 6987,
      "ÑĢÐ°Ð²Ð°": 6988,
      "Ð·Ð¾ÑĢ": 6989,
      "ĠÑģÐ¾ÑħÑĢÐ°Ð½": 6990,
      "ĠÑĢÐµÐºÐ¾Ð¼ÐµÐ½Ð´Ñĥ": 6991,
      "ĠÐ¾ÑĤÐµ": 6992,
      "ĠÐ¾ÑģÑĤÐ°Ð»ÑĮÐ½ÑĭÐµ": 6993,
      "ĠÐ¿Ð¾Ð¶Ð°Ð»": 6994,
      "ĠÑģÑĥÐ´ÐµÐ±": 6995,
      "ĠÑįÐºÑģÐ¿ÐµÑĢÐ¸": 6996,
      "ĠÑĢÐ°Ð·Ð¾Ð±ÑĢÐ°": 6997,
      "ĠÐĺÐ³Ð¾ÑĢ": 6998,
      "ĠÐĶÐµÐ½ÑĮ": 6999,
      "Ð±ÐµÐ¶Ð°ÑĤÑĮ": 7000,
      "ĠÐ½Ð°Ð·Ð²Ð°ÑĤÑĮ": 7001,
      "ĠÐ¿Ð¾Ð½ÑıÐ»Ð°": 7002,
      "ives": 7003,
      "ĠÑģÐ¾ÑĤÑĢÑĥÐ´Ð½Ð¸ÐºÐ¾Ð²": 7004,
      "ÑģÑĤÑĢÑĥ": 7005,
      "Ð¾ÑĩÐºÑĥ": 7006,
      "illion": 7007,
      "ized": 7008,
      "ished": 7009,
      "ĠÑĨÐµÐ¿": 7010,
      "ÑĦÑĥ": 7011,
      "ĠÐ¿ÑĢÐµÐ´ÑģÑĤÐ°Ð²Ð¸ÑĤÑĮ": 7012,
      "Ð¾Ð¿Ð¾Ð»Ð¾Ð¶": 7013,
      "ĠÐºÑĢÐ°Ð¹Ð½ÐµÐ¹": 7014,
      "ÑģÐºÐ°Ñħ": 7015,
      "ĠÑģÐ¾ÑĩÐµÑĤÐ°": 7016,
      "ĠÐ¿ÑĢÐ¾ÑħÐ¾Ð´Ð¸ÑĤ": 7017,
      "ĠÐĺÐ²Ð°Ð½": 7018,
      "ĠÐºÑĢÐ¾Ð²ÑĮ": 7019,
      "Ð²Ð¸Ð³": 7020,
      "ĠÐ¼Ð½Ð¾Ð³Ð¾ÑĩÐ¸ÑģÐ»": 7021,
      "An": 7022,
      "ĠÐ·ÐµÐ»": 7023,
      "Ð¶ÐºÐ¸": 7024,
      "Ð°ÑĢÐ¾Ð´": 7025,
      "Ġoffic": 7026,
      "ĠÐ±ÐµÑĢÐµÐ³Ñĥ": 7027,
      "ĠÑĢÐµÐ¼Ð¾Ð½ÑĤ": 7028,
      "82": 7029,
      "Ġ%": 7030,
      "ĠÐ¿ÑĢÐµÐ´Ð¿Ð¾Ð»Ð°Ð³Ð°": 7031,
      "ÐĹÐ½Ð°": 7032,
      "be": 7033,
      "Ð¾Ð»Ð¾Ð³Ð¸Ð¹": 7034,
      "ĠÐ½Ð°ÑħÐ¾Ð´ÑıÑĤÑģÑı": 7035,
      "ĠÐ¿Ð¾ÑĤÐ¾Ðº": 7036,
      "ĠÑĩÐµÑģÑĤÑĮ": 7037,
      "ĠÑĢÐ¾ÑģÑĤÐ°": 7038,
      "ÑĩÐµÐ½Ð¸Ñİ": 7039,
      "Ġcar": 7040,
      "ĠÑħÐ²Ð¾": 7041,
      "ÑıÑīÐµÐ³Ð¾": 7042,
      "ĠÐ¿ÐµÑĢÐ²Ð¾Ðµ": 7043,
      "ĠÐºÐ¾Ð½ÑĦÐµÑĢÐµÐ½": 7044,
      "Ġcap": 7045,
      "ĠÐ¿ÑĢÐ¸Ð¾Ð±ÑĢÐµÑĤ": 7046,
      "ved": 7047,
      "ĠÐ»ÐµÐ´": 7048,
      "ÐľÐ¾Ð¶Ð½Ð¾": 7049,
      "ĠÐľÐµÐ´": 7050,
      "ÐµÐ½Ð½Ð¾Ð¼": 7051,
      "ĠÐ³ÑĢÑĥÐ·": 7052,
      "ĠÐ½ÐµÐ¿Ð»Ð¾": 7053,
      "ĠÐ²Ð·Ð³Ð»ÑıÐ´Ð¾Ð¼": 7054,
      "ĠÐºÐ²Ð°ÑĢÑĤÐ¸ÑĢÑĥ": 7055,
      "ĠÐ·Ð°ÑħÐ¾ÑĤ": 7056,
      "ĠÐłÐ¾ÑģÑģÐ¸Ñİ": 7057,
      "ĠÐºÐ¾Ð¼Ð½Ð°ÑĤÑĭ": 7058,
      "ĠÑĢÐµÐ·ÑĥÐ»ÑĮÑĤÐ°ÑĤÑĭ": 7059,
      "ĠÐ¿Ð¾Ð»Ð°Ð³Ð°": 7060,
      "ĠÑĢÑĥÑģÑģÐºÐ¸Ñħ": 7061,
      "Ð¸ÑĤÐµÐ»ÑĮÐ½Ð°Ñı": 7062,
      "ĠÐ¾ÑĤÑĢÐ°": 7063,
      "ĠÐ²ÑĭÑĢÐ°Ð·": 7064,
      "ĠÑĢÐ°Ð±Ð¾ÑĤÐ°Ð»": 7065,
      "ĠÐŀÐ´Ð½Ð°": 7066,
      "ĠÑĢÐµÐ³Ð¸ÑģÑĤÑĢÐ°ÑĨÐ¸Ð¸": 7067,
      "ĠÐ¾Ð³Ð¾Ð½ÑĮ": 7068,
      "ÑĢÐ°Ð»": 7069,
      "ĠÐ¶ÐµÐ½Ð¸": 7070,
      "ÐŀÐ½Ð¸": 7071,
      "ÑĤÐ¾ÑĢÑĥ": 7072,
      "Ġrun": 7073,
      "ĠÑģÐ»ÐµÐ·": 7074,
      "ĠÑģÑĤÐ°Ð±": 7075,
      "ĠÐ¿ÑĢÐ¾Ð³ÑĢÐ°Ð¼Ð¼Ð°": 7076,
      "ĠÐ½Ð¾Ð²Ð¾ÑģÑĤÐ¸": 7077,
      "ÑĩÐ¾": 7078,
      "ĠÑĢÐ°Ð´Ð¸Ð¾": 7079,
      "ĠÐ¿ÑĢÐ¾ÑģÑĮ": 7080,
      "ĠÐ°Ð¼": 7081,
      "ĠÐºÐ¸Ð½": 7082,
      "ĠÐ¿Ð¾ÑģÐ¿": 7083,
      "ĠÐºÑĢÐ°Ð¹Ð½Ðµ": 7084,
      "Ð·Ð¼": 7085,
      "ĠÐ¼ÑĥÐ·ÑĭÐº": 7086,
      "ĠÐ¿ÑĢÐ¸Ð¼ÐµÑĢÑĥ": 7087,
      "ĠÐ¿Ð¸ÑģÐ°Ð»": 7088,
      "ner": 7089,
      "ĠÐ¿ÑĢÐµÐ´Ð»Ð°Ð³Ð°ÐµÑĤ": 7090,
      "ÑĢÐ¾ÑĩÐ½Ð¾": 7091,
      "ĠÐ±Ð¾Ð»Ð¸": 7092,
      "ĠÑģÐ°Ð»": 7093,
      "ĠÐ¿Ð¾ÑıÐ²Ð¸Ð»ÑģÑı": 7094,
      "ÐºÐ»": 7095,
      "ĠÑĢÐµÐºÐ¸": 7096,
      "Ġhelp": 7097,
      "Ġinf": 7098,
      "ret": 7099,
      "ĠÑĤÐ²Ð¾Ð¹": 7100,
      "ĠÐ¿Ð¾Ð»Ð¾Ñģ": 7101,
      "ÑĩÐ°ÑİÑĤÑģÑı": 7102,
      "ĠÐ¾ÐºÐ°Ð·Ð°Ð»Ð°ÑģÑĮ": 7103,
      "ĠÐ¿Ð¾Ð²ÑĤÐ¾ÑĢÑı": 7104,
      "ÐµÐ»ÑıÑħ": 7105,
      "ĠÐ¿ÑĢÐ¸ÑĪÐ»Ð°": 7106,
      "ĠÑģÑĩÐ¸ÑĤÐ°ÑİÑĤ": 7107,
      "ĠÐ¾Ð¿ÑĥÐ±Ð»Ð¸ÐºÐ¾Ð²": 7108,
      "ĠÐ²ÑĭÐ¿ÑĥÑģÐº": 7109,
      "ĠÐ´Ð¾ÑĢÐ¾Ð³Ñĥ": 7110,
      "ĠIs": 7111,
      "ĠÐĳÐ¾Ð»ÐµÐµ": 7112,
      "uth": 7113,
      "ĠÐ½ÐµÐ¿Ð¾Ð½": 7114,
      "Ð²Ð¸ÑĤÑĮÑģÑı": 7115,
      "ĠÑħÐ¾ÑĤÐµÐ»Ð¸": 7116,
      "ĠÑĥÐ¼Ð°": 7117,
      "ĠÐ°Ð´Ð¼Ð¸Ð½Ð¸ÑģÑĤÑĢÐ°ÑĨÐ¸Ð¸": 7118,
      "ĠÐĴÐ°Ð»": 7119,
      "Ð¾ÑģÐ½Ð¾Ð²": 7120,
      "ĠÐºÐ»Ð¸ÐµÐ½ÑĤÐ¾Ð²": 7121,
      "Ð´Ð¾ÑĢÐ¾Ð²": 7122,
      "ĠÑĢÐµÐ°Ð»Ð¸Ð·": 7123,
      "ĠÑĨÐµÑĢÐºÐ²Ð¸": 7124,
      "ÑģÑĤÐ½ÑĭÑħ": 7125,
      "ĠÐ¿ÑĢÐ¸ÑĪÐ»Ð¸": 7126,
      "Ð¾Ð»Ñĭ": 7127,
      "Ġdire": 7128,
      "ĠÐ¿ÑĢÐ°Ð²Ð¸ÑĤÐµÐ»ÑĮÑģÑĤÐ²Ð°": 7129,
      "Ð²ÐµÑĢÐ½Ð¾Ðµ": 7130,
      "ĠÐĴÐ¼Ðµ": 7131,
      "Ð½ÐµÑĤÑģÑı": 7132,
      "rest": 7133,
      "1091": 7134,
      "ĠÐ¾ÐºÐ°Ð·Ð°Ð»Ð¸ÑģÑĮ": 7135,
      "ĠÐ±Ð»Ð¸Ð¶Ðµ": 7136,
      "90": 7137,
      "ÑİÑĢ": 7138,
      "ĠÑįÐºÑĢÐ°": 7139,
      "Ð°Ð»Ð¸Ð½": 7140,
      "Ð¿Ð°Ð½": 7141,
      "ĠÑĢÐµÐ°Ð»Ð¸Ð·Ð°ÑĨÐ¸Ð¸": 7142,
      "ĠÐ´Ð¾ÑĩÑĮ": 7143,
      "ĠÑģÐ¾Ð³Ð»Ð°ÑģÐ¸": 7144,
      "ĠÐ·Ð°ÑĤÐ¾": 7145,
      "Ġ2000": 7146,
      "ĠÐ³Ð»Ð°Ð²Ð°": 7147,
      "ĠÑģÐ¾Ð»Ð½Ðµ": 7148,
      "ĠÐ¿Ð¾ÑĪÐ»Ð¸": 7149,
      "ĠÐºÐ¾ÑĢÐ¿Ð¾ÑĢÐ°": 7150,
      "46": 7151,
      "ĠÐ¿Ð¸Ð»": 7152,
      "1087": 7153,
      "ĠYou": 7154,
      "ĠÐ¿Ð»ÐµÐ¼": 7155,
      "outh": 7156,
      "ĠÐºÐ¾ÑģÑĤÑİ": 7157,
      "ÑĢÐ¾Ð³ÑĢÐ°Ð¼": 7158,
      "ÑĩÐµÐ²": 7159,
      "ÑĦÐ¸ÐºÐ°ÑĨÐ¸Ð¸": 7160,
      "Ð½Ð¸ÐºÐ°Ñħ": 7161,
      "ĠÐ¿Ð¾Ð»Ð¸ÑĤÐ¸ÐºÐ¸": 7162,
      "ĠÑĢÐµÐ³ÑĥÐ»Ð¸": 7163,
      "ĠÐ¿ÑĥÑĤÐµÐ¼": 7164,
      "ĠÐ¿Ð°Ð´": 7165,
      "Ð²ÐµÑģ": 7166,
      "ross": 7167,
      "ĠÐ±ÑĥÑħ": 7168,
      "cent": 7169,
      "ĠÐ¾ÑĢÑĥÐ¶Ð¸Ðµ": 7170,
      "ÑĥÑİÑīÐ¸Ð¼": 7171,
      "ĠÐĿÐµÐ¼": 7172,
      "ĠÑĢÐµÐ´ÐºÐ¾": 7173,
      "ĠÑģÐ¸Ð´ÐµÐ»": 7174,
      "ÑģÑĤÐ²Ð¾Ð²Ð°Ð»": 7175,
      ".[": 7176,
      "Ġsl": 7177,
      "ĠÐ¾ÑĢÐ³Ð°Ð½Ð¸Ð·Ð°ÑĨÐ¸Ð¹": 7178,
      "ÐĶÐĲ": 7179,
      "ĠÐ½Ð°ÑĪÐ¸Ð¼": 7180,
      "ĠÐ¼Ð°ÑģÑĪÑĤÐ°": 7181,
      "ĠÑģÐ½Ð¸Ð¼": 7182,
      "ĠÑħÑĢÐ¸ÑģÑĤÐ¸Ð°Ð½": 7183,
      "Ð¾ÑĤÐ¸": 7184,
      "ĠSc": 7185,
      "ÑģÐ¿Ð¾ÑĢÑĤ": 7186,
      "ĠÐ¾ÑĩÐµÑĢÐµÐ´Ð½Ð¾Ð¹": 7187,
      "ĠÐ¾ÑģÑĤÐ°Ð²Ð¸ÑĤÑĮ": 7188,
      "ÐµÐ¹Ð½": 7189,
      "ÑĤÐ°Ð¹": 7190,
      "ĠÐ¿ÑĢÐ¸ÑıÑĤÐ½Ð¾": 7191,
      "ced": 7192,
      "ÑıÑİÑĤÑģÑı": 7193,
      "ĠÐĶÐµÐ²": 7194,
      "ĠÐ¿ÑĢÐ¸Ð½Ð¸Ð¼Ð°ÑĤÑĮ": 7195,
      "ÐµÐ´Ð°": 7196,
      "ĠÐ²Ð¾Ð·Ð´ÑĥÑħÐ°": 7197,
      "ÑĢÐ¾Ð²ÐºÐ°": 7198,
      "Ð»ÑĮÐ½ÑĭÐ¹": 7199,
      "ĠÐ±Ð°Ð½Ðº": 7200,
      "ÐĿÐ«": 7201,
      "Ð»Ð°Ð¼Ð¸": 7202,
      "ĠÐ¡ÑĢÐµÐ´": 7203,
      "ĠÑĩÐµÑĢÐµ": 7204,
      "ĠÐ¼Ð¾Ð³Ð»Ð¾": 7205,
      "ĠÐ¾Ð±ÑīÐµÐ³Ð¾": 7206,
      "ĠÐ²Ð¸Ð´ÐµÐ»Ð¸": 7207,
      "ÑĤÐ¸ÑĩÐµÑģÐºÐ¸Ð¹": 7208,
      "ĠÐ³Ð»Ð°Ð²Ð½ÑĭÐ¹": 7209,
      "ĠÐĿÐ°Ð´Ðµ": 7210,
      "ĠÐ¼Ð¸Ð½ÑĥÑĤÑĥ": 7211,
      "ÑĮÐµÑĢÐ°": 7212,
      "ĠÐ»Ð¸Ð½": 7213,
      "ÑĢÐ¾Ð²Ð¸": 7214,
      "\"?": 7215,
      "ÑĬÐµÐ¼": 7216,
      "ĠÐ·Ð°Ð±Ð¾Ð»ÐµÐ²Ð°Ð½Ð¸Ñı": 7217,
      "ÑģÑıÑĤÑģÑı": 7218,
      "ĠÐĿÐ°Ð¼": 7219,
      "70": 7220,
      "Ð»Ð°Ð¼": 7221,
      "ĠÑįÐ¿Ð¾": 7222,
      "Ð¾Ð¿Ð»Ð°": 7223,
      "ĠÐ²ÑĭÐ³Ð»ÑıÐ´Ð¸ÑĤ": 7224,
      "ĠÐ´ÐµÐ´": 7225,
      "ĠÐ½ÐµÐ²Ñĭ": 7226,
      "ĠÑĢÐ°Ð·Ð¼": 7227,
      "ĠÑĢÐ¾ÑĤ": 7228,
      "Ð°ÐºÐ¾Ð½ÐµÑĨ": 7229,
      "ĠÐ¿ÑĥÐ±Ð»Ð¸ÐºÐ°": 7230,
      "ĠÑĢÐ°Ð·Ð²ÐµÑĢ": 7231,
      "ĠÐľÑĥ": 7232,
      "ages": 7233,
      "ĠÐĳÐ»Ð°Ð³Ð¾Ð´Ð°ÑĢ": 7234,
      "Ð»ÑĥÑĩ": 7235,
      "ĠÑĪÐºÐ°": 7236,
      "ĠÑıÐ¿Ð¾Ð½": 7237,
      "ÑīÐ¸Ð½Ñĭ": 7238,
      "ĠÐ¿ÐµÑĢÑģÐ¾Ð½Ð°": 7239,
      "ĠÐ³Ð¾ÑģÑĥÐ´Ð°ÑĢÑģÑĤÐ²ÐµÐ½Ð½Ð¾Ð¹": 7240,
      "Ġgoing": 7241,
      "ĠÑĤÐ°ÐºÐ¸Ð¼Ð¸": 7242,
      ".:": 7243,
      "ĠÑģÐ°Ð¼Ð¾Ð¼Ñĥ": 7244,
      "ĠÑĤÐµÑĢÑĢÐ¾": 7245,
      "ared": 7246,
      "ĠÐ¥Ð°": 7247,
      "ĠÐ¾Ð±ÑĥÑĩÐµÐ½Ð¸Ñı": 7248,
      "ĠÐ¸Ð½ÑģÑĤÑĢÑĥÐº": 7249,
      "ĠÑħÑĥÐ´Ð¾Ð¶Ðµ": 7250,
      "ÑĢÐ¾Ð²Ð¸Ñĩ": 7251,
      "ĠÐ»Ð¸ÑĨÐ¾Ð¼": 7252,
      "ĠÐŁÐ°ÑĢÐ¸": 7253,
      "ĠĠĠĠĠĠĠ": 7254,
      "ÑģÐ¼": 7255,
      "ĠÐ³Ð¾Ð²Ð¾ÑĢÐ¸ÑĤÑģÑı": 7256,
      "ĠÐľÐ¸ÑħÐ°Ð¸Ð»": 7257,
      "Ġfr": 7258,
      "\":": 7259,
      "Ð½ÑĥÐ»Ð¾": 7260,
      "ĠÐ¾ÑģÑĤÐ°Ð»ÑģÑı": 7261,
      "Ð»Ð°Ñı": 7262,
      "ĠÑıÐ¹": 7263,
      "ĠÐ±ÑĥÐ´ÐµÑĪÑĮ": 7264,
      "ĠÑĩÑĤ": 7265,
      "Ġlaw": 7266,
      "ĠÐ²ÑĭÑĪÐ»Ð°": 7267,
      "ÐĲÑĢ": 7268,
      "Ð»ÑĭÐ¹": 7269,
      "56": 7270,
      "ĠÑĢÐ°Ð·Ð³Ð¾Ð²Ð°ÑĢÐ¸": 7271,
      "Ð¼Ð¸ÑĤÐµ": 7272,
      "ĠÐ¤ÐµÐ´": 7273,
      "ĠÑģÐ¿ÐµÑĨÐ¸Ð°Ð»Ð¸ÑģÑĤÐ¾Ð²": 7274,
      "ÑĢÐ¸ÑĤÐµ": 7275,
      "ĠÐ½Ð°ÑĩÐ¸Ð½Ð°ÐµÑĤÑģÑı": 7276,
      "ĠÐ½Ð°Ð·ÑĭÐ²Ð°ÑİÑĤ": 7277,
      "ĠÐ½Ð°ÑĪÐµÐ»": 7278,
      "ĠÑģÐ¸ÑĤÑĥÐ°ÑĨÐ¸Ñİ": 7279,
      "ÑĩÐµÐ½Ð¸ÐµÐ¼": 7280,
      "Ġdevelop": 7281,
      "Ġhand": 7282,
      "ĠÐ¿ÑĢÐµÑĤÐµÐ½": 7283,
      "ÐľÐ°": 7284,
      "Ġexp": 7285,
      "42": 7286,
      "ĠÐ°ÐºÑĤÐ¸Ð²Ð½Ð¾": 7287,
      "ĠÑĢÑĥÑģÑģÐºÐ¾Ð³Ð¾": 7288,
      "ĠÐ¿ÑĢÐ¾ÑĪÐ»Ð¾Ð³Ð¾": 7289,
      "ĠÐºÐ»Ð°Ð´": 7290,
      "ĠÐ¿ÑĢÐµÐ´Ð¾ÑģÑĤÐ°Ð²Ð»Ñı": 7291,
      "Ġtake": 7292,
      "med": 7293,
      "St": 7294,
      "ĠÐ¾Ð²": 7295,
      "ĠÐ¿Ð¾Ð»ÑĮ": 7296,
      "Ð´ÑĨÐ°ÑĤÐ¸": 7297,
      "ĠÐºÐ¾Ð»Ð¸ÑĩÐµÑģÑĤÐ²Ð°": 7298,
      "ĠÐ±ÐµÑĢ": 7299,
      "ĠÑĢÐ¸ÑģÑĥÐ½": 7300,
      "Ð¡Ðº": 7301,
      "ĠÐ½Ð°Ð¿Ð¸ÑģÐ°Ð»": 7302,
      "ices": 7303,
      "Ð¾Ð²Ð°ÑĤÐµÐ»Ñı": 7304,
      "Ð¼Ð¾ÑĤÑĢÐ¸Ð¼": 7305,
      "Ð°Ð»ÑĮÑıÐ½": 7306,
      "ĠÐ¾Ð´Ð½Ð¾Ð¼Ñĥ": 7307,
      "ĠÐ¿ÑĢÐ¾ÑĪÐµÐ»": 7308,
      "ĠÑĤÐµÐ¾": 7309,
      "ĠÐľÐ°ÐºÑģÐ¸Ð¼": 7310,
      "ÐµÐ´Ð»Ð¸Ð²Ð¾": 7311,
      "ĠÐ¾ÑģÐ²Ð¾Ð±": 7312,
      "ÑĭÑĪÐ°": 7313,
      "ĠFor": 7314,
      "ĠÑģÑĤÐ°ÑĤÐ¸": 7315,
      "ÑĢÐ¾Ð½Ð¸": 7316,
      "ĠÐ½Ð¸ÐºÐ¾Ð¼Ñĥ": 7317,
      "ĠÐ¼Ð°ÑĪÐ¸Ð½Ð°": 7318,
      "ĠÑĦÐ¸Ð»ÑĮÐ¼Ð°": 7319,
      "ĠÐĶÑĥÐ¼Ð°": 7320,
      "ĠÐ¿Ð¾Ð·Ð´Ð½Ð¾": 7321,
      "ĠÐĸÐµÐ½": 7322,
      "ĠÐ¿Ð¾ÑıÐ²Ð¸Ð»Ð°ÑģÑĮ": 7323,
      ".).": 7324,
      "ĠÐ¼Ð½Ð¾Ð³Ð¾Ðµ": 7325,
      "ÐµÐºÑĤ": 7326,
      "ĠÑĤÑĢÐµÐ±ÑĥÐµÑĤÑģÑı": 7327,
      "ĠÐ¾ÑĤÐ²ÐµÑĤÐ¸Ð»Ð°": 7328,
      "ĠÐ¼Ð¸Ð»Ð¸": 7329,
      "Ð²Ð¾Ðº": 7330,
      "ĠÐ¾ÑĤÐºÐ°Ð·Ð°": 7331,
      "ĠÐķÐ²Ð³": 7332,
      "ĠÐ¿ÑĢÐ°Ð·Ð´Ð½Ð¸Ðº": 7333,
      "ÐºÐ»Ð¸": 7334,
      "Ġdisc": 7335,
      "ĠÐĲÐ»ÐµÐºÑģÐµÐ¹": 7336,
      "ĠÐĿÐķ": 7337,
      "Ð¿ÐµÑĢÐ²ÑĭÑħ": 7338,
      "ĠÐ½ÐµÐ¾Ð¶Ð¸Ð´Ð°Ð½Ð½Ð¾": 7339,
      "ĠÑģÑĤÑĢÐ°Ð½Ð°Ñħ": 7340,
      "ĠÐ´Ð°Ð½Ð½Ð¾Ð³Ð¾": 7341,
      "Ð¾Ð³Ð°Ñħ": 7342,
      "Ð¼Ð°ÑĤ": 7343,
      "Ġcre": 7344,
      "live": 7345,
      "Ġexper": 7346,
      "son": 7347,
      "ĠÐ·Ð°Ð»Ðµ": 7348,
      "ĠÑĥÐ³Ð¾Ð´Ð½Ð¾": 7349,
      "Ð²ÑĮÑİ": 7350,
      "ĠÐ¤ÑĢÐ°Ð½ÑĨÐ¸Ð¸": 7351,
      "ĠÑĢÐµÐºÐ»Ð°Ð¼": 7352,
      "ĠÐ´Ð¾ÑģÑĤÐ¾Ð¸Ð½": 7353,
      "))))))))": 7354,
      "Ð¾Ð»ÐµÐ¿": 7355,
      "Ð·Ð°Ð½Ð¾": 7356,
      "ĠÑģÐ°Ð¼Ð¾Ð»ÐµÑĤ": 7357,
      "Ġ2006": 7358,
      "ĠÐŀÑĤÐ²ÐµÑĤ": 7359,
      "Ð°Ð»Ð¾Ð³": 7360,
      "ĠÐ¿ÑĢÐ¾Ð´ÑĥÐºÑĤÐ¾Ð²": 7361,
      "ĠÑĤÑĥÐ¿": 7362,
      "ĠÐ²Ð¾Ð¹Ð½Ð°": 7363,
      "ĠÑģÐ»ÑĥÑĩÐ°Ð¹Ð½Ð¾": 7364,
      "ĠÐ»Ð°Ð¼": 7365,
      "Ð²Ð°Ð½Ð¸Ð¹": 7366,
      "Ġresult": 7367,
      "Ð»ÐµÐ¶Ð°": 7368,
      "ĠÐ´Ð¾Ð±Ð°Ð²Ð»Ñı": 7369,
      "ĠÑħÐ¾Ð´Ð¸ÑĤÑĮ": 7370,
      "ĠÑģÐ²ÑıÐ·ÑĮ": 7371,
      "ĠÑģÐ°Ð½": 7372,
      "ĠÐ½Ð°Ð¿ÑĢÐ°Ð²Ð»ÐµÐ½Ð¸Ñı": 7373,
      "ĠÑĢÐ¸ÑģÐº": 7374,
      "ĠÐ½ÐµÐ³Ð°": 7375,
      "ÑĪÐ°ÑĤÑĮ": 7376,
      "Ð½ÐµÑĨ": 7377,
      "ĠÐ¾Ð´Ð¸Ð½Ð¾": 7378,
      "........": 7379,
      "ĠÐ¸Ð»Ð»Ñİ": 7380,
      "ĠÐĲÐ±": 7381,
      "Ð²ÑĥÑĩ": 7382,
      "Ġreal": 7383,
      "ĠÑīÐµ": 7384,
      "ÐĿÐ¸Ðº": 7385,
      "ĠÐĵÐ°ÑĢ": 7386,
      "ĠÐ¾ÑĤÐ¼ÐµÑĤÐ¸ÑĤÑĮ": 7387,
      "ÐĵÐ´Ðµ": 7388,
      "ÑģÑĤÐ²ÐµÐ½Ð½Ð¾Ð¼": 7389,
      "ĠÐ²Ð¾Ð¿ÑĢÐ¾ÑģÐ°Ð¼": 7390,
      "ĠÐľÐ¾Ð»": 7391,
      "ÑīÐ¸ÐºÐ°": 7392,
      "Ð¾Ð²Ð¾ÑĢÐ¸Ð»": 7393,
      "ĠÐ¼Ð°Ðº": 7394,
      "ĠÐ´Ð¾Ð±Ð°Ð²Ð¸ÑĤÑĮ": 7395,
      "ĠÑĢÐ°Ð·ÑĢÑĥ": 7396,
      "ĠÐ¿ÑģÐ¸ÑħÐ¾Ð»Ð¾Ð³Ð¸": 7397,
      "ĠÐ¶Ð¸Ð²ÑĥÑĤ": 7398,
      "ĠÑĤÐµÑĤ": 7399,
      "ÐºÐ¾Ð²ÑĭÑħ": 7400,
      "ĠÐ¸ÑģÐºÑĢÐµÐ½": 7401,
      "ĠÐ¿Ð¾Ð´Ð°ÑĢÐ¸": 7402,
      "ĠÐ²ÐµÑĤÐµÑĢ": 7403,
      "ÑīÐµÐ½Ñĭ": 7404,
      "ĠÐŁÐ¾Ð½": 7405,
      "Ð²ÑĪÐ¸ÑħÑģÑı": 7406,
      "ĠÑģÐºÐ¾ÑĢ": 7407,
      "ĠÐ¿ÑĢÐ¾ÑĤÑıÐ¶ÐµÐ½Ð¸Ð¸": 7408,
      "ĠAd": 7409,
      "ature": 7410,
      "ĠÐ±ÑĢÐ¸": 7411,
      "ĠÐ¿ÑĢÐ¸ÑģÐ¾": 7412,
      "ĠÐŁÑĢÐ¾Ð´": 7413,
      "ÐļÐ¾Ð½": 7414,
      "Ġgovernment": 7415,
      "ital": 7416,
      "Ġ<": 7417,
      "ĠÐ¿Ð¾Ð»ÑĥÑĩÐ¸Ð»Ð¾ÑģÑĮ": 7418,
      "ĠÐ¸Ð·Ð¾Ð±ÑĢÐ°Ð¶": 7419,
      "Ġfind": 7420,
      "ÐłÐµ": 7421,
      "ÐµÐ·Ð¶": 7422,
      "ÑĢÐ°Ð¶Ð´": 7423,
      "ĠÐ¶Ð°": 7424,
      "ÐŁÐŀ": 7425,
      "ĠÑģÑĥÐ¼Ð¼Ñĥ": 7426,
      "gy": 7427,
      "ÑĩÑĳ": 7428,
      "book": 7429,
      "ĠÑģÐµÑĢÐ´ÑĨÐ°": 7430,
      "ience": 7431,
      "ĠÐ¿ÐµÐ´Ð°Ð³": 7432,
      "ĠÐ¡ÐºÐ¾": 7433,
      "?)))": 7434,
      "ĠÐ¾ÑĦÐ¸Ñģ": 7435,
      "ĠÐ±ÑĥÐºÐ²Ð°Ð»ÑĮÐ½Ð¾": 7436,
      "ĠÐ³Ð³": 7437,
      "ĠÐ·Ð°ÑĢÐ°Ð½ÐµÐµ": 7438,
      "ĠÐķÐ²ÑĢÐ¾Ð¿Ðµ": 7439,
      "Ġrele": 7440,
      "ĠÐ²ÐºÐ»ÑİÑĩÐ°Ñı": 7441,
      "ĠÐ²Ð¾ÑģÐ¿Ð¾Ð¼Ð¸Ð½Ð°": 7442,
      "ĠÑģÐ¼Ñĥ": 7443,
      "ically": 7444,
      "ĠÐºÑĢÐ°ÑĤ": 7445,
      "ĠÑĤÐ¸Ð¿": 7446,
      "ense": 7447,
      "Ġsecond": 7448,
      "ĠÐ²Ð¾Ð·Ð´ÑĥÑĪ": 7449,
      "ĠÐºÐ¸Ð²Ð½ÑĥÐ»": 7450,
      "Ġaround": 7451,
      "ÑĢÐ¾Ð²Ð°Ð»Ð°": 7452,
      "Ð¾Ð²ÐµÐ´": 7453,
      "ÑĮÐ¸": 7454,
      "ĠÐ¿Ð¾Ð´Ð°ÑĢÐ¾Ðº": 7455,
      "ĠÐ±ÑĢÐ¾Ñģ": 7456,
      "ĠÐ²ÑĭÐ¹ÑĤÐ¸": 7457,
      "ĠÐŁÑĥÑĤÐ¸Ð½": 7458,
      "ĠÑĥÑĤÑĢÐ¾": 7459,
      "Ð¾Ð¶Ð°Ð»ÑĥÐ¹": 7460,
      "Ġfollow": 7461,
      "ĠÐ¸ÑģÐºÑĥÑģÑģÑĤÐ²Ð°": 7462,
      "Ð°Ð½ÐºÐ°": 7463,
      "ĠÑģÐ¾ÑģÑĤÐ¾ÑıÐ½Ð¸Ñı": 7464,
      "come": 7465,
      "ĠÐ¾ÑĤÐ¼ÐµÑĤÐ¸Ð»": 7466,
      "ĠÐºÐ¾ÑĢÐ¾Ð»ÐµÐ²": 7467,
      "Ð¸Ð½ÐºÐ¸": 7468,
      "ĠÑĢÑĥÑģÑģÐºÐ¸Ð¹": 7469,
      "ÐºÐ¾Ð²ÑĭÐµ": 7470,
      "sc": 7471,
      "ÑĢÐ°ÑıÑģÑĮ": 7472,
      "ĠÐłÑĭ": 7473,
      "ĠÐ²Ð¸Ð´ÐµÐ»Ð°": 7474,
      "ÐµÐ»Ð¾ÑĢÑĥÑģ": 7475,
      "ĠÐ²ÑĭÐ³Ð¾Ð´": 7476,
      "ÑĤÐµÐ»ÑĮÐ½ÑĭÐµ": 7477,
      "ÑĩÐ¸Ñı": 7478,
      "ĠÑģÑĥÐ±ÑĬÐµÐº": 7479,
      "ĠGr": 7480,
      "ĠÑģÐµÑĢÐ¸Ð¸": 7481,
      "ĠÐĿÐ¸ÐºÐ¾Ð»Ð°Ð¹": 7482,
      "ĠÐ¾ÑģÐ½Ð¾Ð²Ð½ÑĭÑħ": 7483,
      "ĠÐĹÐ°Ð¿Ð°Ð´": 7484,
      "ĠÐ¾Ð±ÑĢÐ°Ð·Ð¾Ð²Ð°Ð½Ð¸Ðµ": 7485,
      "ĠÑģÐ¿ÑĥÑģÑĤÑı": 7486,
      "Ð½Ð¸ÑĤÑĮÑģÑı": 7487,
      "ĠÑģÐ¾Ð±Ð°Ðº": 7488,
      "ÑīÑĮ": 7489,
      "ined": 7490,
      "ĠÐ¸ÑģÐ¿Ð¾Ð»ÑĮÐ·ÑĥÐµÑĤÑģÑı": 7491,
      "ĠÐ¿Ð¾ÑģÑĤÑĢÐ°": 7492,
      "ĠÑĤÑıÐ¶ÐµÐ»Ð¾": 7493,
      "Ġcour": 7494,
      "ÑĳÑħ": 7495,
      "ĠÐ²Ð¾Ð»ÑĪÐµÐ±": 7496,
      "ĠÐĵÐ¾Ð»": 7497,
      "ĠÐ¿Ð¾Ð´ÑĢÐ°Ð·Ð´ÐµÐ»": 7498,
      "ĠÑģÑĩÐ¸ÑĤÐ°ÐµÑĤÑģÑı": 7499,
      "ĠÑģÑĨÐµÐ½Ð°": 7500,
      "Ð¾Ð²ÑĥÑİ": 7501,
      "ĠÐ¾Ñĩ": 7502,
      "ĠÐ»Ð¾Ðº": 7503,
      "ĠÐ¼Ð¸Ð½Ð¸Ð¼ÑĥÐ¼": 7504,
      "ÑĢÑĥÐµÐ¼": 7505,
      "ĠÑįÐ½ÐµÑĢÐ³Ð¸": 7506,
      "ĠPh": 7507,
      "Ð¢Ðķ": 7508,
      "Ġart": 7509,
      "ĠÐ²ÑĤÐ¾ÑĢÐ¾Ð³Ð¾": 7510,
      "ĠÑĥÐ±Ð¸": 7511,
      "Ġclass": 7512,
      "Ð¼Ð¸ÑĢ": 7513,
      "ĠÐºÐ¾Ð²": 7514,
      "ĠÐŁÐ¾Ð´ÑĢÐ¾Ð±": 7515,
      "ĠÐ¿Ð¾Ð´ÑĩÐ¸Ð½": 7516,
      "ĠÐ°Ð²ÑĤÐ¾ÑĢÐ°": 7517,
      "ĠÐ²Ð½Ð¸Ð¼Ð°ÑĤÐµÐ»ÑĮÐ½Ð¾": 7518,
      "Ð½Ð¸ÑĤÑģÑı": 7519,
      "ĠThey": 7520,
      "ĠÑĩÐ°ÑģÑĤÑĮÑİ": 7521,
      "Ð¸ÑģÐº": 7522,
      "ĠÐ´ÐµÐ²ÑıÑĤÑĮ": 7523,
      "Ð²Ð°Ð½Ð¸Ð¸": 7524,
      "ĠÐ¸ÑģÐ¿Ð¾Ð»ÑĮÐ·Ð¾Ð²Ð°Ð½Ð¸Ðµ": 7525,
      "ĠÐ·Ð°Ð¿Ð¸Ñģ": 7526,
      "Ġwom": 7527,
      "Ġconf": 7528,
      "ĠÐ¾Ð±ÑĬÐµÐºÑĤÐ¾Ð²": 7529,
      "ĠÐ²ÑĭÑģÐ¾ÐºÐ¾Ð¹": 7530,
      "ĠÑĢÐµÐ±ÑĳÐ½": 7531,
      "Ð¾ÑĢÐ´": 7532,
      "Ð¡Ðµ": 7533,
      "ÐłÐķ": 7534,
      "Ð¸ÑĤÐµÐ»ÑĮÑģÑĤÐ²Ð°": 7535,
      "ÑĤÑĭÐ¼Ð¸": 7536,
      "ĠÑģÑĤÑĢÐ¾Ð¹": 7537,
      "ĠÐ²ÑģÐºÐ¾ÑĢÐµ": 7538,
      "sp": 7539,
      "ĠÐ½Ð¸ÐºÐ°ÐºÐ¾Ð¹": 7540,
      "ÐĴÐ¾Ð·": 7541,
      "ĠÐ½ÐµÐ½Ð°Ð²Ð¸": 7542,
      "ĠÐ»ÑĥÑĩÑĪÐ¸Ñħ": 7543,
      "ĠÐĿÐ¾Ð²ÑĭÐ¹": 7544,
      "?))": 7545,
      "ĠÑįÐºÐ¾Ð½Ð¾Ð¼Ð¸ÐºÐ¸": 7546,
      "Ð½ÑıÐ¼Ð¸": 7547,
      "ÑĩÐµÐ½ÐºÐ¾": 7548,
      "ÑģÐºÐ°Ð¼Ð¸": 7549,
      "ĠÐ·Ð°ÐºÐ°Ð½": 7550,
      "ĠÐ¿ÐµÑĢÐ²Ð°Ñı": 7551,
      "ger": 7552,
      "ÑīÐ¸ÐºÐ¸": 7553,
      "88": 7554,
      "view": 7555,
      "ĠÐ½Ð°Ð±Ð»ÑİÐ´": 7556,
      "Ð²Ð¾Ð¼": 7557,
      "ĠÑģÐ²Ð°Ð´ÑĮ": 7558,
      "ĠÐ²ÑģÐ»ÐµÐ´": 7559,
      "ĠÐ¿ÑĢÐµÐ´Ð»Ð¾Ð¶ÐµÐ½Ð¸Ðµ": 7560,
      "ĠÐ½ÐµÑĩÑĤÐ¾": 7561,
      "ÐµÐ»Ñĭ": 7562,
      "ĠÐ¿Ð¾ÐºÐ¸Ð½Ñĥ": 7563,
      "ĠÑĦÑĥÑĤÐ±": 7564,
      "Ġday": 7565,
      "Ð³Ð°Ð»Ð¸": 7566,
      "ĠÐ¡Ð¿Ðµ": 7567,
      "ĠÐ¿Ð»Ð°ÑĤÐµ": 7568,
      "ĠÐ±Ð¾Ð»ÑĮÑĪÐ¸Ñħ": 7569,
      "ĠÐļÐ¾Ð¼Ð¿Ð°Ð½Ð¸Ñı": 7570,
      "ÑĢÑıÑģ": 7571,
      "ĠÑģÐ½Ð¸Ð·": 7572,
      "ĠÐ¾Ð¿Ñĭ": 7573,
      "ÑģÐ¸ÑģÑĤ": 7574,
      "ĠÐ¿Ð¾Ð¸ÑģÐº": 7575,
      "oft": 7576,
      "...\"": 7577,
      "uro": 7578,
      "ĠÐ³Ð»ÑıÐ´Ñı": 7579,
      "ĠÐºÐ²Ð°ÑĢÑĤÐ¸ÑĢÐµ": 7580,
      "ĠÐŁÐµÑĤÐµÑĢÐ±ÑĥÑĢ": 7581,
      "ĠÐ¡ÑĥÐ´": 7582,
      "ĠÑĤÐµÐ»ÐµÑĦÐ¾Ð½Ñĥ": 7583,
      "Ġhere": 7584,
      "ĠÐ°ÑĤÐ°Ðº": 7585,
      "Ġ;": 7586,
      "ĠÐ¸Ð·Ð±": 7587,
      "ĠÐ³ÐµÐ½": 7588,
      "Ð¡Ð¾": 7589,
      "ÐµÐ½ÑĤÑĥ": 7590,
      "ĠÐ±Ð°Ðº": 7591,
      "Ð°Ð»ÑĮÑĪÐµ": 7592,
      "ĠÐŁÐ¾Ñĩ": 7593,
      "Ð¢Ð¬": 7594,
      "ÐºÐ¾Ð³Ð´Ð°": 7595,
      "Ð¿Ð¸ÑģÑĮ": 7596,
      "ĠÑģÐ¾Ð»Ð´Ð°ÑĤ": 7597,
      "journal": 7598,
      "Ð±Ð°Ð²": 7599,
      "ĠÑģÐ¾Ð±ÑģÑĤÐ²ÐµÐ½Ð½Ð¾Ð¹": 7600,
      "ÑĥÐ¿Ð°": 7601,
      "ĠÐľÑĥÐ¶": 7602,
      "ĠÐ¾ÑĤÐ½Ð¾ÑģÐ¸ÑĤÑģÑı": 7603,
      "Ð°ÑħÐ°ÑĢ": 7604,
      "ĠÐºÐ²Ð°Ð»Ð¸": 7605,
      "Ð³ÐµÑĢ": 7606,
      "ĠÐ±ÑĥÐ´ÑĥÑīÐµÐµ": 7607,
      "++": 7608,
      "ĠÐ½ÐµÑĢÐ²": 7609,
      "ĠÐ½Ð°Ð·Ð²Ð°Ð½Ð¸ÐµÐ¼": 7610,
      "ĠÐ´ÐµÐ¼Ð¾ÐºÑĢÐ°": 7611,
      "ÐłÐ¾ÑģÑģÐ¸": 7612,
      "ĠÐ±ÑĥÐ´ÑĥÑīÐµÐ¼": 7613,
      "ĠÑģÑĤÐ°Ð½ÑĨÐ¸Ð¸": 7614,
      "ĠÐ²Ð°ÑĢ": 7615,
      "ĠÐ²ÑĢÑıÐ´": 7616,
      "Ð·Ð¸Ñı": 7617,
      "ĠÐ²Ð°ÑĪÐ°": 7618,
      "ĠÐ·Ð°Ð¼ÑĥÐ¶": 7619,
      "ĠÐ¼Ð°Ð»ÑĮÑĩÐ¸": 7620,
      "Ð½Ð¸Ð²": 7621,
      "ĠÐ¿Ð¾ÑģÑĤÐ°Ð²Ð¸ÑĤÑĮ": 7622,
      "ĠÐ¾ÑĤÑģÑĥÑĤÑģÑĤÐ²Ð¸Ðµ": 7623,
      "ÑıÑīÐµÐ¹": 7624,
      "ÑĤÐ¸Ð»Ð¾": 7625,
      "Ð»Ð°Ð½Ð´": 7626,
      "ĠÐ¿ÑĢÐµÐ±Ñĭ": 7627,
      "ÑĨÐ¸Ð¾Ð½Ð½Ð¾": 7628,
      "ÐµÑĢÐ°Ð¼Ð¸": 7629,
      "ÑĩÐµÐ½Ð½ÑĭÐµ": 7630,
      "ÑĢÐ¾ÑģÑĤÐ¸": 7631,
      "ĠÐ¾ÑģÑĤÐ°Ð»Ð¸ÑģÑĮ": 7632,
      "ÑĪÐ¸Ð»Ð¸": 7633,
      "ĠÑĩÐ¸ÑģÐ»Ð°": 7634,
      "ĠÐ°ÑĢÐ¾Ð¼": 7635,
      "ĠÐºÑĥÐ±": 7636,
      "ĠÑĩÐ°ÑģÑĭ": 7637,
      "ĠÑĤÑĢÐ°Ð½Ñģ": 7638,
      "els": 7639,
      "ÑĩÐºÐ¾Ð¹": 7640,
      "Ð²ÑĪÐ¸ÐµÑģÑı": 7641,
      "ĠÑģÐºÐ¸Ð´": 7642,
      "ÑĢÑĥÑı": 7643,
      "ÐµÑģÐµÐ´": 7644,
      "ĠÐĵÐµ": 7645,
      "ĠÑģÐ²Ð¾Ð¹ÑģÑĤÐ²Ð°": 7646,
      "ĠÐ²ÐµÑĢÐ½ÑĥÑĤÑĮÑģÑı": 7647,
      "ĠÐ²Ð½ÐµÐ´": 7648,
      "Ġfun": 7649,
      "bers": 7650,
      "ited": 7651,
      "ĠÐºÐ°ÑĢÑĤÑĭ": 7652,
      "ĠÑĢÐ°ÑģÐ¿ÑĢÐ¾ÑģÑĤÑĢÐ°": 7653,
      "ĠÐ»Ð°Ð´": 7654,
      "ĠÐ¥Ð¾ÑĢÐ¾ÑĪÐ¾": 7655,
      "ĠÐ²Ð¾ÑģÐºÑĢÐµÑģ": 7656,
      "ĠÑĢÐ°Ð·Ð±Ð¸ÑĢÐ°": 7657,
      "Ð¶Ð½ÐµÐ¼Ñĥ": 7658,
      "ÑĤÐ¾Ð¿": 7659,
      "ĠÐ¿Ð¾Ð»Ð½ÑĭÐ¹": 7660,
      "ÑģÑĤÐ°Ð½Ð°": 7661,
      "ĠÑĢÐµÐ»Ð¸Ð³Ð¸Ð¾Ð·": 7662,
      "ĠÑģÐ»Ð°Ð´": 7663,
      "Ġinst": 7664,
      "ional": 7665,
      "ĠÐ½Ð°ÑĤÑĥ": 7666,
      "ÐµÑĢÐµÐ¶": 7667,
      "ÐķÑģÑĤÑĮ": 7668,
      "ĠÐ´ÑĭÑħÐ°": 7669,
      "ĠÐ¼ÐµÑĤÑĢÐ¾": 7670,
      "ÑģÑĤÐ½Ð¾Ð³Ð¾": 7671,
      "ĠÐ½Ð°Ð¼Ð½Ð¾Ð³Ð¾": 7672,
      "ĠÐ¿Ð¾ÑıÐ²Ð¸Ð»Ð¸ÑģÑĮ": 7673,
      "ÑİÑīÐ¸Ð¹ÑģÑı": 7674,
      "ÐµÐ¼Ñĭ": 7675,
      "gg": 7676,
      "Ð¾Ð·Ñĭ": 7677,
      "ĠÐ¿ÑĢÐµÐ¼": 7678,
      "Ġent": 7679,
      "Ġfact": 7680,
      "ĠÐºÐ°Ð¿Ð¸ÑĤÐ°Ð½": 7681,
      "ÑĥÐ³Ð°": 7682,
      "ĠÐ¸Ñī": 7683,
      "Ġcr": 7684,
      "ĠÐ¿ÑĮÑı": 7685,
      "ĠÐ²ÑĭÑģÐºÐ°": 7686,
      "ĠÐ¾ÑĤÐ»Ð¸ÑĩÐ½Ð¾": 7687,
      "ĠÐ³Ð¾Ð´Ð°Ñħ": 7688,
      "Ġsomet": 7689,
      "Ð¸Ð³ÑĢÑĭ": 7690,
      "He": 7691,
      "ÑĢÐ¸ÑģÑĤÐ¾Ð²": 7692,
      "Ð¿Ð¾Ð·Ð¸": 7693,
      "ĠÐ¿ÐµÑģÐ½Ð¸": 7694,
      "ĠÑģÐ¼Ð¾ÑĤÑĢÐ¸ÑĤ": 7695,
      "ÑģÑĤÐ¸ÐºÐ°": 7696,
      "ĠÐ²Ð»ÑİÐ±": 7697,
      "ÐŁÐ¾Ð»": 7698,
      "gram": 7699,
      "ĠÑģÑĩÐ°ÑģÑĤÑĮÐµ": 7700,
      "Ġcontin": 7701,
      "ĠÑĨÐ¸Ð²Ð¸Ð»Ð¸": 7702,
      "ĠÑģÑĤÐ¾Ð¹": 7703,
      "ĠÐºÐ¾Ð½ÑĤÑĢÐ¾Ð»Ð¸": 7704,
      "ĠÐ·Ð´Ð¾ÑĢÐ¾Ð²ÑĮÐµ": 7705,
      "ĠÐ´ÑĥÐ¼Ð°ÐµÑĤÐµ": 7706,
      "ÐµÐ´ÐµÐ»ÑĮ": 7707,
      "ĠÐ¶ÐµÐ»Ð°Ð½Ð¸Ñı": 7708,
      "ÑıÐ³": 7709,
      "ÑīÐ°ÑİÑĤÑģÑı": 7710,
      "ĠÑģÐºÐ¾ÑĢÐ¾ÑģÑĤÑĮ": 7711,
      "ĠÑĥÐ´Ð¾Ð²Ð»ÐµÑĤÐ²Ð¾ÑĢ": 7712,
      "ĠÐºÐ¾Ð»Ð»Ðµ": 7713,
      "ĠÐ¾Ð±ÐµÐ·": 7714,
      "ÐµÑĤÐ¾Ð¼": 7715,
      "ĠÐ¿ÑĢÐ¾ÑīÐµ": 7716,
      "ĠÐ¾ÐºÐ½Ð¾": 7717,
      "Ð»ÐµÐ½Ð½Ð¾Ð³Ð¾": 7718,
      "Ġ45": 7719,
      "Ð´Ð°Ð½Ð¸Ð¸": 7720,
      "ĠÐļÐ¾Ð½ÑģÑĤÐ°Ð½": 7721,
      "ĠÐ·Ð²Ð¾": 7722,
      "ĠÐĶÐ¼Ð¸ÑĤÑĢÐ¸Ð¹": 7723,
      "ĠÐ²Ð´Ð¾Ð»ÑĮ": 7724,
      "ĠÐłÐ¾": 7725,
      "ĠÑģÐ¾Ð·Ð´Ð°Ð½Ð¸Ðµ": 7726,
      "2014": 7727,
      "ÑıÐ»Ð¾": 7728,
      "ĠÐ½Ð¾Ð²Ð°Ñı": 7729,
      "ĠÐ¸Ð¼Ð¿Ðµ": 7730,
      "Ð¸ÑĤÐ¾Ð²": 7731,
      "ĠÐ½ÐµÐºÐ¾ÑĤÐ¾ÑĢÐ¾Ðµ": 7732,
      "ĠÐ¿Ð¾Ð´ÑħÐ¾Ð´Ð¸ÑĤ": 7733,
      "ÑĥÑĩÐ¸ÑĤÑĮ": 7734,
      "ĠÐ·Ð°Ð´Ð°ÑĩÐ¸": 7735,
      "ÑĤÐ¾ÑĢÑĭÑħ": 7736,
      "ĠÐºÐ¾Ð¼Ð¼ÐµÑĢ": 7737,
      "ĠÑģÐ²ÑıÑīÐµÐ½": 7738,
      "ĠÑģÑĥÑĤÐ¸": 7739,
      "ĠÐ¡Ð²ÑıÑĤ": 7740,
      "ÑģÑĤÑĢÐ¾Ð¹ÐºÐ¸": 7741,
      "ĠPl": 7742,
      "ĠÐŁÐ¾Ð±": 7743,
      "Ð´ÐµÐ±": 7744,
      "ĠÑģÑĤÐ°ÑĤÑĮÐµ": 7745,
      "ÑīÐµÐ¼Ñĥ": 7746,
      "line": 7747,
      "ĠÐľÐ¸Ð½Ð¸ÑģÑĤÐµÑĢ": 7748,
      "ÑģÐ¾ÑĨÐ¸Ð°": 7749,
      "ĠÐ¿ÑĢÐµÐ´Ð»Ð¾Ð¶ÐµÐ½Ð¸Ñı": 7750,
      "Ð»ÑĮÐ½Ð¾Ð¹": 7751,
      "ĠÐºÐ°Ð½Ð´Ð¸Ð´Ð°": 7752,
      "Ð¾ÑĩÐ½ÑĭÐµ": 7753,
      "ĠÐ³ÑĥÐ»Ñı": 7754,
      "ĠÐ¾ÐºÑĢÑĥÐ³": 7755,
      "ĠÐĶÑĢÑĥÐ³": 7756,
      "ĠÐµÐ¶ÐµÐ´": 7757,
      "ĠÐ¾Ð±Ð»ÐµÐ³": 7758,
      "Ð»ÑıÑĤÑĮÑģÑı": 7759,
      "Ð°ÑĤÑĢÐ¸": 7760,
      "ĠÐĲÐ½Ð´ÑĢÐµ": 7761,
      "ĠÐĴÑģÐµÐ¼": 7762,
      "ĠÐ°ÑįÑĢÐ¾Ð¿": 7763,
      "Ð»ÑĭÐ¼": 7764,
      "ĠÐ¿ÐµÑĢÐµÐ²Ð¾Ð·": 7765,
      "Ġexpl": 7766,
      "ĠÐ·ÐµÐ¼ÐµÐ»ÑĮ": 7767,
      "ĠÐ»ÐµÐ³ÐµÐ½": 7768,
      "Ġappro": 7769,
      "ĠÑģÐµÐ²": 7770,
      "Ġsays": 7771,
      "ĠÐ¾Ð±ÑīÐµÐ¹": 7772,
      "ĠÐ²ÑĢÑĥ": 7773,
      "ĠÑĤÐµÑħÐ½Ð¾Ð»Ð¾Ð³Ð¸Ð¹": 7774,
      "ĠÑģÐºÐ°Ð·Ð°Ð»Ð¸": 7775,
      "ĠÑģÑĤÑĢÐ°ÑĪÐ½Ð¾": 7776,
      "ĠGo": 7777,
      "ĠÐ¿ÑĢÐ¸Ð½ÑıÐ»": 7778,
      "ĠÐ²ÑĭÐ¹": 7779,
      "ÐºÐ¾Ð±": 7780,
      "ĠÐ²Ð¸Ð´Ð¸Ð¼": 7781,
      "ĠÑģÐ¾ÑĢÐµÐ²": 7782,
      "alth": 7783,
      "ĠÐºÐ½Ð¸Ð³Ð°": 7784,
      "ĠÐ·Ð²ÑĥÑĩ": 7785,
      "Ð©": 7786,
      "Ġcomple": 7787,
      "ÐºÐ»Ð°Ð´": 7788,
      "ĠÑģÐ¿ÑĥÑĤ": 7789,
      "arm": 7790,
      "ÑĢÐ¾Ð²Ð°Ð½Ð½Ð¾Ð¹": 7791,
      "ÑģÑĤÐ¾Ð»": 7792,
      "ĠÐ¿Ð¾Ð·Ð¸ÑĨÐ¸Ð¸": 7793,
      "ĠÐŀÑģÐ¾Ð±ÐµÐ½Ð½Ð¾": 7794,
      "ÐºÐ°ÐµÑĤ": 7795,
      "ĠÐ½Ð°Ð¿Ð¸ÑģÐ°ÑĤÑĮ": 7796,
      "Ð±Ð¾Ð²": 7797,
      "ÑĤÑĥÐ´Ð°": 7798,
      "ĠÐ¼Ð¸Ð»Ð»Ð¸Ð°ÑĢ": 7799,
      "ĠÐĲÐ»ÐµÐºÑģÐ°Ð½Ð´ÑĢÐ°": 7800,
      "ĠÐ¼ÐµÐ½ÐµÐ´Ð¶": 7801,
      "ired": 7802,
      "ĠÐ»ÑİÐ±ÑıÑĤ": 7803,
      "Ð¿ÑĢÐµÐ¶Ð½ÐµÐ¼Ñĥ": 7804,
      "ĠÑĪÐ»Ð¸": 7805,
      "ĠÐĺÐ½Ð¾Ð³Ð´Ð°": 7806,
      "ÑĩÐµÐ½Ð½ÑĭÑħ": 7807,
      "ĠÑĩÑĳÑĢ": 7808,
      "ĠÐŁÐµÑĢÐ²ÑĭÐ¹": 7809,
      "Ġdep": 7810,
      "ĠÐ¿Ð°ÑĤÑĢÐ¸": 7811,
      "ĠÐ±ÑĥÑĤÑĭÐ»": 7812,
      "ĠÐ²Ð¾ÑĢ": 7813,
      "ĠÐ·Ð½Ð°Ð»Ð¸": 7814,
      "ces": 7815,
      "ĠÐ½Ð°Ð»Ð¸ÑĩÐ¸Ðµ": 7816,
      "ĠÑģÐ¾Ð»Ð¸": 7817,
      "ĠÐ¿ÑĢÐ¾ÑĨÐµÐ½ÑĤÐ¾Ð²": 7818,
      "Ð¿ÑĥÑģ": 7819,
      "ĠÑĩÐµÑĤÑĭÑĢÐµÑħ": 7820,
      "wit": 7821,
      "orth": 7822,
      "ency": 7823,
      "ÑĤÐ¸ÐµÐ¼": 7824,
      "Ð´Ð¸Ð»Ð¸": 7825,
      "ĠÐ½ÐµÐ»Ðµ": 7826,
      "ÑĦÐµÐ¹": 7827,
      "ĠÐ²Ð¾Ð´Ðµ": 7828,
      "!)": 7829,
      "ĠÐĺÐ½ÑĤÐµÑĢÐµÑģ": 7830,
      "ÑĥÑĪÐºÑĥ": 7831,
      "Ð¿Ð¸ÑģÑĭ": 7832,
      "ĠÑĦÐ¸Ð³": 7833,
      "ÑĢÐ¾ÑģÑĤÑĮ": 7834,
      "Ġprodu": 7835,
      "ĠÑĤÐµÐ¼Ð°": 7836,
      "ÑĢÐ°Ð²Ð¸ÑĤÑĮÑģÑı": 7837,
      "?Â»": 7838,
      "ody": 7839,
      "ĠÐ¾Ð±ÑģÑĤÐ°Ð½Ð¾Ð²": 7840,
      "ĠÐ¡ÑĢÐµÐ´Ð¸": 7841,
      "ĠÐ¾Ð²Ð¾": 7842,
      "Ġpop": 7843,
      "ĠÐ½Ð°Ð²ÐµÑĢÐ½ÑıÐºÐ°": 7844,
      "ĠÐ¸Ð´ÐµÐ¸": 7845,
      "ĠÐ¿ÑĢÐ¸Ð½ÑıÑĤÐ¾": 7846,
      "ĠÑĦÐµÑģÑĤÐ¸": 7847,
      "ĠÑĥÐ»ÑĭÐ±Ð½ÑĥÐ»ÑģÑı": 7848,
      "ĠÑĢÐ°Ð±Ð¾ÑĩÐ¸Ñħ": 7849,
      "ĠÐ²ÐµÑĢÐ¾ÑıÑĤ": 7850,
      "ÑĢÐµÐ²Ð°": 7851,
      "livejournal": 7852,
      "Ġsince": 7853,
      "by": 7854,
      "ĠÑĢÐ°Ð·Ð¾": 7855,
      "Ð¾Ð±Ð»Ð°": 7856,
      "ĠÐ²Ð°ÑĪÐ¸Ñħ": 7857,
      "ĠÐ´ÐµÑĤÑıÐ¼": 7858,
      "ĠÐ·Ð°Ð¼ÐµÑĢ": 7859,
      "ĠÐ¿Ð¾Ð»Ð¸ÑĨÐµÐ¹": 7860,
      "ĠÑģÑĥÐ¿ÐµÑĢ": 7861,
      "Ð°Ð½Ð½ÑĭÐ¼": 7862,
      "ĠÑģÐ¾Ð¿ÑĢÐ¾ÑĤÐ¸Ð²": 7863,
      "ĠÐ¶ÑĥÑĢÐ½Ð°Ð»": 7864,
      "ĠÐ¾Ð±ÐµÑĢ": 7865,
      "Ñ£": 7866,
      "ĠÑĤÐµÐ»ÐµÐ²Ð¸Ð·": 7867,
      "ÐŁÑĢÐ°Ð²": 7868,
      "Ð¾ÑĩÐ½ÑĭÑħ": 7869,
      "Ð¾ÑĢÐ¾Ð¶Ð½Ð¾": 7870,
      "Ð½Ð°Ð´Ð¾Ð±": 7871,
      "ĠÐ¸Ð´Ð¸": 7872,
      "ĠÑĪÐºÐ¾Ð»Ñĥ": 7873,
      "ĠTru": 7874,
      "ĠÐ¾Ð±Ð¼ÐµÐ½": 7875,
      "ĠÑĥÑģÐ¿Ð¾ÐºÐ¾": 7876,
      "Ð¼Ð¾ÑĤÑĢÐµÐ»Ð¸": 7877,
      "ĠÐ¾Ð¿ÑĢÐµÐ´ÐµÐ»Ð¸ÑĤÑĮ": 7878,
      "ĠÑĤÑĢÐ°Ðº": 7879,
      "Ð¿ÐµÑĩÐ°ÑĤ": 7880,
      "ĠÑģÑĤÑĢÐ¾Ð¸ÑĤÐµÐ»ÑĮÑģÑĤÐ²Ð¾": 7881,
      "ÑĤÐ½Ð¾Ð³Ð¾": 7882,
      "Ð·Ð°ÑĨÐ¸Ñİ": 7883,
      "ĠÐ»Ð¸Ðº": 7884,
      "ĠSp": 7885,
      "Ð±Ð°ÑĢ": 7886,
      "ĠÐ½Ð°ÑĥÐº": 7887,
      "ĠÐŁÑĢÐ¾Ð²": 7888,
      "ĠÐ²Ð¾ÑģÑĤÐ¾ÑĢ": 7889,
      "ĠÐ¿Ð¾Ð»ÑĥÑĩÐ°ÑĤÑĮ": 7890,
      "ÐµÑĢÐ½Ð¾": 7891,
      "ĠÐ°Ð²Ð°": 7892,
      "ÑĩÐ¸Ð²Ð°ÑĤÑĮ": 7893,
      "ĠÐ¾ÐºÐ°Ð·ÑĭÐ²Ð°ÐµÑĤÑģÑı": 7894,
      "ÑĩÐ¾Ðº": 7895,
      "ĠÐ¾ÑĤÐ»Ð¸ÑĩÐ°ÐµÑĤÑģÑı": 7896,
      "ĠÐĻ": 7897,
      "ĠÐ´ÑĥÑĪÑĥ": 7898,
      "ĠÐ¾ÑĢÐ³Ð°Ð½Ð¸Ð·Ð¼Ð°": 7899,
      "ĠÐĲÐ»ÐµÐºÑģÐµ": 7900,
      "ĠÐ¿ÑĢÐ¸Ð¼": 7901,
      "ĠÑĢÑĭÐ½Ð¾Ðº": 7902,
      "ĠÐ²ÑĭÑĤÐ°": 7903,
      "ĠÑģÑĤÐ¾Ð¸Ð¼Ð¾ÑģÑĤÐ¸": 7904,
      "ĠÐ¿Ð¾ÐºÐ°Ð·Ð°ÑĤÑĮ": 7905,
      "ĠÐºÐ¾Ð½ÑĤÑĢÐ°Ðº": 7906,
      "ĠÐ²Ð´Ð¾Ñħ": 7907,
      "ĠÐ¸Ð½ÑģÑĤÐ¸ÑĤÑĥ": 7908,
      "ĠÑĥÑģÐ¿ÐµÑĪÐ½Ð¾": 7909,
      "ĠÑİÐ±": 7910,
      "ĠÐ²Ð¾Ð¹ÑģÐº": 7911,
      "ĠÐĵÑĢÐµ": 7912,
      "ĠÑĥÑģÑĤÑĢÐ¾Ð¹ÑģÑĤÐ²Ð°": 7913,
      "ĠÑģÐ»ÐµÐ´ÑĥÑİÑīÐ¸Ðµ": 7914,
      "58": 7915,
      "ĠÑĨÐµÐ»ÑĭÐ¹": 7916,
      "ĠÐ¿ÑĢÐ¾ÑĨÐµÑģÑģÐ°": 7917,
      "ĠÑıÐ±": 7918,
      "Ġread": 7919,
      "1100": 7920,
      "ÑĪÐ¸Ð½": 7921,
      "Ð²Ð¾ÑĤ": 7922,
      "ĠÐ¸Ð´ÑĥÑĤ": 7923,
      "ĠXV": 7924,
      "ÑĤÐ¸Ð¼Ð¸": 7925,
      "ness": 7926,
      "ĠÐ½Ð°ÑģÑĤÐ¾ÑıÑīÐ¸Ð¹": 7927,
      "ĠÐĺÑģÐ¿Ð¾Ð»ÑĮÐ·": 7928,
      "ĠÐ·Ð°Ð´Ð°ÑĩÐ°": 7929,
      "ĠÐ²ÐµÐ½": 7930,
      "ĠÑĢÐ°ÑģÐ¿Ð¾ÑĢÑı": 7931,
      "ĠÐ¼Ð¾Ð¸Ð¼": 7932,
      "ĠÑĢÐ¾Ð±": 7933,
      "ĠÐ±Ð¾Ð»ÐµÐ·Ð½Ð¸": 7934,
      "ĠÐ¥Ð¾": 7935,
      "ÑįÐ¼": 7936,
      "vent": 7937,
      "ĠÐ¢ÑĢÐ¸": 7938,
      "ĠÐ³Ð¾ÑģÑĤÐµÐ¹": 7939,
      "ĠÑģÐ¾Ð¾Ð±ÑīÐµÐ½Ð¸Ñı": 7940,
      "ĠÐ»ÑİÐ±Ð¾Ð¿ÑĭÑĤ": 7941,
      "ÐºÐ¾ÑĢÐ°": 7942,
      "Ġpartic": 7943,
      "ĠÐ»ÐµÐº": 7944,
      "ÑĥÑĪÐ°": 7945,
      "ĠÐ»ÐµÑĤÐ¾Ð¼": 7946,
      "ĠÐ¿Ð¾ÑģÑĢÐµÐ´": 7947,
      "ĠÐ½Ð°Ð±Ð¾ÑĢ": 7948,
      "Ġopen": 7949,
      "ĠÑĩÐµÑģÑĤÐ½Ð¾": 7950,
      "ÑĤÐ½Ð°Ñı": 7951,
      "ĠÑģÐ»ÑĥÑħ": 7952,
      "ĠÐ½ÐµÐ¼ÐµÐ´": 7953,
      "Ġnumber": 7954,
      "ĠÐ¼ÐµÑĤÐ°Ð»Ð»Ð¸": 7955,
      "Ð¸Ð²Ð°Ð»": 7956,
      "ĠÐ¿ÑĢÐ¸Ð¼ÐµÐ½ÐµÐ½Ð¸Ñı": 7957,
      "ĠÐ¿ÐµÑĢÐµÐ¿": 7958,
      "ĠÐ·Ð°Ð¿Ð°Ñħ": 7959,
      "((": 7960,
      "ĠÐ¿Ð¾Ð»ÑĥÑĩÐ¸ÑĤÑģÑı": 7961,
      "ĠÐ»ÐµÐ³ÑĩÐµ": 7962,
      "ĠÐ¾ÑĤÐ´ÐµÐ»Ð°": 7963,
      "ÑĢÐ¸Ð»Ð°": 7964,
      "ĠÐ²Ð¸Ð´Ñĭ": 7965,
      "ĠÐ³ÑĢÐ°Ð¼Ð¾ÑĤ": 7966,
      "ĠÑĢÐ°ÑģÑģÑĩÐ¸ÑĤÑĭ": 7967,
      "59": 7968,
      "ĠÐ·Ð½Ð°ÑĩÐµÐ½Ð¸Ñı": 7969,
      "ĠÐľÐµÐ¶Ð´ÑĥÐ½Ð°ÑĢÐ¾Ð´": 7970,
      "Ġele": 7971,
      "ĠÐ²ÐµÐ·Ð´Ðµ": 7972,
      "iness": 7973,
      "ĠÐ¼Ð°Ð»ÐµÐ½ÑĮÐºÐ¸Ð¹": 7974,
      "Ð¾ÑģÐ°": 7975,
      "ĠÐºÑĢÐµÐ¿Ð¾": 7976,
      "ĠÐŀÑĢÐ¸Ð³Ð¸Ð½Ð°Ð»": 7977,
      "ĠÐ³ÑĢÑıÐ·": 7978,
      "ĠÐ²Ð¿ÐµÑĩÐ°ÑĤÐ»ÐµÐ½Ð¸Ðµ": 7979,
      "ĠÐŀÐ±Ñĭ": 7980,
      "ÐµÑħÐ°Ð»Ð°": 7981,
      "ĠÑĤÑĢÑĥÐ´Ð¾Ð¼": 7982,
      "ants": 7983,
      "ĠÐ½Ð°Ð²Ñĭ": 7984,
      "ĠÑģÑĢÐ°Ð²Ð½ÐµÐ½Ð¸Ñİ": 7985,
      "ctor": 7986,
      "ĠÐ¾ÐºÐµ": 7987,
      "ĠÐ°Ð½Ð°Ð»Ð¸Ð·": 7988,
      "ÑģÑĤÐ½ÑĭÐµ": 7989,
      "ĠÐ½ÐµÑĥÐ´": 7990,
      "ĠÐ¾Ð´Ð½Ð°Ð¶Ð´Ñĭ": 7991,
      "ĠÐĶÑĥ": 7992,
      "ĠÐ½ÐµÐ²ÐµÑĢÐ¾": 7993,
      "ÑģÑĤÐ¸Ð»Ð°": 7994,
      "ÑĥÐµÐ¼": 7995,
      "ÑĨÐ¸ÑıÐ¼": 7996,
      "ĠÑĢÐµÑĪÐ¸ÑĤÑĮ": 7997,
      "Ð²ÑģÐµÐ³Ð´Ð°": 7998,
      "Ġdifferent": 7999,
      "ÑĢÐ¾Ð²Ð°Ð½Ð°": 8000,
      "ĠÐ¡Ð¾Ð²ÐµÑĤÐ°": 8001,
      "Ð´Ð°ÑĨÐ¸Ð¸": 8002,
      "ĠÐ³Ð¾ÑģÑĥÐ´Ð°ÑĢÑģÑĤÐ²Ð¾": 8003,
      "ÑģÐ¸Ð»Ð°": 8004,
      "ĠÑĢÐ°Ð½Ð¾": 8005,
      "Ð¢Ðĺ": 8006,
      "ĠÐ¿ÑĢÐ¸ÐºÑĢÑĭ": 8007,
      "Ð±Ð¸Ð½Ð°": 8008,
      "Ð½ÐµÐ½Ð½Ð¾": 8009,
      "Ð³Ð¾Ð´Ð°": 8010,
      "ĠÑģÐµÐ¹": 8011,
      "ĠÑģÑĤÑĢÐ°Ð½Ð½Ð¾": 8012,
      "ĠÐºÐ¾Ð½ÐºÑĥ": 8013,
      "ĠÐ²ÑĭÐ¿Ð¾Ð»Ð½Ñı": 8014,
      "ĠÑĢÐ°Ð·Ñĥ": 8015,
      "ĠÐ¢Ð¾ÑĤ": 8016,
      "ĠÐĺÐ½ÑĤÐµÑĢÐ½ÐµÑĤ": 8017,
      "ĠÐ¿Ð¾Ð±Ñĭ": 8018,
      "ĠÐ¿ÑĢÐ¾Ð´ÑĥÐºÑĤÑĭ": 8019,
      "ÐľÐ¾Ð¶ÐµÑĤ": 8020,
      "ĠÐ°Ð½Ð°Ð»Ð¾Ð³Ð¸": 8021,
      "Ġcor": 8022,
      "ĠBe": 8023,
      "ĠÐ¾Ð±ÐµÑģÐ¿ÐµÑĩÐµÐ½Ð¸Ñı": 8024,
      "ĠÐ²ÑħÐ¾Ð´Ð¸ÑĤ": 8025,
      "Ð¾Ð»Ð°Ð³Ð°": 8026,
      "ĠÐ¼Ð¸Ð½Ñĥ": 8027,
      "Ġpass": 8028,
      "ĠÑĢÑĥÑģÑģÐºÐ¾Ð¹": 8029,
      "ĠÐ´Ð°ÑİÑĤ": 8030,
      "ĠÑģÐ¸Ð»ÑĮÐ½ÐµÐµ": 8031,
      "Ð²Ð°ÐµÑĤÐµ": 8032,
      "ĠÑģÐ»ÑĭÑĪÐ°Ð»": 8033,
      "Ð·Ð°ÑĢ": 8034,
      "Ð¾ÑĢÐ³": 8035,
      "Ð±ÑĥÑĢÐ³": 8036,
      "%,": 8037,
      "ĠÐ·Ð°Ð½ÑıÑĤÐ¸Ñı": 8038,
      "ĠInd": 8039,
      "ÑĤÐ¸Ñħ": 8040,
      "ÑĢÑĥÑİÑĤÑģÑı": 8041,
      "ĠÐ¿ÑĢÐµÐ´Ð»Ð¾Ð¶Ð¸Ð»": 8042,
      "ĠÐ¿Ð¾Ð½Ð¸Ð¼Ð°ÑĤÑĮ": 8043,
      "ĠÑĥÐ±ÐµÐ¶Ð´": 8044,
      "ÑĢÐ¸ÑģÑĤÐ°": 8045,
      "ĠÐºÐ¾Ð»Ð¾Ð½": 8046,
      "ĠÐ¸Ð´ÐµÑı": 8047,
      "ĠÐ²Ð½ÐµÑģ": 8048,
      "ĠÐ±ÑĢÐµÐ½": 8049,
      "ĠÐ½Ð°Ð»Ð¸ÑĩÐ¸Ð¸": 8050,
      "ĠÐ½Ð°Ð²": 8051,
      "ĠÐ´ÐµÑĤÑĮÐ¼Ð¸": 8052,
      "Ð½ÐµÐ¹ÑĪÐ¸Ñħ": 8053,
      "ĠÐ¾Ð´Ð½Ð¸": 8054,
      "ĠÐ´Ð¾ÑģÑĤ": 8055,
      "ĠÐ½Ð°Ð¿ÑĢÐ°Ð²Ð»ÐµÐ½Ð¸Ð¸": 8056,
      "ĠÐºÐ°ÑĤÐµÐ³Ð¾ÑĢÐ¸Ð¸": 8057,
      "ving": 8058,
      "ÐĳÑĭ": 8059,
      "ĠÑģÑĭÐ³ÑĢÐ°": 8060,
      "ĠÑģÐºÐ»Ð¾Ð½": 8061,
      "ĠÐ¿ÑĥÑģÑĤÑĭ": 8062,
      "ĠÑĤÑĢÐµÑĤÐ¸Ð¹": 8063,
      "ÑĪÐµÐ²": 8064,
      "ĠÐ¾Ð±ÑĢÐ°Ð·Ð¾Ð²Ð°ÑĤÐµÐ»ÑĮ": 8065,
      "Ġeach": 8066,
      "Ð¾Ð´Ðµ": 8067,
      "ĠRT": 8068,
      "ĠÐĽÑİÐ´Ð¸": 8069,
      "ĠÐłÑı": 8070,
      "ĠÐ¿ÑĢÐ¾ÑģÑĤÐ¾Ð¹": 8071,
      "ĠÐ¿Ð¾Ð¿Ð¾Ð»": 8072,
      "ĠÐ±Ð°Ð·Ðµ": 8073,
      "ĠOn": 8074,
      "ves": 8075,
      "ĠÐĿÐ°Ñĩ": 8076,
      "ÑĩÐ¸Ð»Ð°ÑģÑĮ": 8077,
      "ĠÐ¿Ð¾Ð²ÑĢÐµÐ¶Ð´": 8078,
      "ĠÐŁÐ¾Ðº": 8079,
      "ĠÐ¿ÑĢÐ¾Ð²Ð¾Ð´Ð¸ÑĤÑĮ": 8080,
      "ĠÑĤÐµÑħÐ½Ð¾Ð»Ð¾Ð³Ð¸": 8081,
      "ĠÐ½Ð°ÑĤÑĥÑĢÐ°Ð»ÑĮ": 8082,
      "ÑĤÐµÐ»ÑĮÐ½ÑĭÑħ": 8083,
      "ĠÑģÐ»Ð°Ð±": 8084,
      "Ð½Ð¾ÑģÐ¸ÑĤ": 8085,
      "ĠShe": 8086,
      "ĠÐ¾ÑĤÐ²ÐµÑĤÐ¸ÑĤÑĮ": 8087,
      "ĠÐ¸Ð½Ð´": 8088,
      "ĠÐ¾ÑĤÐ±": 8089,
      "ÑĥÑİÑīÐµÐ¹": 8090,
      "Ð¼ÐµÑĩÐ°": 8091,
      "ĠÐ¼Ð¸Ð½Ð¸Ð¼": 8092,
      "ĠÑģÐµÑĢÐ¸": 8093,
      "ĠÑĥÑģÐ»Ð¾Ð²Ð¸Ð¹": 8094,
      "ÑģÑĳ": 8095,
      "ĠÐ²ÐµÑĢÑģÐ¸Ð¸": 8096,
      "ĠÐ²ÑĭÐ¿ÑĥÑģÐºÐ°": 8097,
      "Ð°ÐºÐ¾Ð¼": 8098,
      "ÑĤÐ¸Ð½Ð³": 8099,
      "ĠÑĩÐ»ÐµÐ½Ð¾Ð²": 8100,
      "ĠÐºÐ¾Ð½ÑģÑĥÐ»ÑĮÑĤÐ°": 8101,
      "ator": 8102,
      "ĠÑģÐ¾Ð²ÐµÑĤÐ°": 8103,
      "Ð¾Ð²ÐµÑĤ": 8104,
      "ĠÐĺÑĢ": 8105,
      "ĠÐ²Ð¾Ð·ÑĮ": 8106,
      "ĠÐ²ÑĭÐ´": 8107,
      "ĠÐ±Ð¾Ð³Ð°": 8108,
      "ĠÐ½Ð°ÑĩÐ¸": 8109,
      "ĠÐ¿ÑĢÐ¸ÑģÑĤÑĥÐ¿": 8110,
      "ĠÐ¾ÑīÑĥÑīÐµÐ½Ð¸Ðµ": 8111,
      "ĠÐĺÑģ": 8112,
      "ÑĪÐºÐµ": 8113,
      "ĠÐ¿ÑĢÐ¸Ð²Ð¾Ð´Ð¸ÑĤ": 8114,
      "ĠÐ¿Ð°ÑĢÐ°Ð¼ÐµÑĤ": 8115,
      "ĠÑģÑĤÑĢÐ°Ð½Ð°": 8116,
      "ÑĢÐ¾Ð²Ð°Ð½Ð¸Ð¸": 8117,
      "ĠÐ¾Ð±Ð¾ÑĢÑĥÐ´Ð¾Ð²Ð°Ð½Ð¸Ðµ": 8118,
      "ĠÐ²ÐµÑģÐµÐ»": 8119,
      "ording": 8120,
      "ĠTe": 8121,
      "ĠÐºÐ°Ñģ": 8122,
      "ĠÑĦÐ¾Ð½Ðµ": 8123,
      "ĠÐ²ÑĭÐ´ÐµÑĢÐ¶": 8124,
      "ĠÐ¼Ð¸ÑĢÑĥ": 8125,
      "ÑĥÐ»Ð¸": 8126,
      "ĠSe": 8127,
      "ĠÐ´Ð²Ð¾Ðµ": 8128,
      "ĠÐŁÐ¸ÑĤ": 8129,
      "ĠÐ¾Ð±Ð»Ð¸": 8130,
      "ÑĢÐµÐ±Ñĥ": 8131,
      "ĠÐ¿ÑĢÐ¾Ð¸Ð·Ð²Ð¾Ð´ÑģÑĤÐ²Ð¾": 8132,
      "ĠÐºÐ¾Ð½ÑĤÑĢÐ¾Ð»Ñı": 8133,
      "ĠÐľÐ°ÑĤ": 8134,
      "ĠÐ²Ð·Ð°Ð¸Ð¼Ð¾Ð´ÐµÐ¹ÑģÑĤÐ²": 8135,
      "ĠÐ½Ð°Ð´ÐµÐ¶": 8136,
      "ÐµÐ½ÑĤÐ¾Ð¼": 8137,
      "ane": 8138,
      "ÑĢÐ¾Ð²Ð°Ð½Ð¾": 8139,
      "ĠÑģÐµÐºÑĢÐµÑĤ": 8140,
      "ĠÐ³Ð°ÑĢÐ°Ð½ÑĤÐ¸": 8141,
      "Ð°Ð³Ð°Ð½": 8142,
      "Ð½ÐµÑĢÐ°": 8143,
      "ĠÑĤÐµÐ»ÐµÑĦÐ¾Ð½Ð°": 8144,
      "41": 8145,
      "ÑĩÐµÐ½Ð½ÑĭÐ¹": 8146,
      "Ð¿ÐµÐ²": 8147,
      "ĠÐ¿ÑĢÐ¸ÑĢÐ¾Ð´Ñĭ": 8148,
      "Ð¼Ð¸Ð½Ð°": 8149,
      "ĠÐ½Ð°Ð¿Ð¸ÑĤ": 8150,
      "Ġconst": 8151,
      "ĠÐ·Ð°Ð³Ð°Ð´": 8152,
      "ĠÑıÐº": 8153,
      "ĠÐ¼Ð¾Ð»Ð¸ÑĤ": 8154,
      "ĠÐ¿ÑĭÑĤÐ°Ð»ÑģÑı": 8155,
      "ĠÐ´Ð½ÐµÐ¼": 8156,
      "Ð¿Ð°Ð´Ð°": 8157,
      "ĠÐ¿Ð¾Ð²Ðµ": 8158,
      "ĠÐ¿ÑĢÐµÐ´ÑģÑĤÐ°Ð²Ð¸ÑĤÐµÐ»Ð¸": 8159,
      "Ġrequ": 8160,
      "bl": 8161,
      "ittle": 8162,
      "ĠÐĹÐ°ÑĩÐµÐ¼": 8163,
      "Ð¼ÐµÐ½ÑĤÐ¸": 8164,
      "ĠÐµÐ²ÑĢÐ¾": 8165,
      "ĠÐŁÑĢÐµÐ·Ð¸Ð´": 8166,
      "ĠÑĥÐ½Ð¸Ð²ÐµÑĢÑģÐ¸ÑĤÐµÑĤÐ°": 8167,
      "akes": 8168,
      "ĠÐĿÐ¸ÑĩÐµÐ³Ð¾": 8169,
      "ĠÐ¿Ð¾Ð½Ð°Ð´Ð¾Ð±": 8170,
      "Ġfour": 8171,
      "ĠÐºÑĢÑĥÐ¶": 8172,
      "ky": 8173,
      "ĠÐ²ÑĭÐ¿Ð¾Ð»Ð½": 8174,
      "ĠÐ¿Ð¾Ð·Ð²Ð¾Ð»Ð¸ÑĤ": 8175,
      "versity": 8176,
      "Ð´Ð¸Ð»": 8177,
      "ÑĦÐ¸Ð»ÑĮ": 8178,
      "Ġincluding": 8179,
      "ĠÐ½Ð°ÑģÐ»Ð°": 8180,
      "ĠÐ³Ð¸Ð´": 8181,
      "ĠÐ¹": 8182,
      "Ð·ÑĭÐ²Ð°Ñı": 8183,
      "ĠÐºÐ°ÑĦ": 8184,
      "ĠÐ¿Ð¾ÑģÐ»ÐµÐ´Ð½Ð¸Ñħ": 8185,
      "ĠÑĥÐ¿ÑĢÐ°Ð¶": 8186,
      "ĠÑĦÐ°ÑĢ": 8187,
      "Ġ2018": 8188,
      "ĠÐ¿Ð¾ÑĢÑıÐ´ÐºÐ°": 8189,
      "ĠÐ¾ÑĤÐºÐ»Ñİ": 8190,
[...]
